{
  "version": "1.0",
  "truncation": null,
  "padding": null,
  "added_tokens": [
    {
      "id": 0,
      "content": "<pad>",
      "single_word": false,
      "lstrip": false,
      "rstrip": false,
      "normalized": false,
      "special": true
    },
    {
      "id": 1,
      "content": "<s>",
      "single_word": false,
      "lstrip": false,
      "rstrip": false,
      "normalized": false,
      "special": true
    },
    {
      "id": 2,
      "content": "</s>",
      "single_word": false,
      "lstrip": false,
      "rstrip": false,
      "normalized": false,
      "special": true
    },
    {
      "id": 3,
      "content": "<unk>",
      "single_word": false,
      "lstrip": false,
      "rstrip": false,
      "normalized": false,
      "special": true
    }
  ],
  "normalizer": null,
  "pre_tokenizer": {
    "type": "ByteLevel",
    "add_prefix_space": false,
    "trim_offsets": true,
    "use_regex": true
  },
  "post_processor": {
    "type": "TemplateProcessing",
    "single": [
      {
        "SpecialToken": {
          "id": "<s>",
          "type_id": 0
        }
      },
      {
        "Sequence": {
          "id": "A",
          "type_id": 0
        }
      },
      {
        "SpecialToken": {
          "id": "</s>",
          "type_id": 0
        }
      }
    ],
    "pair": [
      {
        "Sequence": {
          "id": "A",
          "type_id": 0
        }
      },
      {
        "Sequence": {
          "id": "B",
          "type_id": 1
        }
      }
    ],
    "special_tokens": {
      "</s>": {
        "id": "</s>",
        "ids": [
          2
        ],
        "tokens": [
          "</s>"
        ]
      },
      "<s>": {
        "id": "<s>",
        "ids": [
          1
        ],
        "tokens": [
          "<s>"
        ]
      }
    }
  },
  "decoder": {
    "type": "ByteLevel",
    "add_prefix_space": true,
    "trim_offsets": true,
    "use_regex": true
  },
  "model": {
    "type": "BPE",
    "dropout": null,
    "unk_token": null,
    "continuing_subword_prefix": null,
    "end_of_word_suffix": null,
    "fuse_unk": false,
    "byte_fallback": false,
    "ignore_merges": false,
    "vocab": {
      "<pad>": 0,
      "<s>": 1,
      "</s>": 2,
      "<unk>": 3,
      "!": 4,
      "\"": 5,
      "#": 6,
      "$": 7,
      "%": 8,
      "&": 9,
      "'": 10,
      "(": 11,
      ")": 12,
      "*": 13,
      "+": 14,
      ",": 15,
      "-": 16,
      ".": 17,
      "/": 18,
      "0": 19,
      "1": 20,
      "2": 21,
      "3": 22,
      "4": 23,
      "5": 24,
      "6": 25,
      "7": 26,
      "8": 27,
      "9": 28,
      ":": 29,
      ";": 30,
      "<": 31,
      "=": 32,
      ">": 33,
      "?": 34,
      "@": 35,
      "A": 36,
      "B": 37,
      "C": 38,
      "D": 39,
      "E": 40,
      "F": 41,
      "G": 42,
      "H": 43,
      "I": 44,
      "J": 45,
      "K": 46,
      "L": 47,
      "M": 48,
      "N": 49,
      "O": 50,
      "P": 51,
      "Q": 52,
      "R": 53,
      "S": 54,
      "T": 55,
      "U": 56,
      "V": 57,
      "W": 58,
      "X": 59,
      "Y": 60,
      "Z": 61,
      "[": 62,
      "\\": 63,
      "]": 64,
      "^": 65,
      "_": 66,
      "`": 67,
      "a": 68,
      "b": 69,
      "c": 70,
      "d": 71,
      "e": 72,
      "f": 73,
      "g": 74,
      "h": 75,
      "i": 76,
      "j": 77,
      "k": 78,
      "l": 79,
      "m": 80,
      "n": 81,
      "o": 82,
      "p": 83,
      "q": 84,
      "r": 85,
      "s": 86,
      "t": 87,
      "u": 88,
      "v": 89,
      "w": 90,
      "x": 91,
      "y": 92,
      "z": 93,
      "{": 94,
      "|": 95,
      "}": 96,
      "~": 97,
      "¡": 98,
      "¢": 99,
      "£": 100,
      "¤": 101,
      "¥": 102,
      "¦": 103,
      "§": 104,
      "¨": 105,
      "©": 106,
      "ª": 107,
      "«": 108,
      "¬": 109,
      "®": 110,
      "¯": 111,
      "°": 112,
      "±": 113,
      "²": 114,
      "³": 115,
      "´": 116,
      "µ": 117,
      "¶": 118,
      "·": 119,
      "¸": 120,
      "¹": 121,
      "º": 122,
      "»": 123,
      "¼": 124,
      "½": 125,
      "¾": 126,
      "¿": 127,
      "À": 128,
      "Á": 129,
      "Â": 130,
      "Ã": 131,
      "Ä": 132,
      "Å": 133,
      "Æ": 134,
      "Ç": 135,
      "È": 136,
      "É": 137,
      "Ê": 138,
      "Ë": 139,
      "Ì": 140,
      "Í": 141,
      "Î": 142,
      "Ï": 143,
      "Ð": 144,
      "Ñ": 145,
      "Ò": 146,
      "Ó": 147,
      "Ô": 148,
      "Õ": 149,
      "Ö": 150,
      "×": 151,
      "Ø": 152,
      "Ù": 153,
      "Ú": 154,
      "Û": 155,
      "Ü": 156,
      "Ý": 157,
      "Þ": 158,
      "ß": 159,
      "à": 160,
      "á": 161,
      "â": 162,
      "ã": 163,
      "ä": 164,
      "å": 165,
      "æ": 166,
      "ç": 167,
      "è": 168,
      "é": 169,
      "ê": 170,
      "ë": 171,
      "ì": 172,
      "í": 173,
      "î": 174,
      "ï": 175,
      "ð": 176,
      "ñ": 177,
      "ò": 178,
      "ó": 179,
      "ô": 180,
      "õ": 181,
      "ö": 182,
      "÷": 183,
      "ø": 184,
      "ù": 185,
      "ú": 186,
      "û": 187,
      "ü": 188,
      "ý": 189,
      "þ": 190,
      "ÿ": 191,
      "Ā": 192,
      "ā": 193,
      "Ă": 194,
      "ă": 195,
      "Ą": 196,
      "ą": 197,
      "Ć": 198,
      "ć": 199,
      "Ĉ": 200,
      "ĉ": 201,
      "Ċ": 202,
      "ċ": 203,
      "Č": 204,
      "č": 205,
      "Ď": 206,
      "ď": 207,
      "Đ": 208,
      "đ": 209,
      "Ē": 210,
      "ē": 211,
      "Ĕ": 212,
      "ĕ": 213,
      "Ė": 214,
      "ė": 215,
      "Ę": 216,
      "ę": 217,
      "Ě": 218,
      "ě": 219,
      "Ĝ": 220,
      "ĝ": 221,
      "Ğ": 222,
      "ğ": 223,
      "Ġ": 224,
      "ġ": 225,
      "Ģ": 226,
      "ģ": 227,
      "Ĥ": 228,
      "ĥ": 229,
      "Ħ": 230,
      "ħ": 231,
      "Ĩ": 232,
      "ĩ": 233,
      "Ī": 234,
      "ī": 235,
      "Ĭ": 236,
      "ĭ": 237,
      "Į": 238,
      "į": 239,
      "İ": 240,
      "ı": 241,
      "Ĳ": 242,
      "ĳ": 243,
      "Ĵ": 244,
      "ĵ": 245,
      "Ķ": 246,
      "ķ": 247,
      "ĸ": 248,
      "Ĺ": 249,
      "ĺ": 250,
      "Ļ": 251,
      "ļ": 252,
      "Ľ": 253,
      "ľ": 254,
      "Ŀ": 255,
      "ŀ": 256,
      "Ł": 257,
      "ł": 258,
      "Ń": 259,
      "Ġt": 260,
      "Ġa": 261,
      "he": 262,
      "in": 263,
      "Ġthe": 264,
      "on": 265,
      "er": 266,
      "re": 267,
      "Ġo": 268,
      "at": 269,
      "an": 270,
      "Ġs": 271,
      "en": 272,
      "is": 273,
      "ed": 274,
      "es": 275,
      "al": 276,
      "Ġc": 277,
      "Ġan": 278,
      "Ġof": 279,
      "it": 280,
      "Ġw": 281,
      "or": 282,
      "ar": 283,
      "Ġin": 284,
      "ic": 285,
      "Ġf": 286,
      "Ġp": 287,
      "Ġb": 288,
      "Ġand": 289,
      "ion": 290,
      "ro": 291,
      "ĠA": 292,
      "Ġm": 293,
      "ing": 294,
      "as": 295,
      "Ġto": 296,
      "Ġd": 297,
      "le": 298,
      "Ġh": 299,
      "ou": 300,
      "ent": 301,
      "ol": 302,
      "il": 303,
      "Ġe": 304,
      "st": 305,
      "Ġre": 306,
      "om": 307,
      "ct": 308,
      "Ġl": 309,
      "ĠT": 310,
      "el": 311,
      "Ġth": 312,
      "Ġn": 313,
      "ation": 314,
      "ĠS": 315,
      "im": 316,
      "ly": 317,
      "iv": 318,
      "id": 319,
      "us": 320,
      "et": 321,
      "ch": 322,
      "ur": 323,
      "Ġis": 324,
      "ce": 325,
      "am": 326,
      "ĠC": 327,
      "ad": 328,
      "ot": 329,
      "Ġas": 330,
      "Ġ1": 331,
      "Ġ(": 332,
      "ut": 333,
      "Ġg": 334,
      "Ġbe": 335,
      "ig": 336,
      "Ġfor": 337,
      "ist": 338,
      "un": 339,
      "ul": 340,
      "Ġon": 341,
      "Ġal": 342,
      "ir": 343,
      "ers": 344,
      "ĠI": 345,
      "Ġst": 346,
      "th": 347,
      "ith": 348,
      "ĠThe": 349,
      "her": 350,
      "ra": 351,
      "ĠM": 352,
      "em": 353,
      "um": 354,
      "Ġcon": 355,
      "os": 356,
      "ow": 357,
      "ĠP": 358,
      "op": 359,
      "Ġwith": 360,
      "ĠB": 361,
      "ver": 362,
      "Ġwas": 363,
      "Ġby": 364,
      "ter": 365,
      "Ġthat": 366,
      "ĠH": 367,
      "Ġwh": 368,
      "and": 369,
      "od": 370,
      "est": 371,
      "Ġpro": 372,
      "Ġare": 373,
      "if": 374,
      "Ġor": 375,
      "ĠE": 376,
      "ies": 377,
      "ate": 378,
      "av": 379,
      "rom": 380,
      "res": 381,
      "ay": 382,
      "ag": 383,
      "ab": 384,
      "Ġde": 385,
      "ĠL": 386,
      "Ġ2": 387,
      "Ġv": 388,
      "'s": 389,
      "oun": 390,
      "ĠR": 391,
      "pe": 392,
      "ian": 393,
      "Ġit": 394,
      "Ġex": 395,
      "Ġfrom": 396,
      "ĠF": 397,
      "ĠN": 398,
      "ĠG": 399,
      "Ġat": 400,
      "Ġsu": 401,
      "ci": 402,
      "ity": 403,
      "ical": 404,
      "Ġcom": 405,
      "ac": 406,
      "ain": 407,
      "Ġ\"": 408,
      "ud": 409,
      "Ġhe": 410,
      "ĠD": 411,
      "Ġ19": 412,
      "og": 413,
      "ant": 414,
      "Ġmo": 415,
      "ĠAl": 416,
      "qu": 417,
      "ĠIn": 418,
      "ri": 419,
      "ĠW": 420,
      "ich": 421,
      "Ġr": 422,
      "ld": 423,
      "ill": 424,
      "ort": 425,
      "00": 426,
      "ia": 427,
      "ment": 428,
      "ated": 429,
      "Ġse": 430,
      "ĠO": 431,
      "ive": 432,
      "gh": 433,
      "ess": 434,
      "ĠU": 435,
      "pp": 436,
      "Ġhis": 437,
      "art": 438,
      "Ġus": 439,
      "ure": 440,
      "ther": 441,
      "Ġun": 442,
      "ber": 443,
      "se": 444,
      "ard": 445,
      "igh": 446,
      "Ġwhich": 447,
      "ak": 448,
      "ph": 449,
      "ave": 450,
      "ong": 451,
      "pt": 452,
      "lo": 453,
      "ions": 454,
      "end": 455,
      "ĠAn": 456,
      "our": 457,
      "Ġch": 458,
      "ary": 459,
      "du": 460,
      "so": 461,
      "ous": 462,
      "all": 463,
      "ult": 464,
      "cl": 465,
      "ast": 466,
      "ew": 467,
      "ĠJ": 468,
      "Ġar": 469,
      "ally": 470,
      "ran": 471,
      "Ġle": 472,
      "ect": 473,
      "Ġnot": 474,
      "up": 475,
      "ell": 476,
      "ere": 477,
      "ang": 478,
      "Ġhave": 479,
      "The": 480,
      "Ġwor": 481,
      "),": 482,
      "act": 483,
      "ub": 484,
      "Ġcont": 485,
      "Ġwere": 486,
      "ass": 487,
      "ĠK": 488,
      "ov": 489,
      "iz": 490,
      "ry": 491,
      "oc": 492,
      "ear": 493,
      "ount": 494,
      "ates": 495,
      "ome": 496,
      "red": 497,
      "per": 498,
      "rit": 499,
      "Ġac": 500,
      "âĢ": 501,
      "ence": 502,
      "Ġhas": 503,
      "ĠĊ": 504,
      "pol": 505,
      "ations": 506,
      "Ġ20": 507,
      "Ġab": 508,
      "Ġcomp": 509,
      "der": 510,
      "mer": 511,
      "ine": 512,
      "Ġalso": 513,
      "Ġint": 514,
      "ĠAr": 515,
      "ight": 516,
      "Ġtheir": 517,
      "ib": 518,
      "ater": 519,
      "Ġad": 520,
      "ish": 521,
      "Ġother": 522,
      "Ġits": 523,
      "Ġpl": 524,
      "Ġk": 525,
      "ide": 526,
      "ric": 527,
      "ff": 528,
      "ĠSt": 529,
      "als": 530,
      "ru": 531,
      "ame": 532,
      "ip": 533,
      "Ġwhe": 534,
      "ism": 535,
      "Ġsh": 536,
      "ore": 537,
      "Ġy": 538,
      "ely": 539,
      "Ġhad": 540,
      "ge": 541,
      "tern": 542,
      "age": 543,
      "Ġsp": 544,
      "ree": 545,
      "ap": 546,
      "Ġpart": 547,
      "ace": 548,
      "ĠUn": 549,
      "clud": 550,
      "ks": 551,
      "Ġbut": 552,
      "con": 553,
      "fer": 554,
      "over": 555,
      "Ġres": 556,
      "lect": 557,
      "out": 558,
      "ory": 559,
      "irst": 560,
      "Ġim": 561,
      "ial": 562,
      "ould": 563,
      "Ġen": 564,
      "ition": 565,
      "ep": 566,
      "ces": 567,
      "ts": 568,
      "Ġman": 569,
      "ĠCh": 570,
      "ire": 571,
      "ign": 572,
      "Ġone": 573,
      "Ġper": 574,
      "olog": 575,
      "Ġall": 576,
      "Ġdis": 577,
      "ron": 578,
      ").": 579,
      "ust": 580,
      "Ġcl": 581,
      "âĢĵ": 582,
      "Ġte": 583,
      "ren": 584,
      "ational": 585,
      "Ġinclud": 586,
      "Ġcan": 587,
      "Ġform": 588,
      "Ġfirst": 589,
      "Ġso": 590,
      "Ġthis": 591,
      "Ġph": 592,
      "Ġbec": 593,
      "Ġam": 594,
      "ound": 595,
      "ile": 596,
      "orm": 597,
      "ĠAf": 598,
      "ost": 599,
      "erm": 600,
      "und": 601,
      "pl": 602,
      "ium": 603,
      "ie": 604,
      "Ġbeen": 605,
      "Ġag": 606,
      "ress": 607,
      "ĠTh": 608,
      "ans": 609,
      "ue": 610,
      "che": 611,
      "Ġrel": 612,
      "Ġmost": 613,
      "ction": 614,
      "vel": 615,
      "Ġmore": 616,
      "Ġcomm": 617,
      "Ġspe": 618,
      "Ġsuch": 619,
      "pollo": 620,
      "ĠHe": 621,
      "able": 622,
      "erv": 623,
      "Ġgro": 624,
      "Ġused": 625,
      "ens": 626,
      "ime": 627,
      "Ġmet": 628,
      "Ġ201": 629,
      "Ġcent": 630,
      "ord": 631,
      "Ġthey": 632,
      "lic": 633,
      "ik": 634,
      "Ġme": 635,
      "Ġ18": 636,
      "ced": 637,
      "ugh": 638,
      "Ġwho": 639,
      "Ġro": 640,
      "Ġcount": 641,
      "wo": 642,
      "ics": 643,
      "te": 644,
      "ok": 645,
      "In": 646,
      "Ġsy": 647,
      "ĠApollo": 648,
      "ists": 649,
      "own": 650,
      "ited": 651,
      "Ġcons": 652,
      "ough": 653,
      "port": 654,
      "ents": 655,
      "ack": 656,
      "cc": 657,
      "Ġyear": 658,
      "uring": 659,
      "Ġapp": 660,
      "ose": 661,
      "Ġthan": 662,
      "een": 663,
      "Ġinto": 664,
      "ific": 665,
      "ance": 666,
      "Ġev": 667,
      "19": 668,
      "Ġj": 669,
      "aus": 670,
      "ors": 671,
      "cre": 672,
      "ĠAs": 673,
      "oll": 674,
      "amp": 675,
      "Ġprodu": 676,
      "ĠV": 677,
      "ark": 678,
      "ys": 679,
      "ach": 680,
      "ural": 681,
      "meric": 682,
      "hed": 683,
      "Ġne": 684,
      "land": 685,
      "Ġ200": 686,
      "ied": 687,
      "angu": 688,
      "rib": 689,
      "ilm": 690,
      "fter": 691,
      "ĠIt": 692,
      "Âł": 693,
      "Ġsome": 694,
      "Ġpre": 695,
      "Ġstate": 696,
      "ury": 697,
      "Ġlar": 698,
      "les": 699,
      "ual": 700,
      "Ġart": 701,
      "Ġover": 702,
      "ular": 703,
      "ities": 704,
      "cial": 705,
      "reat": 706,
      "arch": 707,
      "Ġsub": 708,
      "ade": 709,
      "etw": 710,
      "ious": 711,
      "Ġtwo": 712,
      "ward": 713,
      "ice": 714,
      "ite": 715,
      "iss": 716,
      "ivers": 717,
      "ution": 718,
      "ase": 719,
      "Ġ3": 720,
      "Ġdes": 721,
      "Ġreg": 722,
      "ten": 723,
      "ener": 724,
      "rough": 725,
      "Ġlangu": 726,
      "Ġind": 727,
      "Ġear": 728,
      "gan": 729,
      "rans": 730,
      "Ġonly": 731,
      "Ġpe": 732,
      "ings": 733,
      "oth": 734,
      "ĠAmeric": 735,
      "ince": 736,
      "Ġpres": 737,
      "Ġnum": 738,
      "etween": 739,
      "ages": 740,
      "Ġthem": 741,
      "Ġpr": 742,
      "ased": 743,
      "ject": 744,
      "Ġatt": 745,
      "the": 746,
      "ds": 747,
      "Ġafter": 748,
      "Ġmany": 749,
      "Ġpop": 750,
      "Ġmod": 751,
      "Ġtime": 752,
      "ai": 753,
      "ban": 754,
      "Ġkn": 755,
      "ted": 756,
      "Ġfilm": 757,
      "ology": 758,
      "oin": 759,
      "overn": 760,
      "Ġhim": 761,
      "Ġwould": 762,
      "Ġpol": 763,
      "Ġbetween": 764,
      "ĠThis": 765,
      "aw": 766,
      "Ġchar": 767,
      "ood": 768,
      "Ġrec": 769,
      "ob": 770,
      "Ġact": 771,
      "atic": 772,
      "urn": 773,
      "oh": 774,
      "ern": 775,
      "velop": 776,
      "orth": 777,
      "Ġvar": 778,
      "Ġwhen": 779,
      "stit": 780,
      "Ġunder": 781,
      "ons": 782,
      "Ġout": 783,
      "ative": 784,
      "Ġmay": 785,
      "stem": 786,
      "Ġup": 787,
      "one": 788,
      "ople": 789,
      "ever": 790,
      "Ġthere": 791,
      "ublic": 792,
      "are": 793,
      "ures": 794,
      "Ġob": 795,
      "\".": 796,
      "Ġdif": 797,
      "ail": 798,
      "oph": 799,
      "Ġher": 800,
      "Ġinter": 801,
      "inc": 802,
      "Ġabout": 803,
      "Ġgroup": 804,
      "Ġacc": 805,
      "form": 806,
      "uc": 807,
      "Ġprov": 808,
      "ians": 809,
      "ger": 810,
      "old": 811,
      "ilos": 812,
      "very": 813,
      "Ġqu": 814,
      "Ġem": 815,
      "ha": 816,
      "uro": 817,
      "Ġfound": 818,
      "rad": 819,
      "ond": 820,
      "Ġanim": 821,
      "Ġduring": 822,
      "outh": 823,
      "Ġwhere": 824,
      "bert": 825,
      "Ġthrough": 826,
      "ature": 827,
      "Ġdef": 828,
      "ause": 829,
      "ix": 830,
      "ized": 831,
      "arm": 832,
      "ĠAng": 833,
      "Ġstud": 834,
      "Ġuse": 835,
      "chn": 836,
      "ically": 837,
      "ath": 838,
      "Ġsystem": 839,
      "ind": 840,
      "Ġcountry": 841,
      "Ġcre": 842,
      "Ġelect": 843,
      "Ġdevelop": 844,
      "Ġyears": 845,
      "ĠSe": 846,
      "ĠCon": 847,
      "ident": 848,
      "ae": 849,
      "wn": 850,
      "ating": 851,
      "Ġap": 852,
      "Ġrem": 853,
      "ower": 854,
      "ake": 855,
      "Ġtrans": 856,
      "Ġest": 857,
      "Ġgovern": 858,
      "ished": 859,
      "ug": 860,
      "Ġcentury": 861,
      "20": 862,
      "ve": 863,
      "Ġra": 864,
      "Ġalk": 865,
      "ild": 866,
      "Ġworld": 867,
      "ask": 868,
      "ict": 869,
      "Ġwe": 870,
      "ily": 871,
      "ved": 872,
      "Ġcol": 873,
      "erb": 874,
      "ert": 875,
      "ollow": 876,
      "ered": 877,
      "Ġass": 878,
      "Ġwork": 879,
      "Ġhum": 880,
      "ays": 881,
      "Ġ4": 882,
      "ste": 883,
      "cept": 884,
      "ft": 885,
      "pos": 886,
      "Ġtra": 887,
      "Ġdist": 888,
      "iet": 889,
      "ues": 890,
      "Ġinv": 891,
      "ĠAt": 892,
      "Ġext": 893,
      "000": 894,
      "ments": 895,
      "aj": 896,
      "Ġpos": 897,
      "ll": 898,
      "Ġdo": 899,
      "\",": 900,
      "Ġrep": 901,
      "ually": 902,
      "ars": 903,
      "ulation": 904,
      "Ġsur": 905,
      "Ġfl": 906,
      "Ġpeople": 907,
      "Ġgener": 908,
      "jan": 909,
      "Ġthese": 910,
      "Ġwrit": 911,
      "Ġoff": 912,
      "gest": 913,
      "fore": 914,
      "oln": 915,
      "Ġwhile": 916,
      "Ġappe": 917,
      "Ġterm": 918,
      "inal": 919,
      "Ġboth": 920,
      "Ġ199": 921,
      "ins": 922,
      "ffect": 923,
      "Ġspec": 924,
      "incoln": 925,
      "Ġco": 926,
      "ĠUnited": 927,
      "urope": 928,
      "ract": 929,
      "ĠInd": 930,
      "ral": 931,
      "ĠAg": 932,
      "ĠAnd": 933,
      "ife": 934,
      "ĠStates": 935,
      "hip": 936,
      "ise": 937,
      "Ġcall": 938,
      "cent": 939,
      "ky": 940,
      "owever": 941,
      "Ġnew": 942,
      "Ġhy": 943,
      "irect": 944,
      "fl": 945,
      "Ġhigh": 946,
      "Ġacid": 947,
      "Ġknown": 948,
      "ourt": 949,
      "ne": 950,
      "round": 951,
      "raph": 952,
      "Ġincluding": 953,
      "ĠAlban": 954,
      "Ġwell": 955,
      "Ġbeing": 956,
      "ement": 957,
      "iel": 958,
      "ton": 959,
      "Ġcar": 960,
      "Ġthree": 961,
      "Ġ5": 962,
      "Ġdiffer": 963,
      "illion": 964,
      "ck": 965,
      "Ġno": 966,
      "ama": 967,
      "Ġsc": 968,
      "eg": 969,
      "Ġbo": 970,
      "Ġsim": 971,
      "ĠAngol": 972,
      "Ġfollow": 973,
      "Ġfe": 974,
      "ĠEurope": 975,
      "ĠLincoln": 976,
      "conom": 977,
      "Ġtechn": 978,
      "Ġcult": 979,
      "Ġoften": 980,
      "An": 981,
      "ived": 982,
      "Ġcharact": 983,
      "Ġmain": 984,
      "ah": 985,
      "ĠAz": 986,
      "Ġland": 987,
      "Ġwater": 988,
      "ĠPro": 989,
      "Ġsupp": 990,
      "Ġphilos": 991,
      "gy": 992,
      "Ġpartic": 993,
      "ale": 994,
      "aijan": 995,
      "erbaijan": 996,
      "Ġsch": 997,
      "Ġpers": 998,
      "Ġexp": 999,
      "ike": 1000,
      "Ġlater": 1001,
      "ohn": 1002,
      "Ġloc": 1003,
      "uch": 1004,
      "ĠEn": 1005,
      "ĠAmerican": 1006,
      "ines": 1007,
      "iqu": 1008,
      "ides": 1009,
      "imes": 1010,
      "Ġbecame": 1011,
      "ajor": 1012,
      "any": 1013,
      "other": 1014,
      "hen": 1015,
      "Ġsm": 1016,
      "Ġ196": 1017,
      "Ġnumber": 1018,
      "ram": 1019,
      "Ġimp": 1020,
      "iversity": 1021,
      "Ġlanguages": 1022,
      "ĠSp": 1023,
      "Ġdec": 1024,
      "Ġany": 1025,
      "Ġgovernment": 1026,
      "Ġsign": 1027,
      "emb": 1028,
      "ample": 1029,
      "ĠZ": 1030,
      "Ġend": 1031,
      "Ġaut": 1032,
      "iew": 1033,
      "ex": 1034,
      "ali": 1035,
      "Ġset": 1036,
      "orn": 1037,
      "cess": 1038,
      "ĠDe": 1039,
      "cy": 1040,
      "ences": 1041,
      "Ġmade": 1042,
      "ains": 1043,
      "led": 1044,
      "elf": 1045,
      "uss": 1046,
      "thro": 1047,
      "ax": 1048,
      "its": 1049,
      "Ġincre": 1050,
      "Ġconsid": 1051,
      "ĠĊĠĊ": 1052,
      "ĠAzerbaijan": 1053,
      "aska": 1054,
      "ĠY": 1055,
      "ĠOr": 1056,
      "Ġpopulation": 1057,
      "li": 1058,
      "my": 1059,
      "ĠSch": 1060,
      "alt": 1061,
      "Ġbel": 1062,
      "cient": 1063,
      "ility": 1064,
      "ool": 1065,
      "ives": 1066,
      "ĠJohn": 1067,
      "Ġmed": 1068,
      "stron": 1069,
      "ghan": 1070,
      "Ġearly": 1071,
      "Ġ,": 1072,
      "pect": 1073,
      "Ġadd": 1074,
      "cond": 1075,
      "Ġcalled": 1076,
      "ĠGree": 1077,
      "Ġcontin": 1078,
      "ruct": 1079,
      "vent": 1080,
      "Ġty": 1081,
      "Ġhuman": 1082,
      "lish": 1083,
      "ange": 1084,
      "ĠAfric": 1085,
      "ane": 1086,
      "Ġmajor": 1087,
      "Ġdirect": 1088,
      "ĠRe": 1089,
      "Ġlong": 1090,
      "lished": 1091,
      "ision": 1092,
      "Ġhist": 1093,
      "ather": 1094,
      "Ġthen": 1095,
      "Ġsl": 1096,
      "ley": 1097,
      "Ġmin": 1098,
      "stein": 1099,
      "Ġ6": 1100,
      "Ġeconom": 1101,
      "ograph": 1102,
      "ty": 1103,
      "Ġinclude": 1104,
      "ording": 1105,
      ".\"": 1106,
      "Ġed": 1107,
      "ember": 1108,
      "Ġcommon": 1109,
      "tle": 1110,
      "Ġocc": 1111,
      "Ġref": 1112,
      "adem": 1113,
      "Ġ17": 1114,
      "ute": 1115,
      "though": 1116,
      "ible": 1117,
      "air": 1118,
      "Ġrev": 1119,
      "istan": 1120,
      "Ġorig": 1121,
      "ricult": 1122,
      "Ġbecause": 1123,
      "Ġserv": 1124,
      "iter": 1125,
      "ĠFor": 1126,
      "aut": 1127,
      "ann": 1128,
      "Ġresult": 1129,
      "ting": 1130,
      "eder": 1131,
      "ital": 1132,
      "Ġfour": 1133,
      "ĠNew": 1134,
      "Ġ197": 1135,
      "omet": 1136,
      "Ġleg": 1137,
      "Ġspace": 1138,
      "iod": 1139,
      "ĠIs": 1140,
      "polog": 1141,
      "Al": 1142,
      "hem": 1143,
      "Ġent": 1144,
      "Ġret": 1145,
      "Ġpolit": 1146,
      "Ġsmall": 1147,
      "Ġexample": 1148,
      "Ġdesc": 1149,
      "instein": 1150,
      "ively": 1151,
      "Ġeffect": 1152,
      "Ġorgan": 1153,
      "ĠAlaska": 1154,
      "ternational": 1155,
      "Ġagain": 1156,
      "ĠThey": 1157,
      "ĠWar": 1158,
      "Ġamong": 1159,
      "Ġcould": 1160,
      "tic": 1161,
      "thropolog": 1162,
      "ss": 1163,
      "enn": 1164,
      "rog": 1165,
      "wards": 1166,
      "Ġ7": 1167,
      "Ġwill": 1168,
      "ĠAch": 1169,
      "ĠAfghan": 1170,
      "uer": 1171,
      "abama": 1172,
      "Ġsever": 1173,
      "Ġwar": 1174,
      "istot": 1175,
      "ined": 1176,
      "Ġequ": 1177,
      "to": 1178,
      "Ġexper": 1179,
      "Ġmov": 1180,
      "ries": 1181,
      "Ġfam": 1182,
      "Ġeach": 1183,
      "Ġbefore": 1184,
      "ĠPh": 1185,
      "ĠCom": 1186,
      "flu": 1187,
      "rong": 1188,
      "Ġele": 1189,
      "Ġsince": 1190,
      "ants": 1191,
      "ĠWor": 1192,
      "Ġastron": 1193,
      "hes": 1194,
      "ional": 1195,
      "resent": 1196,
      "ained": 1197,
      "ĠAlbert": 1198,
      "Ġimport": 1199,
      "Ġ.": 1200,
      "Ġtem": 1201,
      "ĠAd": 1202,
      "ivid": 1203,
      "assi": 1204,
      "Ġhyd": 1205,
      "ful": 1206,
      "yl": 1207,
      "ization": 1208,
      "ged": 1209,
      "Ġstates": 1210,
      "Ġcomple": 1211,
      "Ġdisc": 1212,
      "Ġshe": 1213,
      "Ġsol": 1214,
      "ared": 1215,
      "til": 1216,
      "inn": 1217,
      "Ġnam": 1218,
      "ilit": 1219,
      "Ġdep": 1220,
      "Ġ198": 1221,
      "Ġlead": 1222,
      "Ġ8": 1223,
      "Ġdifferent": 1224,
      "Ġtrad": 1225,
      "Ġbased": 1226,
      "rop": 1227,
      "open": 1228,
      "ĠNorth": 1229,
      "ĠAngola": 1230,
      "com": 1231,
      "ick": 1232,
      "illes": 1233,
      "aking": 1234,
      "ank": 1235,
      "ised": 1236,
      "rol": 1237,
      "ody": 1238,
      "ĠRep": 1239,
      "Ġmean": 1240,
      "ĠOn": 1241,
      "io": 1242,
      "Ġter": 1243,
      "iving": 1244,
      "sc": 1245,
      "Ġthose": 1246,
      "Ġsecond": 1247,
      "âĢĶ": 1248,
      "ĠUniversity": 1249,
      "Ġoil": 1250,
      "ified": 1251,
      "ilar": 1252,
      "els": 1253,
      "Ġbu": 1254,
      "Ġback": 1255,
      "Ġval": 1256,
      "openha": 1257,
      "iver": 1258,
      "Ġcommun": 1259,
      "istic": 1260,
      "istotle": 1261,
      "aid": 1262,
      "man": 1263,
      "ple": 1264,
      "Ġaround": 1265,
      "antic": 1266,
      "ĠAlabama": 1267,
      "Ġperiod": 1268,
      "Ġperson": 1269,
      "openhauer": 1270,
      "ĠWorld": 1271,
      "Ġmat": 1272,
      "ases": 1273,
      "Ġdue": 1274,
      "soci": 1275,
      "ission": 1276,
      "Ġseveral": 1277,
      "Ġlarge": 1278,
      "Ġpresent": 1279,
      "Ġestab": 1280,
      "Ġcharacter": 1281,
      "Ġinflu": 1282,
      "Ġanarch": 1283,
      "epend": 1284,
      "Ġalkali": 1285,
      "Ġmodern": 1286,
      "ĠAc": 1287,
      "Ġlife": 1288,
      "ival": 1289,
      "ĠAlger": 1290,
      "Ġmon": 1291,
      "Ġlanguage": 1292,
      "ophy": 1293,
      "ke": 1294,
      "Ġrequ": 1295,
      "Ġcor": 1296,
      "Ġstat": 1297,
      "ĠHowever": 1298,
      "Ġsame": 1299,
      "rodu": 1300,
      "omin": 1301,
      "Ġname": 1302,
      "ĠSh": 1303,
      "ĠGreek": 1304,
      "Ġcourt": 1305,
      "Ġthough": 1306,
      "Ġown": 1307,
      "ĠEar": 1308,
      "ological": 1309,
      "ene": 1310,
      "itum": 1311,
      "ental": 1312,
      "ield": 1313,
      "ĠAtl": 1314,
      "Ġsupport": 1315,
      "Ġconsidered": 1316,
      "rin": 1317,
      "way": 1318,
      "Ġspecies": 1319,
      "Ġcap": 1320,
      "pen": 1321,
      "ring": 1322,
      "rab": 1323,
      "Ġatom": 1324,
      "Ġuntil": 1325,
      "rent": 1326,
      "rist": 1327,
      "ĠCol": 1328,
      "Ġvery": 1329,
      "asi": 1330,
      "ript": 1331,
      "ĠAsia": 1332,
      "Ġsimilar": 1333,
      "ĠAchilles": 1334,
      "Ġmus": 1335,
      "Ġmuch": 1336,
      "oint": 1337,
      "estern": 1338,
      "Ġnational": 1339,
      "ĠAgassi": 1340,
      "br": 1341,
      "par": 1342,
      "ony": 1343,
      "anes": 1344,
      "Ġcur": 1345,
      "Ġbro": 1346,
      "Ġlet": 1347,
      "ĠEng": 1348,
      "Ġanthropolog": 1349,
      "Ġreact": 1350,
      "Ġalche": 1351,
      "ĠEinstein": 1352,
      "Ġplay": 1353,
      "Ġschool": 1354,
      "az": 1355,
      "Ġfore": 1356,
      "Ġdet": 1357,
      "Ġnon": 1358,
      "ivil": 1359,
      "ĠAlbania": 1360,
      "imal": 1361,
      "Ġrad": 1362,
      "Ġrefer": 1363,
      "ĠLe": 1364,
      "Ġagainst": 1365,
      "Ġpo": 1366,
      "andard": 1367,
      "18": 1368,
      "ĠSouth": 1369,
      "ĠAndor": 1370,
      "Ġtyp": 1371,
      "ork": 1372,
      "Ġpract": 1373,
      "Ġlike": 1374,
      "Ġrelig": 1375,
      "ality": 1376,
      "Ġcrit": 1377,
      "Ġpower": 1378,
      "ivity": 1379,
      "ĠUS": 1380,
      "Ġallow": 1381,
      "Ġappro": 1382,
      "ued": 1383,
      "Ġide": 1384,
      "Ġhig": 1385,
      "Ġarea": 1386,
      "Ġorder": 1387,
      "ciet": 1388,
      "ove": 1389,
      "Ġposs": 1390,
      "Ġdescrib": 1391,
      "me": 1392,
      "med": 1393,
      "oon": 1394,
      "xt": 1395,
      "Ġ9": 1396,
      "ina": 1397,
      "ories": 1398,
      "Ġpublic": 1399,
      "Ġbl": 1400,
      "Ġread": 1401,
      "ĠWh": 1402,
      "Ġmeth": 1403,
      "itumen": 1404,
      "itions": 1405,
      "row": 1406,
      "Ġconf": 1407,
      "Ġagricult": 1408,
      "ches": 1409,
      "Ġrepresent": 1410,
      "ĠAlberta": 1411,
      "apt": 1412,
      "yn": 1413,
      "Ã©": 1414,
      "atural": 1415,
      "Ġfact": 1416,
      "Ġprot": 1417,
      "aving": 1418,
      "ĠAristotle": 1419,
      "ademy": 1420,
      "sky": 1421,
      "Ġif": 1422,
      "ids": 1423,
      "Ġvis": 1424,
      "ately": 1425,
      "ets": 1426,
      "hor": 1427,
      "oman": 1428,
      "opher": 1429,
      "ĠRuss": 1430,
      "Ġpolitical": 1431,
      "ven": 1432,
      "ason": 1433,
      "Ġclass": 1434,
      "Ġmetals": 1435,
      "Ġvarious": 1436,
      "ves": 1437,
      "ĠAust": 1438,
      "Ġnear": 1439,
      "ash": 1440,
      "omen": 1441,
      "ĠNational": 1442,
      "aced": 1443,
      "Ġarg": 1444,
      "bed": 1445,
      "min": 1446,
      "serv": 1447,
      "Ġ10": 1448,
      "Ġ16": 1449,
      "Ġwithin": 1450,
      "ĠUnion": 1451,
      "stitution": 1452,
      "ĠSchopenhauer": 1453,
      "ier": 1454,
      "mp": 1455,
      "mon": 1456,
      "Ġpot": 1457,
      "Ġphys": 1458,
      "ĠAfghanistan": 1459,
      "ĠAcademy": 1460,
      "ec": 1461,
      "ize": 1462,
      "Ġlargest": 1463,
      "Ġbelie": 1464,
      "ired": 1465,
      "alth": 1466,
      "itic": 1467,
      "Ġbody": 1468,
      "Ġprob": 1469,
      "uba": 1470,
      "rench": 1471,
      "Ġsocial": 1472,
      "ilitary": 1473,
      "tal": 1474,
      "Ġ15": 1475,
      "Ġadv": 1476,
      "Ġeven": 1477,
      "Ġstudy": 1478,
      "embers": 1479,
      "olution": 1480,
      "ially": 1481,
      "Ġfarm": 1482,
      "Ġoffic": 1483,
      "ĠRepublic": 1484,
      "por": 1485,
      "Ġtr": 1486,
      "rote": 1487,
      "Ġ11": 1488,
      "Ġgod": 1489,
      "Ġusing": 1490,
      "oviet": 1491,
      "roasi": 1492,
      "ternal": 1493,
      "Ġgroups": 1494,
      "reed": 1495,
      "Ġcountries": 1496,
      "lands": 1497,
      "Ġprin": 1498,
      "roasiatic": 1499,
      "ently": 1500,
      "omy": 1501,
      "Ġless": 1502,
      "Ġnorth": 1503,
      "raft": 1504,
      "Ġprog": 1505,
      "aim": 1506,
      "bon": 1507,
      "Ġins": 1508,
      "Ġpar": 1509,
      "ross": 1510,
      "Ġdid": 1511,
      "etic": 1512,
      "ĠCan": 1513,
      "Ġsignific": 1514,
      "Ġes": 1515,
      "ston": 1516,
      "ee": 1517,
      "ata": 1518,
      "Ġeth": 1519,
      "ĠBrit": 1520,
      "dust": 1521,
      "lam": 1522,
      "ads": 1523,
      "ĠAtlantic": 1524,
      "Ġopp": 1525,
      "Ġlaw": 1526,
      "ided": 1527,
      "Ġindepend": 1528,
      "Ġprim": 1529,
      "ook": 1530,
      "pre": 1531,
      "Ġsal": 1532,
      "Ġpub": 1533,
      "Ġwhat": 1534,
      "ĠRo": 1535,
      "Ġimportant": 1536,
      "ĠAb": 1537,
      "Ġlim": 1538,
      "ĠMar": 1539,
      "Ġprocess": 1540,
      "Ġdeath": 1541,
      "ĠFrench": 1542,
      "ried": 1543,
      "ĠAfrica": 1544,
      "face": 1545,
      "ither": 1546,
      "Ġgreat": 1547,
      "iron": 1548,
      "ĠThese": 1549,
      "cip": 1550,
      "ribut": 1551,
      "Ġobserv": 1552,
      "Ġdeveloped": 1553,
      "Ġgeneral": 1554,
      "Ġoper": 1555,
      "ices": 1556,
      "Ġmillion": 1557,
      "ĠFran": 1558,
      "Ġparticular": 1559,
      "ument": 1560,
      "cience": 1561,
      "Ġhel": 1562,
      "ĠEarth": 1563,
      "urther": 1564,
      "ĠCent": 1565,
      "Ġalong": 1566,
      "ĠBer": 1567,
      "Ġareas": 1568,
      "Ġorigin": 1569,
      "Ġterrit": 1570,
      "ox": 1571,
      "ĠâĢĵ": 1572,
      "Ġann": 1573,
      "ĠAp": 1574,
      "ĠBC": 1575,
      "ĠChrist": 1576,
      "ĠCong": 1577,
      "cially": 1578,
      "II": 1579,
      "ness": 1580,
      "Ġder": 1581,
      "ĠCar": 1582,
      "phib": 1583,
      "ccess": 1584,
      "ele": 1585,
      "ris": 1586,
      "Ġwrote": 1587,
      "Ġbi": 1588,
      "lem": 1589,
      "Ġlow": 1590,
      "Ġgrow": 1591,
      "Ġcrew": 1592,
      "Ġtradition": 1593,
      "Ar": 1594,
      "ule": 1595,
      "Ġmembers": 1596,
      "ĠSoviet": 1597,
      "Ġbegan": 1598,
      "Ġstruct": 1599,
      "Ġcontrol": 1600,
      "ovsky": 1601,
      "ccording": 1602,
      "Ġproduct": 1603,
      "ters": 1604,
      "Ġer": 1605,
      "iven": 1606,
      "Ġgo": 1607,
      "ĠMus": 1608,
      "ands": 1609,
      "Ġke": 1610,
      "Ġshow": 1611,
      "Ġrelations": 1612,
      "mb": 1613,
      "Ġsomet": 1614,
      "Ġla": 1615,
      "Ġright": 1616,
      "Ġusually": 1617,
      "ended": 1618,
      "ration": 1619,
      "eries": 1620,
      "idd": 1621,
      "ĠThere": 1622,
      "phab": 1623,
      "Ġfollowing": 1624,
      "ĊĊ": 1625,
      "Ġbran": 1626,
      "Ġbitumen": 1627,
      "Ġview": 1628,
      "Ġobject": 1629,
      "Ġair": 1630,
      "Ġsing": 1631,
      "Ġpur": 1632,
      "Ġlin": 1633,
      "Ġliter": 1634,
      "imate": 1635,
      "ĠHis": 1636,
      "ogn": 1637,
      "overed": 1638,
      "Ġreturn": 1639,
      "af": 1640,
      "Ġway": 1641,
      "Ġfin": 1642,
      "Ġfun": 1643,
      "ull": 1644,
      "Ġproduction": 1645,
      "arkovsky": 1646,
      "Ġpred": 1647,
      "Ġbas": 1648,
      "akes": 1649,
      "Ġoccur": 1650,
      "less": 1651,
      "ergy": 1652,
      "ency": 1653,
      "Ġcaus": 1654,
      "Ġindust": 1655,
      "Ġrest": 1656,
      "Ġrece": 1657,
      "Ġchild": 1658,
      "50": 1659,
      "ius": 1660,
      "Ġfew": 1661,
      "Ġreport": 1662,
      "Ġnow": 1663,
      "Ġproper": 1664,
      "ably": 1665,
      "Ġ202": 1666,
      "Ġindivid": 1667,
      "ciety": 1668,
      "Ġold": 1669,
      "Ġmar": 1670,
      "Ġnatural": 1671,
      "ĠSome": 1672,
      "rial": 1673,
      "Ġ186": 1674,
      "Ġhelp": 1675,
      "Ġtheory": 1676,
      "ĠArab": 1677,
      "Ġmake": 1678,
      "Ġdem": 1679,
      "Ġstill": 1680,
      "Ġconst": 1681,
      "Ġrelat": 1682,
      "Ġregion": 1683,
      "Ġsk": 1684,
      "ites": 1685,
      "Ġhal": 1686,
      "ird": 1687,
      "Ġstrong": 1688,
      "ĠPar": 1689,
      "ertain": 1690,
      "Ġgre": 1691,
      "ĠInternational": 1692,
      "Ġword": 1693,
      "Ġothers": 1694,
      "Ġdevelopment": 1695,
      "Ġmethod": 1696,
      "SC": 1697,
      "ux": 1698,
      "Ġinst": 1699,
      "Ġmetal": 1700,
      "Ġelectron": 1701,
      "Ġauthor": 1702,
      "Ġhistory": 1703,
      "iam": 1704,
      "oot": 1705,
      "outher": 1706,
      "eth": 1707,
      "ames": 1708,
      "Ġassoci": 1709,
      "osed": 1710,
      "agn": 1711,
      "Ġplace": 1712,
      "Ġresp": 1713,
      "Ġtele": 1714,
      "lor": 1715,
      "ining": 1716,
      "Ġstandard": 1717,
      "hern": 1718,
      "ĠPort": 1719,
      "ĠRand": 1720,
      "ĠAndorra": 1721,
      "Ġsignificant": 1722,
      "outhern": 1723,
      "atures": 1724,
      "Ġmark": 1725,
      "ples": 1726,
      "ĠEuropean": 1727,
      "eb": 1728,
      "most": 1729,
      "Ġ'": 1730,
      "Ġnov": 1731,
      "ĠMoon": 1732,
      "Ġ193": 1733,
      "Ġshort": 1734,
      "bit": 1735,
      "Ġmater": 1736,
      "ingu": 1737,
      "ĠGerm": 1738,
      "ĠWill": 1739,
      "Ġjust": 1740,
      "Ġprogram": 1741,
      ".,": 1742,
      "day": 1743,
      "Ġav": 1744,
      "Ġsaid": 1745,
      "ense": 1746,
      "Ġinc": 1747,
      "igu": 1748,
      "ĠPl": 1749,
      "Ġworks": 1750,
      "ched": 1751,
      "Ġ$": 1752,
      "Ġanal": 1753,
      "lear": 1754,
      "ĠCl": 1755,
      "Ġalthough": 1756,
      "Ġchang": 1757,
      "ĠSea": 1758,
      "Ġsurface": 1759,
      "Ġanthropology": 1760,
      "get": 1761,
      "Ġlast": 1762,
      "Ġlower": 1763,
      "ude": 1764,
      "Ġanimals": 1765,
      "ential": 1766,
      "Ġstart": 1767,
      "Ġexpl": 1768,
      "Ġperform": 1769,
      "mot": 1770,
      "ination": 1771,
      "ones": 1772,
      "ats": 1773,
      "Ġsouth": 1774,
      "alk": 1775,
      "ĠHer": 1776,
      "orthern": 1777,
      "ĠAruba": 1778,
      "Ġeng": 1779,
      "Ġforms": 1780,
      "stitute": 1781,
      "ĠEnglish": 1782,
      "cul": 1783,
      "Ġneed": 1784,
      "ĠAlgeria": 1785,
      "ĠCanad": 1786,
      "ĠBritish": 1787,
      "ĠCongress": 1788,
      "ner": 1789,
      "eng": 1790,
      "Ġcare": 1791,
      "Ġfamily": 1792,
      "ior": 1793,
      "Ġanother": 1794,
      "Ġfive": 1795,
      "Ġpass": 1796,
      "Ġled": 1797,
      "Ġsuccess": 1798,
      "ources": 1799,
      "Ġlevel": 1800,
      "cing": 1801,
      "cil": 1802,
      "Ġtimes": 1803,
      "ĠTarkovsky": 1804,
      "Ġexist": 1805,
      "read": 1806,
      "Ġmot": 1807,
      "Ġevery": 1808,
      "aining": 1809,
      "lob": 1810,
      "Ġspecial": 1811,
      "Ġmeans": 1812,
      "Ġsystems": 1813,
      "Ġestablished": 1814,
      "ean": 1815,
      "Ġmy": 1816,
      "ouse": 1817,
      "ĠSo": 1818,
      "pecially": 1819,
      "Ġsug": 1820,
      "Ġemp": 1821,
      "Ġlocal": 1822,
      "Ġlun": 1823,
      "ander": 1824,
      "Ġ194": 1825,
      "ĠAll": 1826,
      "Ġbecome": 1827,
      "Ġphilosophy": 1828,
      "ography": 1829,
      "Ġeither": 1830,
      "Ġrese": 1831,
      "Ġ12": 1832,
      "Ġhead": 1833,
      "Ġchange": 1834,
      "craft": 1835,
      "mit": 1836,
      "ention": 1837,
      "Ġalphab": 1838,
      "Ġsepar": 1839,
      "Ġenergy": 1840,
      "ĠAfter": 1841,
      "Ġpopular": 1842,
      "Ġbook": 1843,
      "Ġeduc": 1844,
      "Ġcr": 1845,
      "Ġgr": 1846,
      "Ġbeh": 1847,
      "ock": 1848,
      "Ġprev": 1849,
      "ĠAmerica": 1850,
      "Ġpublished": 1851,
      "ipp": 1852,
      "nect": 1853,
      "Ġfood": 1854,
      "Ġalg": 1855,
      "ĠBy": 1856,
      "Ġprof": 1857,
      "Ġclaim": 1858,
      "Ġanimation": 1859,
      "ĠConf": 1860,
      "Ġinvol": 1861,
      "rogen": 1862,
      "Ġexperi": 1863,
      "Ġpat": 1864,
      "ĠAm": 1865,
      "astern": 1866,
      "Ġdown": 1867,
      "ify": 1868,
      "ĠArt": 1869,
      "Ġtechniqu": 1870,
      "200": 1871,
      "ham": 1872,
      "iation": 1873,
      "lim": 1874,
      "rated": 1875,
      "ator": 1876,
      "ances": 1877,
      "Ġson": 1878,
      "loy": 1879,
      "Ġrecord": 1880,
      "iction": 1881,
      "Ġtemper": 1882,
      "itive": 1883,
      "Ġmass": 1884,
      "Ġmilitary": 1885,
      "Ġhowever": 1886,
      "Ġlate": 1887,
      "cean": 1888,
      "Ġalt": 1889,
      "oss": 1890,
      "iform": 1891,
      "sequ": 1892,
      "Ġshould": 1893,
      "Ġaddition": 1894,
      "Ġcase": 1895,
      "Ġmult": 1896,
      "Ġhaving": 1897,
      "ille": 1898,
      "Ġfilms": 1899,
      "app": 1900,
      "viron": 1901,
      "Ġtax": 1902,
      "Ġmust": 1903,
      "idence": 1904,
      "ush": 1905,
      "Ġwithout": 1906,
      "ours": 1907,
      "Ġassist": 1908,
      "Ġcarbon": 1909,
      "gypt": 1910,
      "bigu": 1911,
      "Ġtotal": 1912,
      "Ġheld": 1913,
      "ĠWhen": 1914,
      "ured": 1915,
      "Ġastronaut": 1916,
      "Ġmusic": 1917,
      "10": 1918,
      "rast": 1919,
      "Ġpoint": 1920,
      "Ġtook": 1921,
      "Ġdiv": 1922,
      "Ġdev": 1923,
      "Ġsometimes": 1924,
      "Re": 1925,
      "now": 1926,
      "vers": 1927,
      "Ġsw": 1928,
      "umb": 1929,
      "Ġphilosopher": 1930,
      "Ġelements": 1931,
      "Ġnamed": 1932,
      "uxley": 1933,
      "As": 1934,
      "SA": 1935,
      "of": 1936,
      "enced": 1937,
      "isl": 1938,
      "Ġwid": 1939,
      "Ġmen": 1940,
      "ĠBe": 1941,
      "Ġpropos": 1942,
      "Ġvers": 1943,
      "Ġ192": 1944,
      "Ġintrodu": 1945,
      "ification": 1946,
      "ĠPortug": 1947,
      "Ġsuggest": 1948,
      "side": 1949,
      "atin": 1950,
      "Ġcity": 1951,
      "Ġge": 1952,
      "Ġbeg": 1953,
      "Ġconc": 1954,
      "ope": 1955,
      "Ġestim": 1956,
      "Ġaver": 1957,
      "Ġcivil": 1958,
      "Ġwon": 1959,
      "Ġredu": 1960,
      "ĠTro": 1961,
      "Ġ14": 1962,
      "ths": 1963,
      "Ġdecl": 1964,
      "ĠKh": 1965,
      "ocr": 1966,
      "Ġhistor": 1967,
      "..": 1968,
      "fic": 1969,
      "yle": 1970,
      "hest": 1971,
      "Ġchem": 1972,
      "Ġtop": 1973,
      "Ġvol": 1974,
      "ĠJu": 1975,
      "Ġproduced": 1976,
      "formation": 1977,
      "Ġeconomic": 1978,
      "Ġespecially": 1979,
      "asing": 1980,
      "Ġday": 1981,
      "Ġhand": 1982,
      "Ġlive": 1983,
      "used": 1984,
      "ĠGr": 1985,
      "ruction": 1986,
      "Ġappeal": 1987,
      "Ġeconomy": 1988,
      "ĠConfeder": 1989,
      "ze": 1990,
      "Ġturn": 1991,
      "anish": 1992,
      "arily": 1993,
      "ĠPol": 1994,
      "ĠBr": 1995,
      "ends": 1996,
      "Ġdoes": 1997,
      "Ġtechnology": 1998,
      "Ġhome": 1999,
      "ĠCal": 2000,
      "Ġ13": 2001,
      "ĠMon": 2002,
      "empt": 2003,
      "ĠGe": 2004,
      "ending": 2005,
      "Ġamphib": 2006,
      "ril": 2007,
      "Ġtit": 2008,
      "ery": 2009,
      "Ġdata": 2010,
      "ached": 2011,
      "Ġrul": 2012,
      "orts": 2013,
      "Ġincluded": 2014,
      "Ġcentral": 2015,
      "ino": 2016,
      "Ġline": 2017,
      "ode": 2018,
      "ĠEd": 2019,
      "ĠEgypt": 2020,
      "Ġcomb": 2021,
      "aken": 2022,
      "Ġleft": 2023,
      "ape": 2024,
      "for": 2025,
      "Ġ0": 2026,
      "imately": 2027,
      "Ġiss": 2028,
      "ĠCourt": 2029,
      "Ġgiven": 2030,
      "Ġ195": 2031,
      "Ġenc": 2032,
      "bedo": 2033,
      "gg": 2034,
      "ĠQ": 2035,
      "here": 2036,
      "eles": 2037,
      "utes": 2038,
      "ithium": 2039,
      "ements": 2040,
      "ability": 2041,
      "Ġdescribed": 2042,
      "co": 2043,
      "de": 2044,
      "Ġess": 2045,
      "Ġsix": 2046,
      "Ġseries": 2047,
      "arian": 2048,
      "ilt": 2049,
      "ulf": 2050,
      "ĠPres": 2051,
      "Ġheav": 2052,
      "Ġschol": 2053,
      "bers": 2054,
      "oks": 2055,
      "Ġtest": 2056,
      "Ġtreat": 2057,
      "Ġfree": 2058,
      "Ġfinal": 2059,
      "Ġhow": 2060,
      "Ġrele": 2061,
      "Ġpresident": 2062,
      "ĠJohnston": 2063,
      "Ġexperim": 2064,
      "Ġbroad": 2065,
      "Ġconcern": 2066,
      "Ġscient": 2067,
      "Ġbor": 2068,
      "ĠEx": 2069,
      "Ġsuff": 2070,
      "Ġsee": 2071,
      "ĠArm": 2072,
      "Ġinterest": 2073,
      "Ġappear": 2074,
      "Ġterms": 2075,
      "ĠAfrican": 2076,
      "Ġmeaning": 2077,
      "ĠJuly": 2078,
      "line": 2079,
      "not": 2080,
      "uel": 2081,
      "well": 2082,
      "Ġver": 2083,
      "attle": 2084,
      "ales": 2085,
      "Ġlight": 2086,
      "ots": 2087,
      "Ġgra": 2088,
      "Ġgood": 2089,
      "Ġcond": 2090,
      "Ġsyn": 2091,
      "ysis": 2092,
      "Ġearli": 2093,
      "Ġwritten": 2094,
      "iddle": 2095,
      "isation": 2096,
      "Ġcertain": 2097,
      "Ġfish": 2098,
      "Ġel": 2099,
      "Ġthus": 2100,
      "Ġconnect": 2101,
      "osp": 2102,
      "Ġvot": 2103,
      "ĠOther": 2104,
      "Ġleast": 2105,
      "Ġcomput": 2106,
      "Ġformed": 2107,
      "Ġrelated": 2108,
      "Ġcreated": 2109,
      "Ġgenerally": 2110,
      "Ġcoast": 2111,
      "ĠAlbanian": 2112,
      "Ġculture": 2113,
      "Ġindividual": 2114,
      "vironment": 2115,
      "dom": 2116,
      "oy": 2117,
      "ways": 2118,
      "Ġident": 2119,
      "Ġant": 2120,
      "Ġinit": 2121,
      "Ġfem": 2122,
      "Ġet": 2123,
      "ĠBl": 2124,
      "ĠHuxley": 2125,
      "Ġcolon": 2126,
      "Ġacids": 2127,
      "inning": 2128,
      "Ġcurrent": 2129,
      "Ġresearch": 2130,
      "sy": 2131,
      "son": 2132,
      "self": 2133,
      "vision": 2134,
      "Ġscience": 2135,
      "esium": 2136,
      "Ġlat": 2137,
      "ister": 2138,
      "ĠEmp": 2139,
      "Ġrather": 2140,
      "illed": 2141,
      "eneral": 2142,
      "Ġaltru": 2143,
      "iformes": 2144,
      "Ex": 2145,
      "Ġcal": 2146,
      "Ġdel": 2147,
      "Ġrun": 2148,
      "phalt": 2149,
      "Ġwords": 2150,
      "Ġparts": 2151,
      "ĠRussian": 2152,
      "Ġsum": 2153,
      "Ġwin": 2154,
      "istics": 2155,
      "odium": 2156,
      "ift": 2157,
      "Ġexcept": 2158,
      "ĠGod": 2159,
      "acy": 2160,
      "ĠChina": 2161,
      "ounds": 2162,
      "Ġdesign": 2163,
      "Ġcharacters": 2164,
      "deen": 2165,
      "ole": 2166,
      "Ġion": 2167,
      "Ġsat": 2168,
      "Ġsent": 2169,
      "Ġfield": 2170,
      "Ġbir": 2171,
      "Ġep": 2172,
      "Ġreal": 2173,
      "Ġformer": 2174,
      "istory": 2175,
      "ĠMed": 2176,
      "berdeen": 2177,
      "ĠAnimal": 2178,
      "Ġprotect": 2179,
      "On": 2180,
      "rate": 2181,
      "une": 2182,
      "ĠNo": 2183,
      "Ġevent": 2184,
      "Ġcollect": 2185,
      "Ġcultural": 2186,
      "Ġthought": 2187,
      "ges": 2188,
      "inct": 2189,
      "Ġfall": 2190,
      "Ġeff": 2191,
      "Ġgas": 2192,
      "ĠKing": 2193,
      "Ġmostly": 2194,
      "Ġattempt": 2195,
      "Ġsingle": 2196,
      "ling": 2197,
      "yg": 2198,
      "ym": 2199,
      "Ġ+": 2200,
      "Ġz": 2201,
      "Ġox": 2202,
      "Ġcame": 2203,
      "ols": 2204,
      "ĠShe": 2205,
      "ĠInstitute": 2206,
      "Ġreflect": 2207,
      "Ġhydro": 2208,
      "Ġalchemy": 2209,
      "Ġproblem": 2210,
      "17": 2211,
      "ĠX": 2212,
      "heast": 2213,
      "ering": 2214,
      "Ġopen": 2215,
      "Ġcour": 2216,
      "ĠNe": 2217,
      "assium": 2218,
      "Ġknow": 2219,
      "Ġalkanes": 2220,
      "Ġnovel": 2221,
      "ming": 2222,
      "Ġtake": 2223,
      "ators": 2224,
      "Ġca": 2225,
      "Ġinternational": 2226,
      "ici": 2227,
      "Ġpost": 2228,
      "ĠCount": 2229,
      "ott": 2230,
      "Ġgold": 2231,
      "ĠPe": 2232,
      "Ġacross": 2233,
      "Ġyoun": 2234,
      "Ġsubst": 2235,
      "Ġnumer": 2236,
      "Ġhydrogen": 2237,
      "Ġalchem": 2238,
      "Ġhigher": 2239,
      "ĠApril": 2240,
      "Ġrelationship": 2241,
      "ĠGerman": 2242,
      "Ġaverage": 2243,
      "ning": 2244,
      "sel": 2245,
      "Ġtw": 2246,
      "Ġcamp": 2247,
      "icated": 2248,
      "Ġrepl": 2249,
      "utions": 2250,
      "Ġforces": 2251,
      "ĠPress": 2252,
      "ĠLatin": 2253,
      "ĠDel": 2254,
      "Ġclos": 2255,
      "Ġrecogn": 2256,
      "Ġthroughout": 2257,
      "Ġposition": 2258,
      "Ġagricultural": 2259,
      "Ġeducation": 2260,
      "14": 2261,
      "val": 2262,
      "iness": 2263,
      "ĠAle": 2264,
      "ĠSc": 2265,
      "Ġisland": 2266,
      "raw": 2267,
      "Ġconcent": 2268,
      "ĠDem": 2269,
      "Ġphot": 2270,
      "Ġmeas": 2271,
      "creen": 2272,
      "Ġnumbers": 2273,
      "Ġexpress": 2274,
      "Ġletter": 2275,
      "Ġlaun": 2276,
      "ĠEmpire": 2277,
      "bs": 2278,
      "put": 2279,
      "Ġfund": 2280,
      "ĠAug": 2281,
      "ĠAberdeen": 2282,
      "Ġmix": 2283,
      "Ġmission": 2284,
      "Ġgen": 2285,
      "ards": 2286,
      "Ġevidence": 2287,
      "ĠIndian": 2288,
      "Ġparticip": 2289,
      "Ġincreased": 2290,
      "Ġinfluence": 2291,
      "Ġreligious": 2292,
      "Ġlunar": 2293,
      "Ġalgae": 2294,
      "by": 2295,
      "mber": 2296,
      "sh": 2297,
      "wh": 2298,
      "Â°": 2299,
      "Ġmaking": 2300,
      "uries": 2301,
      "ament": 2302,
      "Ġgu": 2303,
      "anding": 2304,
      "abor": 2305,
      "ĠGre": 2306,
      "acus": 2307,
      "Ġseen": 2308,
      "Ġjud": 2309,
      "Ġactiv": 2310,
      "Ġprovince": 2311,
      "Ġfollowed": 2312,
      "ĠOrder": 2313,
      "Ã«": 2314,
      "Ġancient": 2315,
      "ittle": 2316,
      "Ġsuper": 2317,
      "Ġhealth": 2318,
      "ibr": 2319,
      "Ġtransl": 2320,
      "ĠIndia": 2321,
      "ĠĊĠĊĠĊĠĊ": 2322,
      "Ġsong": 2323,
      "ĠAN": 2324,
      "Ġnorthern": 2325,
      "Ġalbedo": 2326,
      "Ġprop": 2327,
      "ĠRoman": 2328,
      "aces": 2329,
      "ĠOne": 2330,
      "Ġarch": 2331,
      "Ġspok": 2332,
      "Ġaccording": 2333,
      "cle": 2334,
      "uary": 2335,
      "ison": 2336,
      "Ġdig": 2337,
      "Ġnuc": 2338,
      "cember": 2339,
      "Ġalmost": 2340,
      "aves": 2341,
      "Ġclimate": 2342,
      "ĠYork": 2343,
      "Ġbuild": 2344,
      "Ġhighest": 2345,
      "Ġethn": 2346,
      "lobal": 2347,
      "12": 2348,
      "15": 2349,
      "cur": 2350,
      "cular": 2351,
      "ras": 2352,
      "upp": 2353,
      "Äģ": 2354,
      "Ġpri": 2355,
      "Ġliving": 2356,
      "duct": 2357,
      "Ġsymb": 2358,
      "Ġhimself": 2359,
      "Ġimpro": 2360,
      "ĠIslam": 2361,
      "Ġanarchism": 2362,
      "Ġcapital": 2363,
      "Ġhalf": 2364,
      "ĠAugust": 2365,
      "ream": 2366,
      "reme": 2367,
      "Ġthird": 2368,
      "Ġnation": 2369,
      "ĠSw": 2370,
      "ĠRiver": 2371,
      "Ġrank": 2372,
      "ĠOpen": 2373,
      "Ġunivers": 2374,
      "clus": 2375,
      "ĠSpanish": 2376,
      "Ġagriculture": 2377,
      "Ġreceived": 2378,
      "Ġalphabet": 2379,
      "like": 2380,
      "Ġanat": 2381,
      "itation": 2382,
      "icism": 2383,
      "Ġfoc": 2384,
      "ĠAccording": 2385,
      "ĠMany": 2386,
      "ĠEast": 2387,
      "ĠDuring": 2388,
      "ĠJap": 2389,
      "Ġabove": 2390,
      "Ġadop": 2391,
      "Ġsubject": 2392,
      "Ġunderst": 2393,
      "ĠDecember": 2394,
      "Ġmaterial": 2395,
      "ĠPresident": 2396,
      "Ġ&": 2397,
      "Ġcrop": 2398,
      "Ġblo": 2399,
      "aster": 2400,
      "Ġren": 2401,
      "Ġconcept": 2402,
      "Ġmole": 2403,
      "Ġteam": 2404,
      "Ġregions": 2405,
      "Ġaccount": 2406,
      "Ġchildren": 2407,
      "Ġanalysis": 2408,
      "Ġscholars": 2409,
      "ball": 2410,
      "ials": 2411,
      "ties": 2412,
      "Ġaff": 2413,
      "Ġcreat": 2414,
      "Ġgave": 2415,
      "ĠBo": 2416,
      "ĠHar": 2417,
      "ĠDav": 2418,
      "Ġ190": 2419,
      "Ġrate": 2420,
      "ills": 2421,
      "Ġenvironment": 2422,
      "uese": 2423,
      "Ġcontinued": 2424,
      "Ġmovement": 2425,
      "Ġindustry": 2426,
      "Ġprevious": 2427,
      "ficult": 2428,
      "16": 2429,
      "iers": 2430,
      "Ġtro": 2431,
      "Ġaard": 2432,
      "rest": 2433,
      "orph": 2434,
      "Ġfail": 2435,
      "rain": 2436,
      "ĠMin": 2437,
      "Ġrange": 2438,
      "ption": 2439,
      "Ġabs": 2440,
      "Ġrole": 2441,
      "ĠItal": 2442,
      "Ġdifficult": 2443,
      "Ġquant": 2444,
      "Ġscript": 2445,
      "Ġmajority": 2446,
      "Ġbuilt": 2447,
      "ĠWilliam": 2448,
      "ĠCanada": 2449,
      "13": 2450,
      "augh": 2451,
      "ns": 2452,
      "Ġfrog": 2453,
      "Ġtour": 2454,
      "emitic": 2455,
      "Ġorbit": 2456,
      "ĠRes": 2457,
      "ptember": 2458,
      "Ġcontribut": 2459,
      "Ġabacus": 2460,
      "Ġ2010": 2461,
      "Ġmodel": 2462,
      "Ġpolic": 2463,
      "obe": 2464,
      "Ġmaint": 2465,
      "Ġatomic": 2466,
      "Ġbelieved": 2467,
      "Ġindependence": 2468,
      "SCII": 2469,
      "hib": 2470,
      "erem": 2471,
      "Ġside": 2472,
      "Ġcities": 2473,
      "Ġwomen": 2474,
      "Ġdoc": 2475,
      "Ġemer": 2476,
      "rap": 2477,
      "ĠMay": 2478,
      "ĠNA": 2479,
      "ĠState": 2480,
      "Ġdeterm": 2481,
      "Ġpossible": 2482,
      "ĠWhile": 2483,
      "ĠChristian": 2484,
      "Ġwidely": 2485,
      "selves": 2486,
      "Ġport": 2487,
      "let": 2488,
      "Ġeast": 2489,
      "Ġreason": 2490,
      "Ġnature": 2491,
      "ceed": 2492,
      "ades": 2493,
      "ĠPr": 2494,
      "ĠBar": 2495,
      "ĠWestern": 2496,
      "ront": 2497,
      "ief": 2498,
      "Ġcommand": 2499,
      "Ġconsist": 2500,
      "Ġappell": 2501,
      "Ġnext": 2502,
      "ĠSeptember": 2503,
      "Ġremained": 2504,
      "Ġhumans": 2505,
      "Ġlegisl": 2506,
      "ĠComm": 2507,
      "Ġletters": 2508,
      "Ġtypically": 2509,
      "Ġofficial": 2510,
      "Ġtrade": 2511,
      "Ġterritory": 2512,
      "Ġfunction": 2513,
      "west": 2514,
      "Ġtaken": 2515,
      "Ġdr": 2516,
      "ctor": 2517,
      "ido": 2518,
      "ray": 2519,
      "ops": 2520,
      "Ġexam": 2521,
      "anted": 2522,
      "ĠWest": 2523,
      "ĠJan": 2524,
      "Ġ2014": 2525,
      "Ġupon": 2526,
      "Ġspacecraft": 2527,
      "Ġastronom": 2528,
      "Ġvalue": 2529,
      "Ġestablish": 2530,
      "ĠMuslim": 2531,
      "Ġassociated": 2532,
      "Ġchanges": 2533,
      "Ġversion": 2534,
      "Ġestimated": 2535,
      "ĠGeor": 2536,
      "oid": 2537,
      "Ġaward": 2538,
      "ana": 2539,
      "Ġcir": 2540,
      "aries": 2541,
      "ĠAir": 2542,
      "Ġmother": 2543,
      "Ġden": 2544,
      "ĠSup": 2545,
      "Ġ21": 2546,
      "ferences": 2547,
      "Ġambigu": 2548,
      "cret": 2549,
      "stead": 2550,
      "Ġlocated": 2551,
      "Ġlinks": 2552,
      "Ġprofess": 2553,
      "ĠPortuguese": 2554,
      "Ġamphibians": 2555,
      "Ch": 2556,
      "fact": 2557,
      "iber": 2558,
      "pite": 2559,
      "Ġill": 2560,
      "atory": 2561,
      "Ġsens": 2562,
      "Ġsouthern": 2563,
      "Ġsodium": 2564,
      "Ġfar": 2565,
      "Ġfri": 2566,
      "Ġdest": 2567,
      "ula": 2568,
      "Ġstage": 2569,
      "resp": 2570,
      "ĠNov": 2571,
      "Ġmoved": 2572,
      "ĠAlthough": 2573,
      "Ġable": 2574,
      "Ġrespect": 2575,
      "Ġamount": 2576,
      "Ġnames": 2577,
      "Ġtechniques": 2578,
      ");": 2579,
      "11": 2580,
      "Americ": 2581,
      "lin": 2582,
      "ored": 2583,
      "erc": 2584,
      "Ġcell": 2585,
      "Ġpress": 2586,
      "Ġbr": 2587,
      "amm": 2588,
      "Ġgive": 2589,
      "ĠMount": 2590,
      "uman": 2591,
      "Ġcommer": 2592,
      "ourn": 2593,
      "Ġ2020": 2594,
      "Ġitself": 2595,
      "ĠStud": 2596,
      "Ġspeak": 2597,
      "Ġvariet": 2598,
      "Ġinterpre": 2599,
      "Ġflight": 2600,
      "Ġschools": 2601,
      "Ġforeign": 2602,
      "Ġapprox": 2603,
      "Ġpotassium": 2604,
      "ĠFrance": 2605,
      "Ġproducts": 2606,
      "ked": 2607,
      "ising": 2608,
      "Ġinf": 2609,
      "Ġfurther": 2610,
      "Ġmount": 2611,
      "ington": 2612,
      "Ġdi": 2613,
      "Ġlik": 2614,
      "idge": 2615,
      "chan": 2616,
      "urg": 2617,
      "ĠMarch": 2618,
      "ĠBest": 2619,
      "Ġproject": 2620,
      "Ġexpect": 2621,
      "ĠGeneral": 2622,
      "ĠChar": 2623,
      "Ġdispl": 2624,
      "ondon": 2625,
      "hemat": 2626,
      "Ġelement": 2627,
      "minist": 2628,
      "Ġtraditional": 2629,
      "Ġstructure": 2630,
      "Ġastronauts": 2631,
      "cast": 2632,
      "ios": 2633,
      "million": 2634,
      "yth": 2635,
      "ont": 2636,
      "rel": 2637,
      "Ġscreen": 2638,
      "Ġfre": 2639,
      "Ġbase": 2640,
      "Ġdomin": 2641,
      "ĠCo": 2642,
      "ikido": 2643,
      "Ġnever": 2644,
      "Ġpriv": 2645,
      "Ġdefe": 2646,
      "Ġtravel": 2647,
      "Ġfeed": 2648,
      "Ġincrease": 2649,
      "Ġtype": 2650,
      "Ġoriginal": 2651,
      "ederal": 2652,
      "Ġcomplex": 2653,
      "Ġsalam": 2654,
      "Ġreported": 2655,
      "Ġcaesium": 2656,
      "ĠDemocr": 2657,
      "BC": 2658,
      "Th": 2659,
      "Un": 2660,
      "reg": 2661,
      "ret": 2662,
      "ishes": 2663,
      "itude": 2664,
      "aring": 2665,
      "ĠTe": 2666,
      "unic": 2667,
      "ĠIts": 2668,
      "Ġconstitution": 2669,
      "Ġdeg": 2670,
      "ource": 2671,
      "Ġthemselves": 2672,
      "Ġattack": 2673,
      "hah": 2674,
      "Ġanimal": 2675,
      "ĠCont": 2676,
      "ields": 2677,
      "Ġdiscovered": 2678,
      "Ġprinci": 2679,
      "ĠArabic": 2680,
      "Ġavail": 2681,
      "Ġcourts": 2682,
      "Ag": 2683,
      "Ph": 2684,
      "eus": 2685,
      "pro": 2686,
      "Ġsold": 2687,
      "Ġcause": 2688,
      "Ġcerem": 2689,
      "Ġfav": 2690,
      "Ġfather": 2691,
      "ung": 2692,
      "Ġsea": 2693,
      "Ġaccept": 2694,
      "rict": 2695,
      "ruary": 2696,
      "Ġjoin": 2697,
      "ĠAngolan": 2698,
      "Ġreview": 2699,
      "Ġideas": 2700,
      "Ġgrowth": 2701,
      "Ġbranches": 2702,
      "ebruary": 2703,
      "sych": 2704,
      "Ġage": 2705,
      "anced": 2706,
      "Ġsize": 2707,
      "Ġoffer": 2708,
      "Ġpa": 2709,
      "Ġconvent": 2710,
      "ateg": 2711,
      "ĠFebruary": 2712,
      "ĠAld": 2713,
      "Ġuses": 2714,
      "ously": 2715,
      "Ġincludes": 2716,
      "Ġindic": 2717,
      "Ġwriting": 2718,
      "Ġspecific": 2719,
      "ique": 2720,
      "ledge": 2721,
      "Ġeffects": 2722,
      "Ġlimited": 2723,
      "Ġrights": 2724,
      "iol": 2725,
      "ving": 2726,
      "Ġcy": 2727,
      "iting": 2728,
      "oric": 2729,
      "Ġfig": 2730,
      "Ġmale": 2731,
      "Ġlay": 2732,
      "ĠTur": 2733,
      "Ġforce": 2734,
      "ĠMod": 2735,
      "ĠPart": 2736,
      "ateur": 2737,
      "ĠLondon": 2738,
      "udd": 2739,
      "ensus": 2740,
      "Ġ2009": 2741,
      "Ġ30": 2742,
      "century": 2743,
      "References": 2744,
      "Ġproposed": 2745,
      "au": 2746,
      "aign": 2747,
      "ef": 2748,
      "het": 2749,
      "Ġcases": 2750,
      "Ġbur": 2751,
      "Ġey": 2752,
      "strong": 2753,
      "ĠPers": 2754,
      "ouncil": 2755,
      "que": 2756,
      "Ġadapt": 2757,
      "Ġsociety": 2758,
      "Ġapplic": 2759,
      "Ġartic": 2760,
      "Ġassum": 2761,
      "Ġinvest": 2762,
      "Ġreferred": 2763,
      "Ġyoung": 2764,
      "int": 2765,
      "Ġwest": 2766,
      "ctions": 2767,
      "Ġseason": 2768,
      "Ġground": 2769,
      "Ġ2012": 2770,
      "Ġ183": 2771,
      "Ġrecent": 2772,
      "Ġstudies": 2773,
      "Ġextens": 2774,
      "Ġfeatures": 2775,
      "ĠSociety": 2776,
      "Ġemploy": 2777,
      "Ġcomputer": 2778,
      "Ġur": 2779,
      "Ġsem": 2780,
      "oral": 2781,
      "Ġfoot": 2782,
      "roup": 2783,
      "ĠAwards": 2784,
      "Ġhours": 2785,
      "Ġegg": 2786,
      "chie": 2787,
      "hers": 2788,
      "ĠPat": 2789,
      "ĠHigh": 2790,
      "Ġselect": 2791,
      "ĠArtic": 2792,
      "Ġ2013": 2793,
      "Ġregard": 2794,
      "Ġweight": 2795,
      "ney": 2796,
      "ĠColumb": 2797,
      "porary": 2798,
      "Ġprimarily": 2799,
      "Ġparticularly": 2800,
      "aph": 2801,
      "aff": 2802,
      "avery": 2803,
      "king": 2804,
      "win": 2805,
      "Ġcateg": 2806,
      "Ġbest": 2807,
      "ĠSemitic": 2808,
      "ĠShah": 2809,
      "uments": 2810,
      "aged": 2811,
      "Ġvow": 2812,
      "acks": 2813,
      "wood": 2814,
      "199": 2815,
      "Ġearth": 2816,
      "Ġvarian": 2817,
      "Ġrequired": 2818,
      "Ġtypes": 2819,
      "medi": 2820,
      "ĠAustroasiatic": 2821,
      "Ġliterature": 2822,
      "Ġproperties": 2823,
      "ĠJanuary": 2824,
      "Af": 2825,
      "See": 2826,
      "ares": 2827,
      "go": 2828,
      "âĪ": 2829,
      "Ġtend": 2830,
      "Ġaway": 2831,
      "Ġfac": 2832,
      "Ġpoin": 2833,
      "ĠASCII": 2834,
      "olic": 2835,
      "Ġreached": 2836,
      "Ġlost": 2837,
      "Ġlithium": 2838,
      "ĠEl": 2839,
      "ciences": 2840,
      "Ġcompounds": 2841,
      "Ġplan": 2842,
      "Ġtext": 2843,
      "Ġrob": 2844,
      "Ġproduce": 2845,
      "Ġhighly": 2846,
      "Ġincreasing": 2847,
      "Ġentire": 2848,
      "Ġreaction": 2849,
      "Ġmultip": 2850,
      "ĠEgyptian": 2851,
      "ibrary": 2852,
      "VA": 2853,
      "hing": 2854,
      "Ã§": 2855,
      "Ġtre": 2856,
      "atives": 2857,
      "Ġwestern": 2858,
      "Ġbus": 2859,
      "ĠSince": 2860,
      "etro": 2861,
      "Ġ(\"": 2862,
      "Ġ()": 2863,
      "utch": 2864,
      "Ġglobal": 2865,
      "Ġpromot": 2866,
      "ĠFarm": 2867,
      "Ġrat": 2868,
      "ĠOcean": 2869,
      "Ġcontrast": 2870,
      "aps": 2871,
      "ĠConstitution": 2872,
      "Ġremains": 2873,
      "inese": 2874,
      "Ġmedia": 2875,
      "Ġleading": 2876,
      "Ġderived": 2877,
      "Ġrelatively": 2878,
      "Ġtelevision": 2879,
      "Ġengine": 2880,
      "Ġcampaign": 2881,
      "American": 2882,
      "Ġavailable": 2883,
      "âĪĴ": 2884,
      ".)": 2885,
      "Cl": 2886,
      "rew": 2887,
      "atch": 2888,
      "isc": 2889,
      "Ġpain": 2890,
      "Ġbet": 2891,
      "ĠAct": 2892,
      "Ġtowards": 2893,
      "Ġtoget": 2894,
      "Ġlo": 2895,
      "Ġlack": 2896,
      "ĠTo": 2897,
      "ĠCa": 2898,
      "ĠCivil": 2899,
      "otes": 2900,
      "ĠAli": 2901,
      "There": 2902,
      "Ġcontro": 2903,
      "Ġcompar": 2904,
      "Ġ2000": 2905,
      "Ġforest": 2906,
      "Ġintroduced": 2907,
      "Ġchemical": 2908,
      "External": 2909,
      "respond": 2910,
      "Ġvariety": 2911,
      "Ġtogether": 2912,
      "ev": 2913,
      "na": 2914,
      "yr": 2915,
      "Ġ-": 2916,
      "Ġ;": 2917,
      "Ġtable": 2918,
      "Ġaffect": 2919,
      "Ġachie": 2920,
      "isions": 2921,
      "ald": 2922,
      "Ġcapt": 2923,
      "Ġpast": 2924,
      "Ġlittle": 2925,
      "ether": 2926,
      "istry": 2927,
      "ĠIran": 2928,
      "ĠTheir": 2929,
      "rag": 2930,
      "ague": 2931,
      "ĠLa": 2932,
      "Ġparty": 2933,
      "outheast": 2934,
      "Ġpercent": 2935,
      "ports": 2936,
      "Ġevents": 2937,
      "rought": 2938,
      "Ġcommonly": 2939,
      "comp": 2940,
      "Ġblack": 2941,
      "Ġphysical": 2942,
      "Ġcaused": 2943,
      "Ġexperience": 2944,
      "Ġanatomy": 2945,
      "According": 2946,
      "be": 2947,
      "ires": 2948,
      "atal": 2949,
      "Ġdivid": 2950,
      "Ġconduct": 2951,
      "ĠPer": 2952,
      "anders": 2953,
      "abul": 2954,
      "Ġdeb": 2955,
      "ounter": 2956,
      "ĠDes": 2957,
      "phas": 2958,
      "Ġdefined": 2959,
      "Ġtransport": 2960,
      "Ġconsider": 2961,
      "Ġatoms": 2962,
      "ĠAlex": 2963,
      "cks": 2964,
      "ober": 2965,
      "rich": 2966,
      "tes": 2967,
      "ÃŃ": 2968,
      "Ġself": 2969,
      "ica": 2970,
      "leg": 2971,
      "Ġthin": 2972,
      "Ġasphalt": 2973,
      "raction": 2974,
      "ĠLet": 2975,
      "ĠGreat": 2976,
      "ĠJune": 2977,
      "Ġarts": 2978,
      "Ġcompet": 2979,
      "ĠChinese": 2980,
      "Ġ2011": 2981,
      "Ġcenturies": 2982,
      "Ġmechan": 2983,
      "198": 2984,
      "ĠAsian": 2985,
      "Ġaccess": 2986,
      "Ġmethods": 2987,
      "Ġaltruism": 2988,
      "Ġspoken": 2989,
      "Ġapproximately": 2990,
      "ms": 2991,
      "Ġtru": 2992,
      "ato": 2993,
      "Ġsit": 2994,
      "Ġsaw": 2995,
      "Ġdied": 2996,
      "Ġdays": 2997,
      "oul": 2998,
      "Ġlist": 2999,
      "ĠTex": 3000,
      "ĠMost": 3001,
      "ounced": 3002,
      "ĠOct": 3003,
      "ibility": 3004,
      "rents": 3005,
      "Ġbecom": 3006,
      "Ġappl": 3007,
      "ĠAss": 3008,
      "ophical": 3009,
      "Ġprovided": 3010,
      "ĠRev": 3011,
      "Ġinfluenced": 3012,
      "ĠCentral": 3013,
      "Ġobjects": 3014,
      "ĠArmstrong": 3015,
      "ĠArticles": 3016,
      "St": 3017,
      "uk": 3018,
      "onic": 3019,
      "onds": 3020,
      "Ġfert": 3021,
      "Ġmer": 3022,
      "Ġhost": 3023,
      "Ġlog": 3024,
      "adic": 3025,
      "Ġonce": 3026,
      "Ġstyle": 3027,
      "ems": 3028,
      "ĠPri": 3029,
      "Ġdepos": 3030,
      "Ġarmy": 3031,
      "Ġplant": 3032,
      "Ġwhether": 3033,
      "Ġ2006": 3034,
      "Ġ50": 3035,
      "Ġoccup": 3036,
      "Ġreligion": 3037,
      "Ġ2021": 3038,
      "Ġphilosophers": 3039,
      "ĠNASA": 3040,
      "ĠOctober": 3041,
      "cer": 3042,
      "sp": 3043,
      "wide": 3044,
      "Ġmember": 3045,
      "olf": 3046,
      "omas": 3047,
      "ellect": 3048,
      "amer": 3049,
      "uls": 3050,
      "Ġalways": 3051,
      "ĠBro": 3052,
      "Ġwhite": 3053,
      "abil": 3054,
      "Ġkilled": 3055,
      "Ġcannot": 3056,
      "196": 3057,
      "ribution": 3058,
      "Ġprovide": 3059,
      "Ġsurv": 3060,
      "Ġmainly": 3061,
      "Ġtemple": 3062,
      "Ġmathemat": 3063,
      "Ġmonths": 3064,
      "Ġstarted": 3065,
      "En": 3066,
      "ey": 3067,
      "light": 3068,
      "uals": 3069,
      "Ġtrib": 3070,
      "inem": 3071,
      "reak": 3072,
      "Ġsqu": 3073,
      "Ġcit": 3074,
      "Ġpsych": 3075,
      "Ġstri": 3076,
      "Ġwhom": 3077,
      "estival": 3078,
      "Ġ24": 3079,
      "Ġ25": 3080,
      "ĠGu": 3081,
      "Ġlear": 3082,
      "cont": 3083,
      "Ġ2019": 3084,
      "Ġwhole": 3085,
      "Ġoutside": 3086,
      "Ġdefin": 3087,
      "Ġcreate": 3088,
      "Ġweak": 3089,
      "Ġtraining": 3090,
      "ĠAzerbaijani": 3091,
      "Ġservice": 3092,
      "Ġvalues": 3093,
      "Ġoppos": 3094,
      "Ġprimary": 3095,
      "Ġreturned": 3096,
      "Ġappellate": 3097,
      "22": 3098,
      "bo": 3099,
      "tt": 3100,
      "Ġcover": 3101,
      "Ġbrought": 3102,
      "Ġmagn": 3103,
      "Ġtoday": 3104,
      "Ġded": 3105,
      "lement": 3106,
      "oub": 3107,
      "Ġlove": 3108,
      "usc": 3109,
      "ura": 3110,
      "ĠCouncil": 3111,
      "Ġgrad": 3112,
      "ume": 3113,
      "anda": 3114,
      "ĠDutch": 3115,
      "ĠWith": 3116,
      "ĠUN": 3117,
      "Ġclose": 3118,
      "Ġ2017": 3119,
      "aching": 3120,
      "Ġlarg": 3121,
      "Ġlarger": 3122,
      "Ġcorrespond": 3123,
      "elesc": 3124,
      "Ġalchemical": 3125,
      "Apollo": 3126,
      "FC": 3127,
      "nam": 3128,
      "rim": 3129,
      "Ġ[": 3130,
      "onst": 3131,
      "Ġcost": 3132,
      "Ġcoll": 3133,
      "Ġclear": 3134,
      "Ġwent": 3135,
      "icro": 3136,
      "Ġput": 3137,
      "Ġdom": 3138,
      "Ġreb": 3139,
      "Ġred": 3140,
      "idium": 3141,
      "ulated": 3142,
      "oper": 3143,
      "Ġdeep": 3144,
      "ĠFilm": 3145,
      "Ġchlor": 3146,
      "Ġarr": 3147,
      "Ġcontains": 3148,
      "Ġplaced": 3149,
      "Ġneg": 3150,
      "Ġprovin": 3151,
      "Ġstudents": 3152,
      "Ġdistinct": 3153,
      "Ġdirected": 3154,
      "Ġlegal": 3155,
      "Ġsmaller": 3156,
      "Ġearlier": 3157,
      "Ġpolicy": 3158,
      "Ġlargely": 3159,
      "\")": 3160,
      "He": 3161,
      "ford": 3162,
      "year": 3163,
      "ĊĠ": 3164,
      "Ġions": 3165,
      "ises": 3166,
      "Ġfight": 3167,
      "Ġbene": 3168,
      "Ġhard": 3169,
      "olved": 3170,
      "omer": 3171,
      "eter": 3172,
      "ĠMan": 3173,
      "ump": 3174,
      "ĠBra": 3175,
      "ested": 3176,
      "Ġrule": 3177,
      "akh": 3178,
      "Ġsoil": 3179,
      "Ġamateur": 3180,
      "ression": 3181,
      "Ġ2015": 3182,
      "Ġ2016": 3183,
      "Ġ2018": 3184,
      "Ġmeet": 3185,
      "Ġdistingu": 3186,
      "ĠSpace": 3187,
      "ĠPhil": 3188,
      "Ġcommunity": 3189,
      "Ġanarchist": 3190,
      "Ġreading": 3191,
      "Ġindependent": 3192,
      "Ġcareer": 3193,
      "Ġsuccessful": 3194,
      "Ġtemperature": 3195,
      "Ġtitle": 3196,
      "Ġnumerous": 3197,
      "ĠIslamic": 3198,
      "Ġdocument": 3199,
      "ĠNovember": 3200,
      "Ġprivate": 3201,
      "During": 3202,
      "car": 3203,
      "uation": 3204,
      "Ġsense": 3205,
      "ened": 3206,
      "Ġche": 3207,
      "orial": 3208,
      "Ġinformation": 3209,
      "Ġinstead": 3210,
      "ĠTrans": 3211,
      "Ġnom": 3212,
      "ĠSy": 3213,
      "ĠMiddle": 3214,
      "emporary": 3215,
      "ĠPark": 3216,
      "iforn": 3217,
      "Ġdecre": 3218,
      "ĠJew": 3219,
      "Ġpresence": 3220,
      "Ġ1960": 3221,
      "ĠZeus": 3222,
      "Ġslavery": 3223,
      "Ġ1970": 3224,
      "ĠComp": 3225,
      "ĠAlgerian": 3226,
      "Ġstatus": 3227,
      "Ġconflic": 3228,
      "Ġbranch": 3229,
      "ĠCaliforn": 3230,
      "Ġpoints": 3231,
      "Ġdivided": 3232,
      "ĠCalifornia": 3233,
      "based": 3234,
      "nel": 3235,
      "pot": 3236,
      "Ã¶": 3237,
      "Ġbond": 3238,
      "Ġborn": 3239,
      "Ġmakes": 3240,
      "ented": 3241,
      "iles": 3242,
      "Ġthous": 3243,
      "imb": 3244,
      "igen": 3245,
      "ĠII": 3246,
      "ĠNap": 3247,
      "Ġacadem": 3248,
      "Ġcompany": 3249,
      "oney": 3250,
      "And": 3251,
      "ahar": 3252,
      "ographic": 3253,
      "Ġequal": 3254,
      "Ġdiscuss": 3255,
      "Ġplayed": 3256,
      "ecause": 3257,
      "Ġera": 3258,
      "Ġmotion": 3259,
      "mitted": 3260,
      "Ġissues": 3261,
      "Ġbirth": 3262,
      "ĠKingdom": 3263,
      "ĠTexas": 3264,
      "SI": 3265,
      "Wh": 3266,
      "ao": 3267,
      "ca": 3268,
      "hood": 3269,
      "Ġtar": 3270,
      "hel": 3271,
      "Ġsil": 3272,
      "Ġsource": 3273,
      "Ġcop": 3274,
      "Ġfa": 3275,
      "Ġmel": 3276,
      "Ġtown": 3277,
      "Ġreject": 3278,
      "ĠTenn": 3279,
      "ĠCor": 3280,
      "uted": 3281,
      "irit": 3282,
      "ows": 3283,
      "ests": 3284,
      "ogen": 3285,
      "ubidium": 3286,
      "Ġcomposed": 3287,
      "ĠArmy": 3288,
      "Ġadminist": 3289,
      "Ġspread": 3290,
      "Ġconson": 3291,
      "ought": 3292,
      "Ġsubsequ": 3293,
      "Ġinteract": 3294,
      "Ġemb": 3295,
      "Ġemphas": 3296,
      "Ġrail": 3297,
      "Ġfeature": 3298,
      "airs": 3299,
      "Ġrequire": 3300,
      "Ġradio": 3301,
      "olutionary": 3302,
      "reedom": 3303,
      "Ġkey": 3304,
      "ĠParis": 3305,
      "Ġgreater": 3306,
      "Ġbehav": 3307,
      "Ġlatter": 3308,
      "Ġeventually": 3309,
      "Ġactivities": 3310,
      "Ġaardv": 3311,
      "Ġfrequ": 3312,
      "After": 3313,
      "OVA": 3314,
      "aur": 3315,
      "ging": 3316,
      "ler": 3317,
      "ned": 3318,
      "oe": 3319,
      "Ġtelesc": 3320,
      "Ġaud": 3321,
      "Ġsalt": 3322,
      "Ġsources": 3323,
      "Ġfran": 3324,
      "Ġmid": 3325,
      "Ġhon": 3326,
      "Ġlook": 3327,
      "ĠTal": 3328,
      "ĠMe": 3329,
      "ĠPac": 3330,
      "ĠBak": 3331,
      "Ġriver": 3332,
      "Ġseven": 3333,
      "ĠOsc": 3334,
      "ideo": 3335,
      "ĠAfroasiatic": 3336,
      "Ġvari": 3337,
      "Ġbooks": 3338,
      "ĠRussia": 3339,
      "Ġprobably": 3340,
      "elebr": 3341,
      "ready": 3342,
      "Ġfocus": 3343,
      "off": 3344,
      "ror": 3345,
      "Ã¡": 3346,
      "inary": 3347,
      "Ġsac": 3348,
      "Ġmight": 3349,
      "Ġdivers": 3350,
      "Ġhom": 3351,
      "Ġeas": 3352,
      "Ġnorm": 3353,
      "ĠSouthern": 3354,
      "urch": 3355,
      "estic": 3356,
      "ĠLibrary": 3357,
      "ĠWe": 3358,
      "ĠAnim": 3359,
      "ĠThomas": 3360,
      "Ġnecess": 3361,
      "Ġresulting": 3362,
      "Ġsolution": 3363,
      "ashington": 3364,
      "Ġobserved": 3365,
      "ĠBerber": 3366,
      "Ġterritories": 3367,
      "Ġconstruction": 3368,
      "Ġceremony": 3369,
      "uddh": 3370,
      "Ġbetter": 3371,
      "km": 3372,
      "pid": 3373,
      "rid": 3374,
      "indu": 3375,
      "Ġwide": 3376,
      "Ġinstit": 3377,
      "Ġfind": 3378,
      "Ġfront": 3379,
      "Ġdoub": 3380,
      "Ġhold": 3381,
      "ola": 3382,
      "Ġever": 3383,
      "ĠSm": 3384,
      "ĠCam": 3385,
      "Ġalready": 3386,
      "Ġprom": 3387,
      "ĠList": 3388,
      "Ġvict": 3389,
      "cium": 3390,
      "ria": 3391,
      "Ġrival": 3392,
      "duc": 3393,
      "Ġcontain": 3394,
      "ĠArch": 3395,
      "Ġresources": 3396,
      "Ġimm": 3397,
      "reng": 3398,
      "193": 3399,
      "Ġ2001": 3400,
      "Ġ2002": 3401,
      "Ġaccom": 3402,
      "Ġelections": 3403,
      "Ġremain": 3404,
      "ĠSpain": 3405,
      "Ġautom": 3406,
      "Ġ178": 3407,
      "anned": 3408,
      "Ġpersonal": 3409,
      "Ġidea": 3410,
      "Ġstandards": 3411,
      "ength": 3412,
      "Ġlevels": 3413,
      "Ġknowledge": 3414,
      "ĠCounty": 3415,
      "ĠJapan": 3416,
      "At": 3417,
      "Ġaction": 3418,
      "Ġour": 3419,
      "Ġmem": 3420,
      "asion": 3421,
      "Ġdip": 3422,
      "Ġhol": 3423,
      "Ġhapp": 3424,
      "Ġaspect": 3425,
      "ĠIf": 3426,
      "Ġste": 3427,
      "Ġstreng": 3428,
      "ĠHistory": 3429,
      "Ġexec": 3430,
      "ĠWashington": 3431,
      "Ġplants": 3432,
      "Ġspee": 3433,
      "Ġ184": 3434,
      "Ġ185": 3435,
      "Ġrock": 3436,
      "Ġactive": 3437,
      "Ġtherefore": 3438,
      "Ġ40": 3439,
      "Ġ1990": 3440,
      "ĠAndre": 3441,
      "Ġphilosophical": 3442,
      "Ġdecided": 3443,
      "Ġdirectly": 3444,
      "Ġserved": 3445,
      "sociation": 3446,
      "ĠRobert": 3447,
      "ĠCenter": 3448,
      "Ġ2022": 3449,
      "Ġseparate": 3450,
      "Ġscientific": 3451,
      "Ġfemale": 3452,
      "oleon": 3453,
      "ygen": 3454,
      "curity": 3455,
      "igenous": 3456,
      "ĠPacific": 3457,
      "TA": 3458,
      "rem": 3459,
      "Ġcelebr": 3460,
      "orage": 3461,
      "Ġfut": 3462,
      "Ġmig": 3463,
      "Ġeight": 3464,
      "ster": 3465,
      "lying": 3466,
      "ote": 3467,
      "irt": 3468,
      "ĠPa": 3469,
      "Ġvary": 3470,
      "ĠFrom": 3471,
      "ĠGovern": 3472,
      "Ġrise": 3473,
      "ĠAnt": 3474,
      "Ġintellect": 3475,
      "overy": 3476,
      "Ġreserv": 3477,
      "Ġdiss": 3478,
      "ressed": 3479,
      "Ġcommit": 3480,
      "ĠVal": 3481,
      "Ġdefend": 3482,
      "Ġflu": 3483,
      "Ġdecision": 3484,
      "Ġsett": 3485,
      "ĠOrwell": 3486,
      "ĠPhilos": 3487,
      "Ġcomplet": 3488,
      "Ġpractice": 3489,
      "Ġnearly": 3490,
      "Ġbasis": 3491,
      "Ġdemonst": 3492,
      "Ġelectrons": 3493,
      "Ġbeginning": 3494,
      "Ġbroadcast": 3495,
      "Ġlikely": 3496,
      "ĠColumbia": 3497,
      "tation": 3498,
      "van": 3499,
      "ĊĠĊ": 3500,
      "ĠâĢ": 3501,
      "Ġten": 3502,
      "Ġtrial": 3503,
      "Ġang": 3504,
      "Ġpow": 3505,
      "Ġmag": 3506,
      "Ġnight": 3507,
      "ĠCush": 3508,
      "Ġwhose": 3509,
      "Ġviol": 3510,
      "Ġhero": 3511,
      "ĠInter": 3512,
      "Ġchall": 3513,
      "Ġ2005": 3514,
      "Ġ2007": 3515,
      "Ġcharge": 3516,
      "Ġadded": 3517,
      "Ġcommunic": 3518,
      "Ġgods": 3519,
      "Ġassistive": 3520,
      "Ġborder": 3521,
      "Ġcalcul": 3522,
      "Ġproblems": 3523,
      "Ġlaunch": 3524,
      "Ġethnic": 3525,
      "Ġadopted": 3526,
      "Ġtroops": 3527,
      "Ġastronomers": 3528,
      "Ġeggs": 3529,
      "Ġcitiz": 3530,
      "DP": 3531,
      "Einstein": 3532,
      "writ": 3533,
      "onse": 3534,
      "anks": 3535,
      "itor": 3536,
      "Ġwife": 3537,
      "Ġburn": 3538,
      "ĠAward": 3539,
      "Ġthings": 3540,
      "Ġnomin": 3541,
      "utive": 3542,
      "ĠMary": 3543,
      "Ġconstit": 3544,
      "avy": 3545,
      "elling": 3546,
      "Ġcontex": 3547,
      "Ġdisp": 3548,
      "ampions": 3549,
      "ampras": 3550,
      "obile": 3551,
      "Ġlanding": 3552,
      "ĠProt": 3553,
      "Ġsets": 3554,
      "Ġfamous": 3555,
      "Ġcommunities": 3556,
      "Ġpresented": 3557,
      "Ġpotential": 3558,
      "Ġannual": 3559,
      "Ġstructures": 3560,
      "Ġconditions": 3561,
      "ĠGreen": 3562,
      "Ġcrops": 3563,
      "ĠGeorge": 3564,
      "Ġcommercial": 3565,
      "ĠAldrin": 3566,
      "LA": 3567,
      "met": 3568,
      "pose": 3569,
      "su": 3570,
      "sis": 3571,
      "wan": 3572,
      "yd": 3573,
      "Ġple": 3574,
      "Ġbound": 3575,
      "ĠSant": 3576,
      "ĠSampras": 3577,
      "Ġgl": 3578,
      "ĠMor": 3579,
      "ĠBut": 3580,
      "ĠHol": 3581,
      "anded": 3582,
      "aying": 3583,
      "agement": 3584,
      "abit": 3585,
      "ĠLu": 3586,
      "ĠFirst": 3587,
      "artment": 3588,
      "ĠKabul": 3589,
      "oved": 3590,
      "izing": 3591,
      "Ġcompan": 3592,
      "Ġago": 3593,
      "Ġquest": 3594,
      "Ġelection": 3595,
      "Ġwriters": 3596,
      "Ġedition": 3597,
      "Ġcomplete": 3598,
      "Ġcritical": 3599,
      "Ġargued": 3600,
      "ĠRepublican": 3601,
      "Ġprincip": 3602,
      "Ġoldest": 3603,
      "Ġskin": 3604,
      "ĠGrand": 3605,
      "Ġanti": 3606,
      "ĠDavid": 3607,
      "ĠSupreme": 3608,
      "Ġsalamanders": 3609,
      "Ġtrue": 3610,
      "ĠNapoleon": 3611,
      "mar": 3612,
      "oice": 3613,
      "set": 3614,
      "ware": 3615,
      "att": 3616,
      "ena": 3617,
      "Ġcode": 3618,
      "Ġfull": 3619,
      "Ġpra": 3620,
      "Ġpron": 3621,
      "Ġbreed": 3622,
      "ĠTV": 3623,
      "ĠIll": 3624,
      "ĠMc": 3625,
      "ĠHen": 3626,
      "odies": 3627,
      "Ġmove": 3628,
      "ultural": 3629,
      "ĠJames": 3630,
      "Ġadobe": 3631,
      "rick": 3632,
      "ipment": 3633,
      "vey": 3634,
      "Ġcarried": 3635,
      "liament": 3636,
      "ĠIsland": 3637,
      "Ġpoor": 3638,
      "Ġallowed": 3639,
      "Ġoriginally": 3640,
      "Ġkeep": 3641,
      "Ġmarket": 3642,
      "Ġbehind": 3643,
      "Ġhistorical": 3644,
      "Ġcells": 3645,
      "ournal": 3646,
      "ĠParty": 3647,
      "Ġbusiness": 3648,
      "):": 3649,
      "Other": 3650,
      "Sch": 3651,
      "billion": 3652,
      "cel": 3653,
      "cest": 3654,
      "rm": 3655,
      "Ã¼": 3656,
      "Ġawards": 3657,
      "Ġaikido": 3658,
      "hetic": 3659,
      "Ġocean": 3660,
      "isd": 3661,
      "Ġbra": 3662,
      "omb": 3663,
      "Ġliqu": 3664,
      "Ġloss": 3665,
      "iding": 3666,
      "change": 3667,
      "Ġget": 3668,
      "ership": 3669,
      "Ġsty": 3670,
      "thur": 3671,
      "ĠBuddh": 3672,
      "ĠHindu": 3673,
      "Ġvia": 3674,
      "ĠNations": 3675,
      "Ġsector": 3676,
      "izations": 3677,
      "iban": 3678,
      "ĠChadic": 3679,
      "Ġappoin": 3680,
      "Ġqual": 3681,
      "Ġimpact": 3682,
      "Ġdecades": 3683,
      "Ġbelow": 3684,
      "Ġlegs": 3685,
      "Ġmoving": 3686,
      "Ġmatter": 3687,
      "Ġgrowing": 3688,
      "Ġperformed": 3689,
      "Ġinvolved": 3690,
      "Ġtemperatures": 3691,
      "inois": 3692,
      "Ġsynthe": 3693,
      "Ġfrogs": 3694,
      "Ġambiguity": 3695,
      "Ġaardvark": 3696,
      "ĠCushitic": 3697,
      "ael": 3698,
      "dis": 3699,
      "gment": 3700,
      "mission": 3701,
      "och": 3702,
      "pan": 3703,
      "part": 3704,
      "ufact": 3705,
      "yond": 3706,
      "Ġwall": 3707,
      "Ġfederal": 3708,
      "Ġbar": 3709,
      "Ġdyn": 3710,
      "ctic": 3711,
      "idents": 3712,
      "ĠCath": 3713,
      "Ġ(),": 3714,
      "uth": 3715,
      "Ġconqu": 3716,
      "iff": 3717,
      "Ġsex": 3718,
      "earch": 3719,
      "Ġspent": 3720,
      "Ġspirit": 3721,
      "Ġjur": 3722,
      "Ġprevent": 3723,
      "issions": 3724,
      "Ġcreation": 3725,
      "Ġelected": 3726,
      "Ġrain": 3727,
      "Ġappeared": 3728,
      "ĠProto": 3729,
      "Ġmedical": 3730,
      "Ġ1980": 3731,
      "Ġpossess": 3732,
      "ĠBCE": 3733,
      "Ġdevices": 3734,
      "Ġexperiment": 3735,
      "Ġoxygen": 3736,
      "ĠDelph": 3737,
      "Ġclosely": 3738,
      "Ġnucle": 3739,
      "ĠTechn": 3740,
      "24": 3741,
      "30": 3742,
      "75": 3743,
      "SO": 3744,
      "eh": 3745,
      "eum": 3746,
      "ka": 3747,
      "Ġult": 3748,
      "rect": 3749,
      "Ġcut": 3750,
      "Ġcross": 3751,
      "ari": 3752,
      "Ġfell": 3753,
      "ĠAthe": 3754,
      "Ġlab": 3755,
      "ĠTag": 3756,
      "Ġconsequ": 3757,
      "opes": 3758,
      "ĠBecause": 3759,
      "odes": 3760,
      "ĠEth": 3761,
      "Ġvideo": 3762,
      "Ġcome": 3763,
      "lock": 3764,
      "acter": 3765,
      "Ġcontact": 3766,
      "Ġaband": 3767,
      "igned": 3768,
      "Ġtex": 3769,
      "Ġ2008": 3770,
      "Ġattract": 3771,
      "Ġfounded": 3772,
      "Ġanimated": 3773,
      "Ġexplo": 3774,
      "Ġ1969": 3775,
      "ĠSchool": 3776,
      "Ġminor": 3777,
      "monton": 3778,
      "Ġbasic": 3779,
      "Ġproperty": 3780,
      "Ġreleased": 3781,
      "Ġetc": 3782,
      "Ġwinter": 3783,
      "Ġreplaced": 3784,
      "Ġspeakers": 3785,
      "ĠDemocratic": 3786,
      "Ġsemi": 3787,
      "Ġfuture": 3788,
      "ias": 3789,
      "rative": 3790,
      "yp": 3791,
      "Ġupp": 3792,
      "oned": 3793,
      "Ġinternal": 3794,
      "icine": 3795,
      "Ġdog": 3796,
      "Ġdraw": 3797,
      "leum": 3798,
      "ilies": 3799,
      "Ġeastern": 3800,
      "Ġrecon": 3801,
      "Ġlingu": 3802,
      "ĠCity": 3803,
      "Ġ100": 3804,
      "unity": 3805,
      "Ġstated": 3806,
      "ithm": 3807,
      "ĠMal": 3808,
      "ĠHouse": 3809,
      "ĠHuman": 3810,
      "ĠEm": 3811,
      "agle": 3812,
      "ables": 3813,
      "aches": 3814,
      "ĠAlg": 3815,
      "Ġrural": 3816,
      "alled": 3817,
      "elled": 3818,
      "rying": 3819,
      "Ġplaces": 3820,
      "Ġking": 3821,
      "isms": 3822,
      "ference": 3823,
      "Ġenough": 3824,
      "Ġformal": 3825,
      "undred": 3826,
      "ieval": 3827,
      "Ġ2003": 3828,
      "Ġpopul": 3829,
      "ictions": 3830,
      "Ġminutes": 3831,
      "Ġorganization": 3832,
      "Ġfarming": 3833,
      "Ġauthority": 3834,
      "Ġresponse": 3835,
      "Ġincome": 3836,
      "ĠCanadian": 3837,
      "ĠConfederate": 3838,
      "Ġexpected": 3839,
      "Ġdisplay": 3840,
      "Ġjoined": 3841,
      "etroleum": 3842,
      "Ġapplied": 3843,
      "70": 3844,
      "gart": 3845,
      "ibert": 3846,
      "nes": 3847,
      "enins": 3848,
      "eds": 3849,
      "Ġinh": 3850,
      "ician": 3851,
      "Ġpig": 3852,
      "Ġpun": 3853,
      "asons": 3854,
      "Ġtoo": 3855,
      "lege": 3856,
      "ĠTer": 3857,
      "ĠSpe": 3858,
      "ĠSoutheast": 3859,
      "ida": 3860,
      "Ġislands": 3861,
      "unt": 3862,
      "Ġones": 3863,
      "Ġstop": 3864,
      "ĠPal": 3865,
      "ĠBel": 3866,
      "ĠDur": 3867,
      "ĠOb": 3868,
      "Ġunits": 3869,
      "berg": 3870,
      "Ġcompos": 3871,
      "tee": 3872,
      "Ġconsists": 3873,
      "ysics": 3874,
      "Ġregular": 3875,
      "Ġ1999": 3876,
      "henomen": 3877,
      "Ġsigned": 3878,
      "Ġservices": 3879,
      "ĠAda": 3880,
      "comm": 3881,
      "Ġallows": 3882,
      "Ġfactors": 3883,
      "Ġannounced": 3884,
      "Ġpurpose": 3885,
      "Ġrespons": 3886,
      "Ġtreatment": 3887,
      "icient": 3888,
      "Ġpaper": 3889,
      "Ġeyes": 3890,
      "Ġmultiple": 3891,
      "ĠLeto": 3892,
      "Ġfertil": 3893,
      "ĠTaliban": 3894,
      "Ġinstitutions": 3895,
      "Ġjurisd": 3896,
      "Ġtexts": 3897,
      "For": 3898,
      "bum": 3899,
      "dd": 3900,
      "ii": 3901,
      "rat": 3902,
      "rig": 3903,
      "Åį": 3904,
      "Ġaim": 3905,
      "atter": 3906,
      "itch": 3907,
      "Ġinj": 3908,
      "Ġfire": 3909,
      "Ġpoll": 3910,
      "Ġmention": 3911,
      "Ġlabor": 3912,
      "ĠTele": 3913,
      "Ġaltern": 3914,
      "erson": 3915,
      "Ġstable": 3916,
      "ĠHerm": 3917,
      "ĠNa": 3918,
      "acity": 3919,
      "ĠDep": 3920,
      "Ġrubidium": 3921,
      "arden": 3922,
      "ĠKent": 3923,
      "Ġinteg": 3924,
      "ĠStandard": 3925,
      "Ġshown": 3926,
      "Ġdise": 3927,
      "ĠAmericans": 3928,
      "Ġpreserv": 3929,
      "Ġobt": 3930,
      "ollowing": 3931,
      "Ġappears": 3932,
      "exic": 3933,
      "Ġequipment": 3934,
      "Ġsupported": 3935,
      "Ġcritic": 3936,
      "Ġargument": 3937,
      "Ġneeded": 3938,
      "Ġrecorded": 3939,
      "Ġgrav": 3940,
      "Ġearliest": 3941,
      "ĠANOVA": 3942,
      "Ġmountain": 3943,
      "Philos": 3944,
      "Ġurban": 3945,
      "Ġdeposits": 3946,
      "ĠâĢł": 3947,
      "%.": 3948,
      "CO": 3949,
      "cies": 3950,
      "kn": 3951,
      "ville": 3952,
      "we": 3953,
      "Ġtaking": 3954,
      "Ġaqu": 3955,
      "head": 3956,
      "Ġcov": 3957,
      "road": 3958,
      "Ġmoney": 3959,
      "Ġhundred": 3960,
      "enth": 3961,
      "use": 3962,
      "ĠColl": 3963,
      "Ġasked": 3964,
      "Ġbeyond": 3965,
      "raf": 3966,
      "ĠMet": 3967,
      "ĠLou": 3968,
      "Ġ22": 3969,
      "ĠGen": 3970,
      "cipl": 3971,
      "pped": 3972,
      "astic": 3973,
      "ranean": 3974,
      "Ġability": 3975,
      "Ġcompon": 3976,
      "Ġcompared": 3977,
      "rust": 3978,
      "apers": 3979,
      "Ġresist": 3980,
      "Ġsoft": 3981,
      "Ġroad": 3982,
      "Ġactivity": 3983,
      "ucky": 3984,
      "Ġdistribution": 3985,
      "Ġhypot": 3986,
      "Animal": 3987,
      "Ġincreases": 3988,
      "tym": 3989,
      "Ġpoet": 3990,
      "Ġrepresented": 3991,
      "ĠAustral": 3992,
      "Ġbelief": 3993,
      "Ġgreatest": 3994,
      "Ġfunctions": 3995,
      "Ġmaterials": 3996,
      "Ġincor": 3997,
      "ĠAllah": 3998,
      "ifying": 3999,
      "Ġtechnique": 4000,
      "Ġbuilding": 4001,
      "Ġblood": 4002,
      "Ġcirc": 4003,
      "Ġprofessional": 4004,
      "ĠMountains": 4005,
      "Ġfavor": 4006,
      "Ġbenef": 4007,
      "ĠIllinois": 4008,
      "%),": 4009,
      "40": 4010,
      "Is": 4011,
      "bor": 4012,
      "field": 4013,
      "lom": 4014,
      "ma": 4015,
      "men": 4016,
      "ni": 4017,
      "ying": 4018,
      "ĠÃ": 4019,
      "Ġtiss": 4020,
      "Ġser": 4021,
      "Ġsaf": 4022,
      "Ġsnow": 4023,
      "aling": 4024,
      "Ġcensus": 4025,
      "icted": 4026,
      "Ġfields": 4027,
      "Ġbodies": 4028,
      "rown": 4029,
      "Ġmill": 4030,
      "ĠSal": 4031,
      "chorage": 4032,
      "irming": 4033,
      "Ġstar": 4034,
      "ĠMich": 4035,
      "ĠMiss": 4036,
      "ĠMexic": 4037,
      "Ġconv": 4038,
      "ĠEastern": 4039,
      "ĠLM": 4040,
      "Ġvill": 4041,
      "ĠReg": 4042,
      "Ġexpos": 4043,
      "ĠGulf": 4044,
      "ĠInt": 4045,
      "Ġnotable": 4046,
      "orman": 4047,
      "Ġagre": 4048,
      "Ġconserv": 4049,
      "Ġneut": 4050,
      "Ġsubs": 4051,
      "Ġtransfer": 4052,
      "ception": 4053,
      "Ġ1968": 4054,
      "ĠOrgan": 4055,
      "Ġslow": 4056,
      "Ġ60": 4057,
      "Ġmovements": 4058,
      "Ġfamilies": 4059,
      "ription": 4060,
      "Ġdetail": 4061,
      "Ġcriticism": 4062,
      "ĠClass": 4063,
      "ĠKhan": 4064,
      "Ġefforts": 4065,
      "Ġranked": 4066,
      "ĠResearch": 4067,
      "Ġfriend": 4068,
      "ĠCompany": 4069,
      "Ġconflict": 4070,
      "ducation": 4071,
      "Ġcitizens": 4072,
      "%,": 4073,
      "Com": 4074,
      "book": 4075,
      "fall": 4076,
      "ores": 4077,
      "ps": 4078,
      "ya": 4079,
      "yre": 4080,
      "yal": 4081,
      "Ġtail": 4082,
      "inental": 4083,
      "Ġop": 4084,
      "aters": 4085,
      "Ġsn": 4086,
      "Ġsite": 4087,
      "edy": 4088,
      "Ġcoin": 4089,
      "ita": 4090,
      "itt": 4091,
      "itect": 4092,
      "Ġwarm": 4093,
      "Ġdaugh": 4094,
      "Ġhouse": 4095,
      "Ġnative": 4096,
      "lymp": 4097,
      "Ġgives": 4098,
      "ĠBoth": 4099,
      "andid": 4100,
      "Ġproton": 4101,
      "Ġord": 4102,
      "ĠLos": 4103,
      "Ġcontemporary": 4104,
      "izes": 4105,
      "ibly": 4106,
      "cluding": 4107,
      "Ġphon": 4108,
      "195": 4109,
      "ĠAngeles": 4110,
      "aecil": 4111,
      "Ġworked": 4112,
      "Ġworking": 4113,
      "Ġcontinu": 4114,
      "Ġlonger": 4115,
      "iterranean": 4116,
      "Ġanarchists": 4117,
      "Ġclassical": 4118,
      "ributed": 4119,
      "Ġlowest": 4120,
      "Ġindustrial": 4121,
      "...": 4122,
      "ĠConfederation": 4123,
      "ĠEdmonton": 4124,
      "Ġnuclear": 4125,
      "Ġunderstanding": 4126,
      "Ġfailed": 4127,
      "Ġrespectively": 4128,
      "Ġrobot": 4129,
      "ĠAlexander": 4130,
      "Ġdedicated": 4131,
      "ĠTaggart": 4132,
      "23": 4133,
      "25": 4134,
      "AA": 4135,
      "With": 4136,
      "iated": 4137,
      "lar": 4138,
      "ply": 4139,
      "uff": 4140,
      "view": 4141,
      "Ġcovered": 4142,
      "Ġancest": 4143,
      "Ġphenomen": 4144,
      "Ġbattle": 4145,
      "Ġdon": 4146,
      "Ġdens": 4147,
      "leep": 4148,
      "ĠSub": 4149,
      "amples": 4150,
      "istor": 4151,
      "ully": 4152,
      "Ġstory": 4153,
      "Ġpromin": 4154,
      "ĠFort": 4155,
      "ĠFurther": 4156,
      "antly": 4157,
      "ĠOlymp": 4158,
      "phal": 4159,
      "ĠAnchorage": 4160,
      "ĠArthur": 4161,
      "ights": 4162,
      "Ġadult": 4163,
      "Ġimag": 4164,
      "ologies": 4165,
      "iece": 4166,
      "tebr": 4167,
      "Ġindigenous": 4168,
      "Ġmodule": 4169,
      "everal": 4170,
      "Ġwhereas": 4171,
      "Ġstudied": 4172,
      "Ġrapid": 4173,
      "icture": 4174,
      "Ġwee": 4175,
      "Ġoffice": 4176,
      "Ġscale": 4177,
      "eget": 4178,
      "Ġsettle": 4179,
      "Ġresulted": 4180,
      "Ġmatch": 4181,
      "ĠEngland": 4182,
      "rows": 4183,
      "Ġvisit": 4184,
      "Ġphysics": 4185,
      "Ġcauses": 4186,
      "Ġclaimed": 4187,
      "Ġdeclared": 4188,
      "Ġturned": 4189,
      "ĠMediterranean": 4190,
      "Ġdefeated": 4191,
      "Ġprinciple": 4192,
      "Ġacademic": 4193,
      "Ġcompletely": 4194,
      "ĠKentucky": 4195,
      "known": 4196,
      "%)": 4197,
      "60": 4198,
      "80": 4199,
      "rations": 4200,
      "vant": 4201,
      "vement": 4202,
      "atur": 4203,
      "Ġsciences": 4204,
      "Ġwild": 4205,
      "Ġways": 4206,
      "arc": 4207,
      "Ġbreak": 4208,
      "Ġmicro": 4209,
      "ĠSim": 4210,
      "ĠScience": 4211,
      "ĠGalt": 4212,
      "ewis": 4213,
      "Ġarm": 4214,
      "ĠKant": 4215,
      "ĠĊĊ": 4216,
      "rug": 4217,
      "Ġship": 4218,
      "Ġyet": 4219,
      "Ġmanufact": 4220,
      "Ġ2004": 4221,
      "Ġprefer": 4222,
      "Ġpoly": 4223,
      "Ġquar": 4224,
      "Ġquick": 4225,
      "Ġextrem": 4226,
      "lled": 4227,
      "Ġsurround": 4228,
      "Ġ1991": 4229,
      "Ġ1995": 4230,
      "embly": 4231,
      "Ġrefers": 4232,
      "riculture": 4233,
      "Ġtraditions": 4234,
      "ĠWhite": 4235,
      "Ġvisual": 4236,
      "ĠGermany": 4237,
      "force": 4238,
      "Ġscientists": 4239,
      "Ġinitially": 4240,
      "ĠBlack": 4241,
      "which": 4242,
      "Ġenvironmental": 4243,
      "ĠItaly": 4244,
      "Ġdiplom": 4245,
      "Ġpowers": 4246,
      "Ġappointed": 4247,
      "AN": 4248,
      "gin": 4249,
      "more": 4250,
      "pir": 4251,
      "rum": 4252,
      "rian": 4253,
      "tical": 4254,
      "Ġir": 4255,
      "Ġaest": 4256,
      "onian": 4257,
      "ani": 4258,
      "Ġwood": 4259,
      "Ġpair": 4260,
      "Ġec": 4261,
      "oms": 4262,
      "Ġlived": 4263,
      "ett": 4264,
      "Ġalbum": 4265,
      "Ġstru": 4266,
      "ĠMat": 4267,
      "ĠMobile": 4268,
      "osen": 4269,
      "ĠBank": 4270,
      "ods": 4271,
      "aved": 4272,
      "ĠNether": 4273,
      "rief": 4274,
      "essee": 4275,
      "Ġunc": 4276,
      "ulture": 4277,
      "Ġnoted": 4278,
      "Ġcontract": 4279,
      "ibb": 4280,
      "ĠAssociation": 4281,
      "Ġpeace": 4282,
      "Ang": 4283,
      "Ġparticles": 4284,
      "Ġimplement": 4285,
      "Ġminer": 4286,
      "Ġserve": 4287,
      "Ġpolitics": 4288,
      "Ġorganic": 4289,
      "hesis": 4290,
      "Ġimportance": 4291,
      "Ġcompleted": 4292,
      "bridge": 4293,
      "anese": 4294,
      "Ġfactor": 4295,
      "ĠAustin": 4296,
      "Ġoperations": 4297,
      "ĊĊĠ": 4298,
      "Ġrelativity": 4299,
      "Ġavoid": 4300,
      "Ġpassed": 4301,
      "Ġadditional": 4302,
      "Ġessay": 4303,
      "Ġsummer": 4304,
      "ĠANSI": 4305,
      "Ġprior": 4306,
      "ĠCharles": 4307,
      "Ġeasily": 4308,
      "Ġrivalry": 4309,
      "Ġspeech": 4310,
      "Ġupper": 4311,
      "eninsula": 4312,
      "79": 4313,
      "Con": 4314,
      "TC": 4315,
      "gress": 4316,
      "Ġi": 4317,
      "Ġtren": 4318,
      "Ġtakes": 4319,
      "Ġaid": 4320,
      "Ġtherm": 4321,
      "itness": 4322,
      "Ġwinn": 4323,
      "ara": 4324,
      "Ġpric": 4325,
      "Ġbal": 4326,
      "roid": 4327,
      "ĠApp": 4328,
      "Ġmoral": 4329,
      "Ġreach": 4330,
      "ambigu": 4331,
      "Ġbeads": 4332,
      "Ġstep": 4333,
      "osc": 4334,
      "osis": 4335,
      "resents": 4336,
      "Ġ23": 4337,
      "ĠRich": 4338,
      "ĠFestival": 4339,
      "ĠNorthern": 4340,
      "Ġseem": 4341,
      "ender": 4342,
      "ector": 4343,
      "Ġnotes": 4344,
      "Ġcontaining": 4345,
      "Ġens": 4346,
      "velopment": 4347,
      "Ġremaining": 4348,
      "Ġcolum": 4349,
      "Ġrepresents": 4350,
      "Ġcultures": 4351,
      "vention": 4352,
      "Ġresults": 4353,
      "key": 4354,
      "ĠEarly": 4355,
      "Ġbrother": 4356,
      "Ġpractices": 4357,
      "Ġallowing": 4358,
      "Ġofficially": 4359,
      "Ġfinally": 4360,
      "ethyl": 4361,
      "motic": 4362,
      "Ġdivision": 4363,
      "Ġsuggested": 4364,
      "ĠTrojan": 4365,
      "ĠPeople": 4366,
      "Ġsymbol": 4367,
      "Ġexamples": 4368,
      "ĠStudies": 4369,
      "Ġaspects": 4370,
      "tymology": 4371,
      "\"),": 4372,
      "Further": 4373,
      "History": 4374,
      "equ": 4375,
      "ground": 4376,
      "ient": 4377,
      "ience": 4378,
      "ki": 4379,
      "las": 4380,
      "nd": 4381,
      "uge": 4382,
      "where": 4383,
      "Ġ\\": 4384,
      "Ġtri": 4385,
      "ona": 4386,
      "Ġsun": 4387,
      "Ġsites": 4388,
      "Ġcandid": 4389,
      "Ġwalk": 4390,
      "Ġfreedom": 4391,
      "Ġbring": 4392,
      "ĠAut": 4393,
      "Ġlength": 4394,
      "Ġlibert": 4395,
      "ĠTra": 4396,
      "Ġnit": 4397,
      "ĠSun": 4398,
      "imum": 4399,
      "Ġgames": 4400,
      "ersh": 4401,
      "raham": 4402,
      "ĠPan": 4403,
      "ĠPak": 4404,
      "Ġ27": 4405,
      "Ġveget": 4406,
      "ĠRom": 4407,
      "ĠGroup": 4408,
      "ĠDon": 4409,
      "Ġrang": 4410,
      "Ġund": 4411,
      "ĠAnarch": 4412,
      "ovell": 4413,
      "Ġimages": 4414,
      "Ġspect": 4415,
      "Ġ189": 4416,
      "ĠViet": 4417,
      "Ġpref": 4418,
      "Ġbelong": 4419,
      "Ġaddress": 4420,
      "Ġslaves": 4421,
      "Ġreven": 4422,
      "ĠAdd": 4423,
      "Ġdepend": 4424,
      "Ġleader": 4425,
      "Ġradiation": 4426,
      "Ġadvanced": 4427,
      "Ġkept": 4428,
      "Ġpredomin": 4429,
      "Ġgreen": 4430,
      "Ġmyth": 4431,
      "Ġappearance": 4432,
      "Ġsubstant": 4433,
      "Ġlaunched": 4434,
      "Ġmixt": 4435,
      "Ġthousands": 4436,
      "Ġfrancium": 4437,
      "Ġliquid": 4438,
      "\").": 4439,
      "All": 4440,
      "Some": 4441,
      "eed": 4442,
      "hors": 4443,
      "oz": 4444,
      "pet": 4445,
      "Ġx": 4446,
      "Ġá": 4447,
      "inet": 4448,
      "Ġsound": 4449,
      "Ġsister": 4450,
      "Ġcamer": 4451,
      "Ġfle": 4452,
      "Ġfif": 4453,
      "Ġpetroleum": 4454,
      "Ġmiddle": 4455,
      "Ġtoward": 4456,
      "Ġdone": 4457,
      "Ġhar": 4458,
      "Ġharm": 4459,
      "entially": 4460,
      "struct": 4461,
      "elt": 4462,
      "ivest": 4463,
      "ĠMass": 4464,
      "ĠBay": 4465,
      "ĠBook": 4466,
      "ago": 4467,
      "Ġvast": 4468,
      "ĠDis": 4469,
      "ĠAnother": 4470,
      "ĠAnthropolog": 4471,
      "Ġchief": 4472,
      "uble": 4473,
      "Ġacqu": 4474,
      "Ġshare": 4475,
      "Ġresemb": 4476,
      "Ġimmedi": 4477,
      "ologists": 4478,
      "Ġformation": 4479,
      "Ġsociet": 4480,
      "Ġround": 4481,
      "Ind": 4482,
      "Ġartists": 4483,
      "Ġprovides": 4484,
      "Ġraised": 4485,
      "Ġworldwide": 4486,
      "Ġlocation": 4487,
      "Albert": 4488,
      "Ġequival": 4489,
      "ĠAndorran": 4490,
      "ophers": 4491,
      "Ġoccurs": 4492,
      "Ġoccurred": 4493,
      "Ġolder": 4494,
      "ĠPlato": 4495,
      "Ġcrim": 4496,
      "Ġpattern": 4497,
      "Ġreduced": 4498,
      "Ġheavy": 4499,
      "Ġconcerned": 4500,
      "Ġexception": 4501,
      "Ġmixed": 4502,
      "Ġpreviously": 4503,
      "ĠItalian": 4504,
      "Ġpressure": 4505,
      "Ġapplication": 4506,
      "ĠHighway": 4507,
      "Ġvowel": 4508,
      "Ġprovinces": 4509,
      "ĠTennessee": 4510,
      "Ġdiverse": 4511,
      "ĠHenry": 4512,
      "Schopenhauer": 4513,
      "Ġabandoned": 4514,
      "ĠDepartment": 4515,
      "ivestock": 4516,
      "Notes": 4517,
      "arent": 4518,
      "greg": 4519,
      "haps": 4520,
      "non": 4521,
      "spe": 4522,
      "zil": 4523,
      "aled": 4524,
      "alle": 4525,
      "Ġcou": 4526,
      "Ġcos": 4527,
      "itical": 4528,
      "Ġfully": 4529,
      "Ġmis": 4530,
      "Ġmom": 4531,
      "olk": 4532,
      "ilk": 4533,
      "ĠCab": 4534,
      "ado": 4535,
      "Ġgiving": 4536,
      "igital": 4537,
      "Ġforced": 4538,
      "ulate": 4539,
      "ĠMag": 4540,
      "ĠLewis": 4541,
      "Ġ26": 4542,
      "Ġexact": 4543,
      "Ġexhib": 4544,
      "Ġsecret": 4545,
      "Ġunit": 4546,
      "ĠKar": 4547,
      "Ġabund": 4548,
      "chem": 4549,
      "Ġcenter": 4550,
      "Ġartist": 4551,
      "etwork": 4552,
      "Ġemot": 4553,
      "Ġwritings": 4554,
      "Ġdifferences": 4555,
      "Ġmedieval": 4556,
      "ĠRearden": 4557,
      "Ġslave": 4558,
      "Ġpractic": 4559,
      "Ġgoal": 4560,
      "Ġindividuals": 4561,
      "cules": 4562,
      "Ġcrude": 4563,
      "Ġclaims": 4564,
      "ĠPortugal": 4565,
      "Ġidentified": 4566,
      "Ġhydrocar": 4567,
      "Ġrecognized": 4568,
      "Ġmeasure": 4569,
      "Ġcreating": 4570,
      "Ġabsor": 4571,
      "unicip": 4572,
      "Ġdegree": 4573,
      "Agassi": 4574,
      "Ġarrived": 4575,
      "Ġrejected": 4576,
      "Ġcompanies": 4577,
      "Ġincorpor": 4578,
      "21": 4579,
      "Am": 4580,
      "NA": 4581,
      "rific": 4582,
      "such": 4583,
      "Ġcounter": 4584,
      "Ġflo": 4585,
      "Ġbank": 4586,
      "ros": 4587,
      "Ġdam": 4588,
      "Ġhot": 4589,
      "ils": 4590,
      "Ġreform": 4591,
      "Ġlif": 4592,
      "Ġlines": 4593,
      "ĠTod": 4594,
      "elig": 4595,
      "Ġnar": 4596,
      "Ġnut": 4597,
      "Ġnav": 4598,
      "ĠSan": 4599,
      "urs": 4600,
      "urt": 4601,
      "otic": 4602,
      "Ġstrate": 4603,
      "ĠBor": 4604,
      "ĠHam": 4605,
      "Ġ29": 4606,
      "ĠFeder": 4607,
      "Ġris": 4608,
      "ĠOld": 4609,
      "ĠOtt": 4610,
      "ĠUr": 4611,
      "allic": 4612,
      "cles": 4613,
      "Ġarithm": 4614,
      "Ġcontent": 4615,
      "ĠSte": 4616,
      "Ġshared": 4617,
      "Ġspl": 4618,
      "ĠChampions": 4619,
      "Ġforming": 4620,
      "Ġneigh": 4621,
      "anguage": 4622,
      "ucas": 4623,
      "Ġquality": 4624,
      "Ġdeveloping": 4625,
      "Ġdistance": 4626,
      "Ġappeals": 4627,
      "Ġcontinental": 4628,
      "ricultural": 4629,
      "Ġastronomy": 4630,
      "roduction": 4631,
      "Ġlaws": 4632,
      "Ġshowed": 4633,
      "Ġexplor": 4634,
      "Ġarchae": 4635,
      "ĠSwift": 4636,
      "Ġawarded": 4637,
      "Ġfriends": 4638,
      "Ġprinciples": 4639,
      "Ġmathematics": 4640,
      "Ġstrength": 4641,
      "Ġcontext": 4642,
      "Ġstyles": 4643,
      "Ġspiritual": 4644,
      "irmingham": 4645,
      "Ġdaughter": 4646,
      "aecilians": 4647,
      "Ġquickly": 4648,
      "ibbean": 4649,
      "ershwin": 4650,
      "',": 4651,
      "500": 4652,
      "Ad": 4653,
      "It": 4654,
      "bal": 4655,
      "burg": 4656,
      "tis": 4657,
      "Ã³": 4658,
      "Ġâ": 4659,
      "Ġtons": 4660,
      "Ġsus": 4661,
      "isher": 4662,
      "Ġcred": 4663,
      "Ġcinem": 4664,
      "ito": 4665,
      "Ġwinning": 4666,
      "Ġfast": 4667,
      "Ġfiction": 4668,
      "iling": 4669,
      "ĠTime": 4670,
      "ĠSl": 4671,
      "ĠSaf": 4672,
      "lywood": 4673,
      "Ġisol": 4674,
      "amental": 4675,
      "ada": 4676,
      "ĠMore": 4677,
      "ĠPyth": 4678,
      "ĠBorman": 4679,
      "ĠBirmingham": 4680,
      "ĠHomer": 4681,
      "Ġproceed": 4682,
      "iful": 4683,
      "ĠEv": 4684,
      "ouns": 4685,
      "aint": 4686,
      "Ġheat": 4687,
      "Ġheart": 4688,
      "illing": 4689,
      "Ġsequ": 4690,
      "Ġunique": 4691,
      "ĠAncient": 4692,
      "Ġarran": 4693,
      "Ġabol": 4694,
      "Ġadj": 4695,
      "ternet": 4696,
      "cons": 4697,
      "ĠChurch": 4698,
      "ignment": 4699,
      "Ġsoon": 4700,
      "ensive": 4701,
      "ikh": 4702,
      "ĠVol": 4703,
      "Ġartific": 4704,
      "issipp": 4705,
      "Ġdespite": 4706,
      "Ġattention": 4707,
      "Ġmodified": 4708,
      "ĠProv": 4709,
      "Ġauthors": 4710,
      "ĠDevelopment": 4711,
      "ĠPho": 4712,
      "Ġcorrect": 4713,
      "Ġreference": 4714,
      "Ġpossibly": 4715,
      "Ġfarmers": 4716,
      "Ġchanged": 4717,
      "Ġrules": 4718,
      "Ġarchitect": 4719,
      "Ġmolecules": 4720,
      "Ġillust": 4721,
      "related": 4722,
      "Ġaccepted": 4723,
      "Ġfigure": 4724,
      "Ġarticles": 4725,
      "Ġcategories": 4726,
      "compass": 4727,
      "Ġconducted": 4728,
      "Ġthink": 4729,
      "Ġdefinition": 4730,
      "Ġchloride": 4731,
      "ĠOscar": 4732,
      "ehic": 4733,
      "Ġaquatic": 4734,
      "Ġextremely": 4735,
      "ĠNetherlands": 4736,
      "AI": 4737,
      "Kh": 4738,
      "born": 4739,
      "gary": 4740,
      "rical": 4741,
      "xide": 4742,
      "Ġign": 4743,
      "Ġtet": 4744,
      "Ġtried": 4745,
      "erous": 4746,
      "ancial": 4747,
      "ancy": 4748,
      "Ġsoul": 4749,
      "Ġclo": 4750,
      "itage": 4751,
      "itable": 4752,
      "itarian": 4753,
      "Ġwanted": 4754,
      "Ġmouth": 4755,
      "entions": 4756,
      "ĠTwo": 4757,
      "eless": 4758,
      "Ġnine": 4759,
      "ivation": 4760,
      "uration": 4761,
      "ĠCup": 4762,
      "oted": 4763,
      "ĠPre": 4764,
      "ĠBen": 4765,
      "ĠBattle": 4766,
      "andom": 4767,
      "odern": 4768,
      "ĠEr": 4769,
      "ĠLovell": 4770,
      "Ġ28": 4771,
      "ĠNic": 4772,
      "ĠNob": 4773,
      "ĠNative": 4774,
      "Ġ1950": 4775,
      "ograp": 4776,
      "ĠOver": 4777,
      "ĠOmotic": 4778,
      "Ġarmed": 4779,
      "ella": 4780,
      "ellig": 4781,
      "ocal": 4782,
      "Ġadvent": 4783,
      "Ġyou": 4784,
      "conds": 4785,
      "Ġdiscipl": 4786,
      "ordin": 4787,
      "Ġevolution": 4788,
      "Ġoverall": 4789,
      "Ġdescent": 4790,
      "Ġactual": 4791,
      "Ġemuls": 4792,
      "ixed": 4793,
      "Ġrare": 4794,
      "Ġflag": 4795,
      "Ġwrite": 4796,
      "ĠGreeks": 4797,
      "Ġcontinue": 4798,
      "ructure": 4799,
      "ennis": 4800,
      "ropical": 4801,
      "Ġdescribe": 4802,
      "Ġopposed": 4803,
      "ĠRoyal": 4804,
      "Ġprocesses": 4805,
      "ĠCaribbean": 4806,
      "Aristotle": 4807,
      "Ġliterary": 4808,
      "Ġsignificantly": 4809,
      "Ġalphabets": 4810,
      "Ġconcerns": 4811,
      "Ġtranslated": 4812,
      "Ġuniversities": 4813,
      "restrial": 4814,
      "aught": 4815,
      "Ġdetermined": 4816,
      "Ġinterpretation": 4817,
      "Ġfootball": 4818,
      "Ġvariance": 4819,
      "Ġcontrovers": 4820,
      "Ġforests": 4821,
      "ĠDespite": 4822,
      "ĠValley": 4823,
      "Ġserious": 4824,
      "ĠPakistan": 4825,
      "Ġsocieties": 4826,
      "Ġcriminal": 4827,
      "Ġarithmetic": 4828,
      "EC": 4829,
      "OH": 4830,
      "PLA": 4831,
      "eign": 4832,
      "fin": 4833,
      "fishes": 4834,
      "prin": 4835,
      "western": 4836,
      "Ġut": 4837,
      "Ġtheore": 4838,
      "ero": 4839,
      "Ġora": 4840,
      "Ġopt": 4841,
      "ening": 4842,
      "arly": 4843,
      "Ġinform": 4844,
      "Ġpure": 4845,
      "Ġbillion": 4846,
      "roc": 4847,
      "roph": 4848,
      "ĠAD": 4849,
      "Ġhor": 4850,
      "ilities": 4851,
      "Ġrecip": 4852,
      "Ġreasons": 4853,
      "usion": 4854,
      "ety": 4855,
      "istical": 4856,
      "unar": 4857,
      "Ġstone": 4858,
      "emis": 4859,
      "osa": 4860,
      "opic": 4861,
      "ifically": 4862,
      "ĠLater": 4863,
      "ĠLake": 4864,
      "ĠLeg": 4865,
      "iant": 4866,
      "Ġexternal": 4867,
      "ĠFair": 4868,
      "ĠGDP": 4869,
      "ĠOx": 4870,
      "orea": 4871,
      "Ġimpos": 4872,
      "Ġencompass": 4873,
      "itionally": 4874,
      "irection": 4875,
      "Ġconsum": 4876,
      "Ġproducing": 4877,
      "Ġactions": 4878,
      "Ġgovernor": 4879,
      "Ġrepublic": 4880,
      "Ġcooper": 4881,
      "Ġdirector": 4882,
      "Ġsolar": 4883,
      "Ġcharacteristics": 4884,
      "Ġpoem": 4885,
      "Ġpowerful": 4886,
      "Ġesc": 4887,
      "ĠAbraham": 4888,
      "Ġobservations": 4889,
      "ĠBerlin": 4890,
      "ĠAppe": 4891,
      "Ġtaxes": 4892,
      "ĠTroy": 4893,
      "ĠMont": 4894,
      "ĠArmen": 4895,
      "ospital": 4896,
      "Ġcolonial": 4897,
      "Ġcurrently": 4898,
      "Ġconcentration": 4899,
      "Ġdigital": 4900,
      "Ġsymbols": 4901,
      "ĠJapanese": 4902,
      "Ġquantum": 4903,
      "Ġsoldiers": 4904,
      "Ġindicate": 4905,
      "ĠAlien": 4906,
      "Ġbecomes": 4907,
      "ĠAnimals": 4908,
      "ĠPaul": 4909,
      "ĠLuanda": 4910,
      "Ġdynast": 4911,
      "ĠCatholic": 4912,
      "ĠDelphi": 4913,
      "ĠMichael": 4914,
      "ĠMississipp": 4915,
      "Angola": 4916,
      "From": 4917,
      "Lincoln": 4918,
      "Many": 4919,
      "elect": 4920,
      "ken": 4921,
      "mad": 4922,
      "rame": 4923,
      "rants": 4924,
      "ship": 4925,
      "with": 4926,
      "water": 4927,
      "Ġtaught": 4928,
      "inth": 4929,
      "erg": 4930,
      "Ġsulf": 4931,
      "Ġcogn": 4932,
      "itz": 4933,
      "icial": 4934,
      "Ġface": 4935,
      "Ġfoss": 4936,
      "Ġpay": 4937,
      "Ġdram": 4938,
      "Ġhun": 4939,
      "oura": 4940,
      "Ġreve": 4941,
      "cts": 4942,
      "Ġthreat": 4943,
      "Ġnerv": 4944,
      "ĠSur": 4945,
      "ĠSum": 4946,
      "idae": 4947,
      "ĠCons": 4948,
      "ĠCatal": 4949,
      "Ġgraph": 4950,
      "igation": 4951,
      "Ġstay": 4952,
      "oples": 4953,
      "ĠBu": 4954,
      "ĠBas": 4955,
      "avel": 4956,
      "ĠDi": 4957,
      "ĠDue": 4958,
      "ĠOd": 4959,
      "ĠKa": 4960,
      "ightly": 4961,
      "Ġplanned": 4962,
      "Ġkind": 4963,
      "overeign": 4964,
      "Ġimage": 4965,
      "rence": 4966,
      "erman": 4967,
      "Ġagreed": 4968,
      "Ġmeant": 4969,
      "Ġ180": 4970,
      "Ġjournal": 4971,
      "Ġprep": 4972,
      "issance": 4973,
      "Ġprime": 4974,
      "theless": 4975,
      "ixes": 4976,
      "Ġremoved": 4977,
      "Ġtransform": 4978,
      "Ġweap": 4979,
      "Ġworkers": 4980,
      "Ġextra": 4981,
      "Ġwriter": 4982,
      "Ġ1994": 4983,
      "Ġcoal": 4984,
      "Ġsimple": 4985,
      "ĠJohnson": 4986,
      "Ġmedium": 4987,
      "ĠGreece": 4988,
      "Ġcontinent": 4989,
      "Ġfourth": 4990,
      "Ġorganized": 4991,
      "ennium": 4992,
      "Ġ80": 4993,
      "Ġsecondary": 4994,
      "Ġperiodic": 4995,
      "Ġanthropologists": 4996,
      "Ġreactions": 4997,
      "Ġclassification": 4998,
      "Ġsalts": 4999,
      "Ġlimbs": 5000,
      "Ġtraditionally": 5001,
      "Ġrespond": 5002,
      "Ġperformance": 5003,
      "Ġexistence": 5004,
      "Ġgranted": 5005,
      "ĠGrant": 5006,
      "ĠCalgary": 5007,
      "Ġcombined": 5008,
      "Ġpresidential": 5009,
      "Ġcondition": 5010,
      "Ġelse": 5011,
      "Ġtwent": 5012,
      "Ġdestro": 5013,
      "Ġconventional": 5014,
      "Ġarticle": 5015,
      "Ã§ao": 5016,
      "Ġbecoming": 5017,
      "ĠRevolution": 5018,
      "ĠPrize": 5019,
      "uraÃ§ao": 5020,
      "Ġnomine": 5021,
      "Ġhonor": 5022,
      "ĠBaku": 5023,
      "ĠAndrei": 5024,
      "Ġultimately": 5025,
      "ĠCollins": 5026,
      ",\"": 5027,
      "35": 5028,
      "76": 5029,
      "Pe": 5030,
      "Pol": 5031,
      "When": 5032,
      "coh": 5033,
      "nst": 5034,
      "vard": 5035,
      "wise": 5036,
      "Ã¨": 5037,
      "onom": 5038,
      "Ġsovereign": 5039,
      "edia": 5040,
      "eshib": 5041,
      "alo": 5042,
      "Ġcust": 5043,
      "Ġinse": 5044,
      "icians": 5045,
      "ĠAstron": 5046,
      "oud": 5047,
      "oug": 5048,
      "Ġrein": 5049,
      "Ġnort": 5050,
      "ĠSen": 5051,
      "iment": 5052,
      "ivals": 5053,
      "ĠCE": 5054,
      "ĠCuraÃ§ao": 5055,
      "aded": 5056,
      "Ġalter": 5057,
      "umber": 5058,
      "Ġconclud": 5059,
      "Ġdeal": 5060,
      "Ġdead": 5061,
      "ĠLy": 5062,
      "Ġvehic": 5063,
      "Ġexchange": 5064,
      "ĠNavy": 5065,
      "Ġmob": 5066,
      "riage": 5067,
      "sec": 5068,
      "claim": 5069,
      "ĠJose": 5070,
      "Ġplays": 5071,
      "reek": 5072,
      "Ġmanagement": 5073,
      "Ġteeth": 5074,
      "Ġteaching": 5075,
      "Ġ35": 5076,
      "Ġextreme": 5077,
      "Ġpositive": 5078,
      "Ġ1998": 5079,
      "Ġcool": 5080,
      "conomic": 5081,
      "Ġexpanded": 5082,
      "Ġended": 5083,
      "Ġeffective": 5084,
      "Ġorganizations": 5085,
      "Ġmovie": 5086,
      "Ġshell": 5087,
      "ropri": 5088,
      "Ġpersonnel": 5089,
      "Ġstatistics": 5090,
      "Ġtypical": 5091,
      "Ġargues": 5092,
      "Ġadvoc": 5093,
      "ĠAbd": 5094,
      "Ġ1862": 5095,
      "Ġconstant": 5096,
      "agny": 5097,
      "rastructure": 5098,
      "Ġconnected": 5099,
      "Ġcoastal": 5100,
      "ĠScott": 5101,
      "Ġmaintained": 5102,
      "ĠControl": 5103,
      "Ġcomparison": 5104,
      "Ġcaptured": 5105,
      "Ġopposition": 5106,
      "Ġmelting": 5107,
      "Ġconsonants": 5108,
      "Ġsubsequent": 5109,
      "Ġquestion": 5110,
      "Ġprincipal": 5111,
      "Philosophers": 5112,
      "Ġprominent": 5113,
      "Ġmixture": 5114,
      "ĠNobel": 5115,
      "eshiba": 5116,
      "78": 5117,
      "ITA": 5118,
      "PA": 5119,
      "TO": 5120,
      "cis": 5121,
      "cceed": 5122,
      "from": 5123,
      "gans": 5124,
      "kh": 5125,
      "rd": 5126,
      "time": 5127,
      "wa": 5128,
      "Ġ:": 5129,
      "Ġice": 5130,
      "inity": 5131,
      "Ġsample": 5132,
      "Ġsleep": 5133,
      "itud": 5134,
      "arg": 5135,
      "Ġmunicip": 5136,
      "asp": 5137,
      "Ġdry": 5138,
      "Ġdark": 5139,
      "Ġlivestock": 5140,
      "ĠTr": 5141,
      "ĠTim": 5142,
      "ĠSid": 5143,
      "ĠSlam": 5144,
      "ota": 5145,
      "ĠIl": 5146,
      "ĠMy": 5147,
      "ĠMac": 5148,
      "emin": 5149,
      "ĠPeter": 5150,
      "opter": 5151,
      "ĠEagle": 5152,
      "resh": 5153,
      "Ġdeleg": 5154,
      "ĠLand": 5155,
      "ĠRed": 5156,
      "Ġexc": 5157,
      "ĠFore": 5158,
      "ĠFollowing": 5159,
      "ĠGershwin": 5160,
      "Ġsucceed": 5161,
      "ĠDay": 5162,
      "oger": 5163,
      "quet": 5164,
      "ĠWil": 5165,
      "aker": 5166,
      "Ġchain": 5167,
      "clop": 5168,
      "asters": 5169,
      "ĠJul": 5170,
      "Ġlect": 5171,
      "Ġnotably": 5172,
      "poll": 5173,
      "dered": 5174,
      "ĠArg": 5175,
      "Ġshall": 5176,
      "Ġsports": 5177,
      "Ġparties": 5178,
      "Ġammon": 5179,
      "ĠHeb": 5180,
      "Ġsyll": 5181,
      "Ġregional": 5182,
      "uck": 5183,
      "Ġcolor": 5184,
      "Ġ1996": 5185,
      "Ġ1997": 5186,
      "Ġfeel": 5187,
      "ĠForces": 5188,
      "Ġ70": 5189,
      "Ġsolid": 5190,
      "Ġleaders": 5191,
      "ĠCollege": 5192,
      "Ġapproach": 5193,
      "Ġideal": 5194,
      "Ġinside": 5195,
      "Ġethics": 5196,
      "pread": 5197,
      "Ġdeaths": 5198,
      "Ġsomething": 5199,
      "Ġinstance": 5200,
      "Ġmarked": 5201,
      "Ġnovels": 5202,
      "Ġlung": 5203,
      "ipped": 5204,
      "Ġestimates": 5205,
      "Ġruling": 5206,
      "ĠQu": 5207,
      "Ġessential": 5208,
      "Ġexperiments": 5209,
      "Ġsatell": 5210,
      "Ġprotection": 5211,
      "ĠPeace": 5212,
      "Ġconcentrated": 5213,
      "Ġfundamental": 5214,
      "Ġlegislature": 5215,
      "Ġconstitutional": 5216,
      "Ġfigures": 5217,
      "ĠPersian": 5218,
      "Ġregarded": 5219,
      "ĠBrazil": 5220,
      "Ġdistinguish": 5221,
      "ĠCambridge": 5222,
      "Ġintellectual": 5223,
      "Ġreserves": 5224,
      "ĠAlgiers": 5225,
      "Ġresistance": 5226,
      "Ġsoftware": 5227,
      "ĠMexico": 5228,
      "ĠMississippi": 5229,
      "85": 5230,
      "Europe": 5231,
      "ESC": 5232,
      "One": 5233,
      "aic": 5234,
      "ees": 5235,
      "gen": 5236,
      "jug": 5237,
      "mosp": 5238,
      "oet": 5239,
      "za": 5240,
      "rees": 5241,
      "atively": 5242,
      "Ġsand": 5243,
      "Ġsought": 5244,
      "Ġwind": 5245,
      "Ġwaters": 5246,
      "aria": 5247,
      "Ġfram": 5248,
      "Ġfuel": 5249,
      "Ġbott": 5250,
      "ĠAFC": 5251,
      "Ġmach": 5252,
      "Ġmind": 5253,
      "Ġtourn": 5254,
      "Ġdut": 5255,
      "olith": 5256,
      "ĠSam": 5257,
      "ĠSciences": 5258,
      "irm": 5259,
      "racy": 5260,
      "ĠMilitary": 5261,
      "Ġwithd": 5262,
      "ĠBur": 5263,
      "ĠHy": 5264,
      "ĠHector": 5265,
      "Ġorb": 5266,
      "Ġorgans": 5267,
      "aging": 5268,
      "ĠLaw": 5269,
      "ĠRad": 5270,
      "ĠFund": 5271,
      "Ġcomes": 5272,
      "ĠDigital": 5273,
      "antine": 5274,
      "ĠAlask": 5275,
      "Ġrandom": 5276,
      "Ġsecurity": 5277,
      "Ġseconds": 5278,
      "ĠOut": 5279,
      "Ġusage": 5280,
      "Ġshif": 5281,
      "Ġphr": 5282,
      "ĠThus": 5283,
      "Ġcounties": 5284,
      "teen": 5285,
      "oked": 5286,
      "194": 5287,
      "achus": 5288,
      "Ġlarv": 5289,
      "Ġpeoples": 5290,
      "Ġpolar": 5291,
      "athan": 5292,
      "Ġflat": 5293,
      "ĠIndex": 5294,
      "Ġscales": 5295,
      "Ġsimply": 5296,
      "Ġtechnologies": 5297,
      "Ġmedicine": 5298,
      "Ġdirectors": 5299,
      "Ġentered": 5300,
      "ĠAtlas": 5301,
      "Ġpractical": 5302,
      "Ġapproved": 5303,
      "ĠRepublicans": 5304,
      "Ġopport": 5305,
      "Ġgrew": 5306,
      "Ġprograms": 5307,
      "Ġchemistry": 5308,
      "Ġborrow": 5309,
      "Ġdesigned": 5310,
      "Ġionic": 5311,
      "Ġattempted": 5312,
      "Ġmeasures": 5313,
      "ĠDavis": 5314,
      "Ġcontributed": 5315,
      "Ġmaintain": 5316,
      "Ġemerged": 5317,
      "Ġamounts": 5318,
      "Ġoffered": 5319,
      "Ġconvention": 5320,
      "ĠModern": 5321,
      "Ġapplications": 5322,
      "ĠPatro": 5323,
      "Ġselected": 5324,
      "Ġvowels": 5325,
      "Ġnegative": 5326,
      "Andor": 5327,
      "While": 5328,
      "Ġbehavior": 5329,
      "Ġtelescope": 5330,
      "Ġaudience": 5331,
      "Ġbreeding": 5332,
      "Ġsexual": 5333,
      "Ġmentioned": 5334,
      "Ġhypothesis": 5335,
      "ambiguation": 5336,
      "ĠRichard": 5337,
      "ĠOttoman": 5338,
      "36": 5339,
      "Ge": 5340,
      "John": 5341,
      "eff": 5342,
      "group": 5343,
      "ien": 5344,
      "ja": 5345,
      "mat": 5346,
      "pent": 5347,
      "right": 5348,
      "Äĵ": 5349,
      "ĨĴ": 5350,
      "onomy": 5351,
      "Ġske": 5352,
      "Ġcaecilians": 5353,
      "Ġbud": 5354,
      "omew": 5355,
      "ĠSk": 5356,
      "ĠSat": 5357,
      "amb": 5358,
      "irgin": 5359,
      "Ġstr": 5360,
      "thing": 5361,
      "ĠHa": 5362,
      "Ġvon": 5363,
      "Ġvirt": 5364,
      "ĠFound": 5365,
      "Ġatmosp": 5366,
      "Ġhearing": 5367,
      "ĠDagny": 5368,
      "ĠWater": 5369,
      "Ġrates": 5370,
      "Ġsection": 5371,
      "pha": 5372,
      "ĠJud": 5373,
      "Ġleaving": 5374,
      "Ġshot": 5375,
      "Ġperce": 5376,
      "Ġcommander": 5377,
      "Ġrough": 5378,
      "Ġmodels": 5379,
      "aily": 5380,
      "Ġwealth": 5381,
      "Ġpositions": 5382,
      "Ġdifference": 5383,
      "Ġlands": 5384,
      "Ġexped": 5385,
      "Ġ1961": 5386,
      "Ġserves": 5387,
      "ĠIslands": 5388,
      "Ġdiscovery": 5389,
      "Ġ1989": 5390,
      "Ġinfluential": 5391,
      "Ġrequires": 5392,
      "Ġcurrents": 5393,
      "Ġreligions": 5394,
      "Ġoriginated": 5395,
      "Ġbiological": 5396,
      "Ġviews": 5397,
      "Ġfinancial": 5398,
      "Ġcausing": 5399,
      "Ġreceive": 5400,
      "Ġstrongly": 5401,
      "Ġinstr": 5402,
      "Ġneeds": 5403,
      "Ġspecialized": 5404,
      "Ġ1940": 5405,
      "Ġinvolves": 5406,
      "Ġexperienced": 5407,
      "Ġsuggests": 5408,
      "Ġinitial": 5409,
      "Ġsubstance": 5410,
      "Ġalchemists": 5411,
      "Ġrelationships": 5412,
      "ĠBooks": 5413,
      "Ġfailure": 5414,
      "Ġtourism": 5415,
      "ĠMuslims": 5416,
      "Ġextensive": 5417,
      "Afroasiatic": 5418,
      "Eng": 5419,
      "Ġtribes": 5420,
      "Ġstrike": 5421,
      "Ġdefendant": 5422,
      "ĠHollywood": 5423,
      "ĠTechnology": 5424,
      "Islam": 5425,
      "Alberta": 5426,
      "Ġmoment": 5427,
      "ĠâĨĴ": 5428,
      "ĠPhoen": 5429,
      "ĠHebrew": 5430,
      "ĠPatroclus": 5431,
      "27": 5432,
      "29": 5433,
      "99": 5434,
      "Az": 5435,
      "Aust": 5436,
      "By": 5437,
      "Pro": 5438,
      "US": 5439,
      "band": 5440,
      "fect": 5441,
      "gia": 5442,
      "nov": 5443,
      "produ": 5444,
      "rish": 5445,
      "Ġtennis": 5446,
      "atically": 5447,
      "alities": 5448,
      "Ġcry": 5449,
      "Ġcodes": 5450,
      "Ġbrain": 5451,
      "Ġbrief": 5452,
      "ĠAA": 5453,
      "Ġmart": 5454,
      "Ġmax": 5455,
      "Ġmamm": 5456,
      "Ġdate": 5457,
      "Ġdates": 5458,
      "olar": 5459,
      "elian": 5460,
      "ivist": 5461,
      "ivated": 5462,
      "amin": 5463,
      "amed": 5464,
      "utation": 5465,
      "thod": 5466,
      "ĠMart": 5467,
      "ĠMars": 5468,
      "ĠMission": 5469,
      "osph": 5470,
      "ĠHel": 5471,
      "Ġproport": 5472,
      "ĠEducation": 5473,
      "ĠLife": 5474,
      "Ġexclus": 5475,
      "ĠNor": 5476,
      "acing": 5477,
      "Ġhere": 5478,
      "ĠOff": 5479,
      "ĠUp": 5480,
      "ĠUeshiba": 5481,
      "class": 5482,
      "Ġintended": 5483,
      "ĠStat": 5484,
      "ruption": 5485,
      "Ġshape": 5486,
      "Ġyield": 5487,
      "Ġperman": 5488,
      "unda": 5489,
      "Ġroot": 5490,
      "Ġroute": 5491,
      "Ġappropri": 5492,
      "Ġjob": 5493,
      "Ġproducer": 5494,
      "ysse": 5495,
      "Ġprecip": 5496,
      "Ġoutput": 5497,
      "Ġextended": 5498,
      "Ġspecifically": 5499,
      "ĠProject": 5500,
      "Ġslightly": 5501,
      "Ġ1975": 5502,
      "Alaska": 5503,
      "Alabama": 5504,
      "Ġdepending": 5505,
      "ĠOnline": 5506,
      "Ġparliament": 5507,
      "ĠFrank": 5508,
      "ĠChristians": 5509,
      "Ġbioc": 5510,
      "Ġshows": 5511,
      "Ġaircraft": 5512,
      "Ġlinear": 5513,
      "Ġmarried": 5514,
      "Ġ1861": 5515,
      "Ġhelped": 5516,
      "Ġauthorities": 5517,
      "Ġamphibian": 5518,
      "Ġheavily": 5519,
      "Ġvote": 5520,
      "Ġcollection": 5521,
      "Ġattempts": 5522,
      "Ġexpression": 5523,
      "ĠĊĠĊĠĊĠĊĠĊĠĊĠĊĠĊ": 5524,
      "Ġfocused": 5525,
      "Ġconcepts": 5526,
      "Ġaardw": 5527,
      "Ġdominated": 5528,
      "This": 5529,
      "Ġassumed": 5530,
      "Ġtrees": 5531,
      "Ġfrequently": 5532,
      "Ġnecessary": 5533,
      "ĠSmith": 5534,
      "Ġcommunication": 5535,
      "ĠBuddhism": 5536,
      "disambiguation": 5537,
      "Ġfertiliz": 5538,
      "Ġalternative": 5539,
      "ĠAustralian": 5540,
      "Ġsplit": 5541,
      "ĠChampionship": 5542,
      "Ġartificial": 5543,
      "ĠJoseph": 5544,
      "65": 5545,
      "Ac": 5546,
      "FA": 5547,
      "bons": 5548,
      "col": 5549,
      "den": 5550,
      "fish": 5551,
      "rise": 5552,
      "Ġiron": 5553,
      "Ġtens": 5554,
      "Ġtheories": 5555,
      "Ġcab": 5556,
      "Ġcast": 5557,
      "itational": 5558,
      "Ġwear": 5559,
      "arks": 5560,
      "icon": 5561,
      "Ġfru": 5562,
      "Ġfelt": 5563,
      "Ġbonds": 5564,
      "ĠAh": 5565,
      "ĠAth": 5566,
      "Ġdro": 5567,
      "Ġhands": 5568,
      "olt": 5569,
      "Ġlives": 5570,
      "Ġlaid": 5571,
      "ĠSeveral": 5572,
      "imens": 5573,
      "Ġbeaut": 5574,
      "Ġonto": 5575,
      "Ġstim": 5576,
      "Ġstra": 5577,
      "Ġstret": 5578,
      "rael": 5579,
      "rawn": 5580,
      "Ġconver": 5581,
      "ĠPrin": 5582,
      "ĠLes": 5583,
      "Ġexports": 5584,
      "Ġcomment": 5585,
      "Ġrivers": 5586,
      "seud": 5587,
      "ĠAnn": 5588,
      "ranch": 5589,
      "Ġleave": 5590,
      "ĠStar": 5591,
      "rupt": 5592,
      "Ġimpl": 5593,
      "Ġenj": 5594,
      "Ġsoci": 5595,
      "play": 5596,
      "Ġroof": 5597,
      "Ġapparent": 5598,
      "crete": 5599,
      "Ġprem": 5600,
      "Ġsubt": 5601,
      "Ġelectric": 5602,
      "Ġalkane": 5603,
      "posal": 5604,
      "Ġextinct": 5605,
      "ĠAges": 5606,
      "cking": 5607,
      "idespread": 5608,
      "Ġoccasion": 5609,
      "Ġrefused": 5610,
      "ĠRepresent": 5611,
      "ophytes": 5612,
      "Ġparalle": 5613,
      "Ġmembership": 5614,
      "ĠMuseum": 5615,
      "Ġliterally": 5616,
      "Ġpredicted": 5617,
      "Ġ1930": 5618,
      "Ġstarting": 5619,
      "Ġgrass": 5620,
      "Ġdevice": 5621,
      "Ġintroduction": 5622,
      "Ġreduce": 5623,
      "Ġreducing": 5624,
      "Ġhistorically": 5625,
      "Ġissue": 5626,
      "Ġencod": 5627,
      "Ġrelease": 5628,
      "Ġinterests": 5629,
      "Ġconnection": 5630,
      "Ġfemin": 5631,
      "Ġaltruistic": 5632,
      "Ġepit": 5633,
      "Ġopened": 5634,
      "ĠCountry": 5635,
      "Ġtwice": 5636,
      "Ġadopt": 5637,
      "ĠHarvard": 5638,
      "Ġinfrastructure": 5639,
      "Ġprojects": 5640,
      "Ġemployed": 5641,
      "Ġcategory": 5642,
      "ĠCaucas": 5643,
      "Ġmechanics": 5644,
      "Ġsitu": 5645,
      "Ġmathematical": 5646,
      "ĠUNITA": 5647,
      "Ġdocumentary": 5648,
      "ĠJews": 5649,
      "Ġfaith": 5650,
      "Ġemphasis": 5651,
      "Ġvictory": 5652,
      "Ġmemory": 5653,
      "Ġholds": 5654,
      "ĠPhilosophy": 5655,
      "Ġchallen": 5656,
      "ĠProtest": 5657,
      "Ġpigs": 5658,
      "Ġdisease": 5659,
      "Ġagreement": 5660,
      "Ġweeks": 5661,
      "Ġcamera": 5662,
      "Ġimmediately": 5663,
      "ĠOxford": 5664,
      "ĠOdysse": 5665,
      "Ġlarvae": 5666,
      "'t": 5667,
      "FL": 5668,
      "back": 5669,
      "gell": 5670,
      "iro": 5671,
      "life": 5672,
      "nost": 5673,
      "sen": 5674,
      "ĠÎ": 5675,
      "Ġtad": 5676,
      "inally": 5677,
      "eric": 5678,
      "Ġsky": 5679,
      "Ġcel": 5680,
      "Ġcold": 5681,
      "Ġcris": 5682,
      "Ġwoman": 5683,
      "Ġwidespread": 5684,
      "organ": 5685,
      "Ġframe": 5686,
      "Ġpil": 5687,
      "Ġpath": 5688,
      "Ġbig": 5689,
      "Ġdirection": 5690,
      "Ġhous": 5691,
      "struction": 5692,
      "omers": 5693,
      "ĠTreat": 5694,
      "ĠServ": 5695,
      "ĠCur": 5696,
      "Ġgame": 5697,
      "Ġgills": 5698,
      "undu": 5699,
      "Ġstars": 5700,
      "Ġstream": 5701,
      "Ġstabil": 5702,
      "ĠMir": 5703,
      "ĠMPLA": 5704,
      "ĠPash": 5705,
      "ĠPeninsula": 5706,
      "ĠLate": 5707,
      "iance": 5708,
      "Ġexists": 5709,
      "ĠFe": 5710,
      "ĠFred": 5711,
      "ĠFried": 5712,
      "ciation": 5713,
      "ĠDoug": 5714,
      "ĠInternet": 5715,
      "Ġrich": 5716,
      "Ġsegment": 5717,
      "ĠUTC": 5718,
      "ected": 5719,
      "ĠKenn": 5720,
      "Ġadm": 5721,
      "Ġadhe": 5722,
      "Ġspring": 5723,
      "ĠChild": 5724,
      "ologist": 5725,
      "Ġdisag": 5726,
      "Ġamb": 5727,
      "orders": 5728,
      "Ġevolved": 5729,
      "Ġacts": 5730,
      "ohann": 5731,
      "Ġintermedi": 5732,
      "Ġuseful": 5733,
      "ĠSecond": 5734,
      "cker": 5735,
      "Ġsimpl": 5736,
      "Ġfollows": 5737,
      "Ġtechnical": 5738,
      "Ġexpans": 5739,
      "Ġ1962": 5740,
      "ledon": 5741,
      "ĠYear": 5742,
      "Ġ1974": 5743,
      "Ġ1976": 5744,
      "Although": 5745,
      "ĠOnly": 5746,
      "Ġmonth": 5747,
      "Ġrepresenting": 5748,
      "Ġbelieve": 5749,
      "Ġfarms": 5750,
      "Ġsignificance": 5751,
      "ĠBritain": 5752,
      "Ġgoing": 5753,
      "Ġmarine": 5754,
      "Ġmyst": 5755,
      "Ġseparated": 5756,
      "ĠAmong": 5757,
      "Ġencounter": 5758,
      "Ġexperimental": 5759,
      "Ġoxid": 5760,
      "Ġranking": 5761,
      "Ġunderstood": 5762,
      "Ġmolecular": 5763,
      "Ġaccounts": 5764,
      "Afghan": 5765,
      "Ġentirely": 5766,
      "Ġaffected": 5767,
      "Ġsquare": 5768,
      "Ġpsychology": 5769,
      "uscript": 5770,
      "Ġcorresponding": 5771,
      "Ġdomestic": 5772,
      "Ġfighting": 5773,
      "ĠJewish": 5774,
      "imbledon": 5775,
      "Ġconsonant": 5776,
      "Ġsubsequently": 5777,
      "Ġbehavi": 5778,
      "Ġconstitu": 5779,
      "Ġpopulations": 5780,
      "Ġneutral": 5781,
      "ĠClassical": 5782,
      "Ġphonem": 5783,
      "ĠFurthermore": 5784,
      "Ġquarter": 5785,
      "Ġstrugg": 5786,
      "Ġsubstantial": 5787,
      "Khmer": 5788,
      "Ġbudget": 5789,
      ".),": 5790,
      "BS": 5791,
      "Be": 5792,
      "IC": 5793,
      "Since": 5794,
      "after": 5795,
      "eas": 5796,
      "Ġ/": 5797,
      "iny": 5798,
      "inated": 5799,
      "inds": 5800,
      "era": 5801,
      "rey": 5802,
      "Ġsay": 5803,
      "enes": 5804,
      "alent": 5805,
      "icit": 5806,
      "ĠpH": 5807,
      "Ġpack": 5808,
      "Ġpiece": 5809,
      "Ġmur": 5810,
      "Ġmort": 5811,
      "Ġmissions": 5812,
      "Ġtold": 5813,
      "Ġdial": 5814,
      "Ġdream": 5815,
      "ilus": 5816,
      "state": 5817,
      "Ġnor": 5818,
      "Ġnetwork": 5819,
      "ivism": 5820,
      "etan": 5821,
      "etary": 5822,
      "amorph": 5823,
      "ĠCrit": 5824,
      "ady": 5825,
      "Ġ(,": 5826,
      "unte": 5827,
      "ulpt": 5828,
      "irical": 5829,
      "ĠIm": 5830,
      "ĠIli": 5831,
      "ĠMu": 5832,
      "ĠPicture": 5833,
      "term": 5834,
      "Ġvoice": 5835,
      "ĠFl": 5836,
      "ĠFederal": 5837,
      "ĠNot": 5838,
      "ĠGold": 5839,
      "cious": 5840,
      "Ġ1920": 5841,
      "ĠWimbledon": 5842,
      "Ġrh": 5843,
      "Ġsec": 5844,
      "rani": 5845,
      "ellow": 5846,
      "Ġcontained": 5847,
      "ĠKong": 5848,
      "Ġresidents": 5849,
      "Ġclay": 5850,
      "Ġteac": 5851,
      "Ġrelation": 5852,
      "ĠHealth": 5853,
      "Ġcounty": 5854,
      "ribute": 5855,
      "Ġartistic": 5856,
      "Ġattributed": 5857,
      "Ġpolice": 5858,
      "Ġactually": 5859,
      "Ġvariation": 5860,
      "Ġelectro": 5861,
      "Ġsurp": 5862,
      "Ġnewly": 5863,
      "flight": 5864,
      "ĠDef": 5865,
      "anning": 5866,
      "Ġ1979": 5867,
      "Alban": 5868,
      "Ġorganisms": 5869,
      "Ġ1986": 5870,
      "Ġperiods": 5871,
      "Ġplayers": 5872,
      "Ġprogress": 5873,
      "rising": 5874,
      "Ġbiology": 5875,
      "idden": 5876,
      "ullah": 5877,
      "Ġassociation": 5878,
      "mittee": 5879,
      "Ġgeomet": 5880,
      "ĠBrig": 5881,
      "Ġencoura": 5882,
      "Ġgoods": 5883,
      "Ġfishing": 5884,
      "Ġcollected": 5885,
      "Ġexpressed": 5886,
      "Ġparticipated": 5887,
      "Ã«r": 5888,
      "Ġuniversal": 5889,
      "Ġcontributions": 5890,
      "Ġambiguous": 5891,
      "ĠTurk": 5892,
      "aphysics": 5893,
      "Ġcontrolled": 5894,
      "abilities": 5895,
      "Ġtelescopes": 5896,
      "Ġchalleng": 5897,
      "Ġdispers": 5898,
      "ĠSpecial": 5899,
      "Ġcomposition": 5900,
      "Ġgravitational": 5901,
      "ĠOrganization": 5902,
      "aturally": 5903,
      "Ġaesthetic": 5904,
      "Ġprices": 5905,
      "oscow": 5906,
      "Ġcandidate": 5907,
      "Ġpredominantly": 5908,
      "Ġfifth": 5909,
      "ĠDisney": 5910,
      "Ġdestroy": 5911,
      "Andorra": 5912,
      "ĠKennedy": 5913,
      "26": 5914,
      "43": 5915,
      "48": 5916,
      "Cont": 5917,
      "Ne": 5918,
      "Sp": 5919,
      "ble": 5920,
      "dess": 5921,
      "gom": 5922,
      "grad": 5923,
      "uet": 5924,
      "war": 5925,
      "Ã¸": 5926,
      "Ãł": 5927,
      "ĊĠĊĠĊ": 5928,
      "inction": 5929,
      "including": 5930,
      "onia": 5931,
      "Ġsan": 5932,
      "Ġsands": 5933,
      "Ġsaying": 5934,
      "Ġsomew": 5935,
      "encies": 5936,
      "Ġcru": 5937,
      "itan": 5938,
      "ora": 5939,
      "orter": 5940,
      "Ġfat": 5941,
      "Ġfaced": 5942,
      "Ġfrag": 5943,
      "Ġpen": 5944,
      "Ġpaid": 5945,
      "ĠAge": 5946,
      "Ġmut": 5947,
      "Ġmales": 5948,
      "Ġdiam": 5949,
      "Ġhair": 5950,
      "omorph": 5951,
      "Ġthing": 5952,
      "Ġthick": 5953,
      "Ġnations": 5954,
      "Ġgender": 5955,
      "ĠMem": 5956,
      "ĠMoh": 5957,
      "ĠMoscow": 5958,
      "ĠPet": 5959,
      "opl": 5960,
      "abas": 5961,
      "abled": 5962,
      "ĠForm": 5963,
      "ĠFlor": 5964,
      "acles": 5965,
      "ĠDiv": 5966,
      "ĠDirect": 5967,
      "ĠOf": 5968,
      "Ġunable": 5969,
      "Ġarms": 5970,
      "rance": 5971,
      "action": 5972,
      "ocracy": 5973,
      "ishment": 5974,
      "Ġplat": 5975,
      "ĠUnder": 5976,
      "Ġmanip": 5977,
      "Ġmanner": 5978,
      "Ġrelative": 5979,
      "Ġroots": 5980,
      "arked": 5981,
      "Ġpeak": 5982,
      "Ġattached": 5983,
      "Ġattacks": 5984,
      "Ġacting": 5985,
      "evertheless": 5986,
      "Ġstudent": 5987,
      "inda": 5988,
      "ĠSecret": 5989,
      "Ġextent": 5990,
      "Ġ1992": 5991,
      "Ġpersons": 5992,
      "iquity": 5993,
      "Ġminister": 5994,
      "ographs": 5995,
      "Ġrevolution": 5996,
      "ĠIsrael": 5997,
      "Ġeffectively": 5998,
      "Ġ1988": 5999,
      "Ġterrestrial": 6000,
      "Ġcharacterized": 6001,
      "Ġradical": 6002,
      "Ġpublication": 6003,
      "Ġrepresentation": 6004,
      "Ġobservation": 6005,
      "ĠBerg": 6006,
      "Ġannually": 6007,
      "Ġ2023": 6008,
      "Ġconstruct": 6009,
      "Ġexplain": 6010,
      "ĠHerat": 6011,
      "Ġvolume": 6012,
      "Ġsuffering": 6013,
      "Ġvertebr": 6014,
      "Ġvoting": 6015,
      "Ġcolonies": 6016,
      "Ġeffort": 6017,
      "ymph": 6018,
      "Ġimprove": 6019,
      "ĠMinister": 6020,
      "Ġconsisting": 6021,
      "ĠSuper": 6022,
      "ammad": 6023,
      "Ġsalamander": 6024,
      "Ġearthqu": 6025,
      "Ġincreasingly": 6026,
      "Ġpromote": 6027,
      "Ġpaint": 6028,
      "Ġsituation": 6029,
      "ĠAssembly": 6030,
      "ĠSystem": 6031,
      "Ġtarget": 6032,
      "Ġvariable": 6033,
      "Ġangle": 6034,
      "Ġcomponent": 6035,
      "Ġsettlement": 6036,
      "Ġcolumns": 6037,
      "ĠAdditionally": 6038,
      "eligion": 6039,
      "Ġrisk": 6040,
      "Ġtheoretical": 6041,
      "ĠAppeals": 6042,
      "Ġdynasty": 6043,
      "ĠCatalan": 6044,
      "Ġnominees": 6045,
      "People": 6046,
      "itudes": 6047,
      "Ġsatellite": 6048,
      "Ġbottom": 6049,
      "olithic": 6050,
      "Azerbaijan": 6051,
      "Ġstraight": 6052,
      "64": 6053,
      "Col": 6054,
      "IS": 6055,
      "Mus": 6056,
      "Or": 6057,
      "can": 6058,
      "ij": 6059,
      "know": 6060,
      "lines": 6061,
      "rine": 6062,
      "vis": 6063,
      "work": 6064,
      "yan": 6065,
      "Ġtong": 6066,
      "aler": 6067,
      "Ġwaves": 6068,
      "orado": 6069,
      "Ġinsc": 6070,
      "Ġfil": 6071,
      "Ġfolk": 6072,
      "Ġpapers": 6073,
      "Ġbases": 6074,
      "ĠAk": 6075,
      "ĠApoll": 6076,
      "Ġdoll": 6077,
      "Ġdiversity": 6078,
      "Ġhabit": 6079,
      "omm": 6080,
      "Ġlos": 6081,
      "Ġliber": 6082,
      "Ġlyre": 6083,
      "ĠTAI": 6084,
      "chain": 6085,
      "ĠCO": 6086,
      "otal": 6087,
      "Ġbeings": 6088,
      "igrants": 6089,
      "Ġstation": 6090,
      "Ġstaff": 6091,
      "ĠMad": 6092,
      "ĠMot": 6093,
      "Ġconstitute": 6094,
      "opol": 6095,
      "ĠBah": 6096,
      "andahar": 6097,
      "Ġproced": 6098,
      "Ġvs": 6099,
      "ĠRoc": 6100,
      "ĠRail": 6101,
      "Ġitems": 6102,
      "ĠNag": 6103,
      "ĠInformation": 6104,
      "loc": 6105,
      "ĠAnat": 6106,
      "ework": 6107,
      "ĠJohann": 6108,
      "ubs": 6109,
      "poles": 6110,
      "Ġotherwise": 6111,
      "ricks": 6112,
      "Ġformula": 6113,
      "Ġsole": 6114,
      "Ġphase": 6115,
      "chemy": 6116,
      "Ġmetallic": 6117,
      "Ġ188": 6118,
      "ĠVirgin": 6119,
      "ysical": 6120,
      "Ġ31": 6121,
      "Ġ32": 6122,
      "Ġregime": 6123,
      "aired": 6124,
      "Ġaccused": 6125,
      "Ġproviding": 6126,
      "Ġtransmission": 6127,
      "Ġgeneration": 6128,
      "ĠIndepend": 6129,
      "Ġnewsp": 6130,
      "ĠAlbanians": 6131,
      "Anim": 6132,
      "Ġsupply": 6133,
      "cyclop": 6134,
      "Ġrevers": 6135,
      "Ġdiscover": 6136,
      "Ġsolutions": 6137,
      "Ġ1982": 6138,
      "Ġcapita": 6139,
      "onym": 6140,
      "ĠLeague": 6141,
      "Ġordered": 6142,
      "Ġdescribes": 6143,
      "Ġphysic": 6144,
      "Ġoppon": 6145,
      "ĠMaria": 6146,
      "ĠFrancis": 6147,
      "Ġviewed": 6148,
      "Ġoccurring": 6149,
      "Ġreports": 6150,
      "Ġpassing": 6151,
      "ipping": 6152,
      "Ġ1921": 6153,
      "Ġtitles": 6154,
      "Ġheavier": 6155,
      "Ġrunning": 6156,
      "Ġionisation": 6157,
      "Ġcloser": 6158,
      "Ġtranslation": 6159,
      "Ġportion": 6160,
      "ĠBarb": 6161,
      "United": 6162,
      "unications": 6163,
      "ĠTurkey": 6164,
      "queous": 6165,
      "Ġoccupied": 6166,
      "Ġdomest": 6167,
      "Ġprovincial": 6168,
      "Ġsilver": 6169,
      "Ġsettled": 6170,
      "Ġmagaz": 6171,
      "enaissance": 6172,
      "Ġwalls": 6173,
      "ĠAthena": 6174,
      "ĠObject": 6175,
      "Ġresponsible": 6176,
      "Ġpoetry": 6177,
      "Ġrapidly": 6178,
      "Ġsurrounding": 6179,
      "ĠVietnam": 6180,
      "Ġabundant": 6181,
      "ĠToday": 6182,
      "ĠAlaskan": 6183,
      "Ġprecipitation": 6184,
      "ĠAthabas": 6185,
      "Ġenjoy": 6186,
      "Ġparallel": 6187,
      "ĠIliad": 6188,
      "gomery": 6189,
      "Ali": 6190,
      "CH": 6191,
      "Des": 6192,
      "Etymology": 6193,
      "Early": 6194,
      "Most": 6195,
      "Member": 6196,
      "SM": 6197,
      "aper": 6198,
      "bl": 6199,
      "but": 6200,
      "cers": 6201,
      "care": 6202,
      "cule": 6203,
      "hat": 6204,
      "kanes": 6205,
      "la": 6206,
      "ride": 6207,
      "uit": 6208,
      "vements": 6209,
      "Î»": 6210,
      "heastern": 6211,
      "iner": 6212,
      "inus": 6213,
      "inos": 6214,
      "Ġovers": 6215,
      "atus": 6216,
      "ese": 6217,
      "alax": 6218,
      "Ġcat": 6219,
      "Ġcart": 6220,
      "Ġwant": 6221,
      "orus": 6222,
      "Ġintern": 6223,
      "Ġinner": 6224,
      "Ġfear": 6225,
      "Ġfixed": 6226,
      "Ġfresh": 6227,
      "Ġmaster": 6228,
      "Ġdang": 6229,
      "Ġdaily": 6230,
      "Ġrept": 6231,
      "omical": 6232,
      "Ġlies": 6233,
      "Ġlie": 6234,
      "Ġlose": 6235,
      "eler": 6236,
      "Ġnick": 6237,
      "ĠSikh": 6238,
      "etts": 6239,
      "etime": 6240,
      "ams": 6241,
      "otton": 6242,
      "isted": 6243,
      "ulner": 6244,
      "Ġalone": 6245,
      "ira": 6246,
      "iring": 6247,
      "irmed": 6248,
      "Ġstre": 6249,
      "Ġstability": 6250,
      "rav": 6251,
      "ĠMax": 6252,
      "ĠPost": 6253,
      "ĠBalk": 6254,
      "ĠHistor": 6255,
      "Ġpros": 6256,
      "ĠEp": 6257,
      "ĠEach": 6258,
      "Ġvent": 6259,
      "ĠFact": 6260,
      "ĠNevertheless": 6261,
      "Ġhect": 6262,
      "ĠDoric": 6263,
      "ĠAlso": 6264,
      "rie": 6265,
      "riatic": 6266,
      "Ġuser": 6267,
      "Ġunknown": 6268,
      "Ġchose": 6269,
      "Ġacknow": 6270,
      "Ġintellig": 6271,
      "ibli": 6272,
      "Ġspelling": 6273,
      "ronze": 6274,
      "ansas": 6275,
      "uez": 6276,
      "Ġroads": 6277,
      "Ġneither": 6278,
      "Ġ33": 6279,
      "Ġ38": 6280,
      "Ġindirect": 6281,
      "Ġattested": 6282,
      "banks": 6283,
      "Ġfilmm": 6284,
      "Ġquite": 6285,
      "Ġfoundation": 6286,
      "Ġrace": 6287,
      "Ġdistric": 6288,
      "Ġinvasion": 6289,
      "Ġsurf": 6290,
      "Ġtermites": 6291,
      "ĠIndo": 6292,
      "Ġsculpt": 6293,
      "Ġcontinues": 6294,
      "Ġrefin": 6295,
      "Ġrefuge": 6296,
      "Ġorigins": 6297,
      "Ġdescription": 6298,
      "ĠAdriatic": 6299,
      "Ġ1984": 6300,
      "Ġleads": 6301,
      "ĠCollect": 6302,
      "ĠColorado": 6303,
      "Ġ90": 6304,
      "Ġmethane": 6305,
      "ynthe": 6306,
      "Ġclassified": 6307,
      "Ġadvant": 6308,
      "Ġethical": 6309,
      "Ġgreatly": 6310,
      "Ġoperating": 6311,
      "ĠCarol": 6312,
      "Ġpurpos": 6313,
      "Ġexisting": 6314,
      "ĠByz": 6315,
      "Ġexperiences": 6316,
      "ĠArtemis": 6317,
      "Ġdivisions": 6318,
      "Ġvolunte": 6319,
      "Ġissued": 6320,
      "ĠExamples": 6321,
      "Ġsatis": 6322,
      "Ġteams": 6323,
      "ercury": 6324,
      "ĠCoast": 6325,
      "Ġdegrees": 6326,
      "Ġengineering": 6327,
      "Ġtransportation": 6328,
      "Ġlearning": 6329,
      "board": 6330,
      "Ġgradually": 6331,
      "Ġcosts": 6332,
      "Ġmeeting": 6333,
      "Ġdiscussion": 6334,
      "Ġsacred": 6335,
      "Ġsacrific": 6336,
      "Ġnormal": 6337,
      "Ġexecutive": 6338,
      "ĠGovernment": 6339,
      "Ġinhabit": 6340,
      "ĠDurrani": 6341,
      "Ġregularly": 6342,
      "Ġpollution": 6343,
      "largest": 6344,
      "Ġdiplomatic": 6345,
      "Ġmineral": 6346,
      "Ġpracticed": 6347,
      "ĠFederer": 6348,
      "nsted": 6349,
      "Ġsucceeded": 6350,
      "Ġlungs": 6351,
      "European": 6352,
      "Ġwithdraw": 6353,
      "achusetts": 6354,
      "ĠSaturn": 6355,
      "Ġaardwolf": 6356,
      "ĠDouglas": 6357,
      "Ġexpansion": 6358,
      "Ã¸nsted": 6359,
      "Ġdomesticated": 6360,
      "ĠAthabasca": 6361,
      "47": 6362,
      "71": 6363,
      "AR": 6364,
      "De": 6365,
      "New": 6366,
      "ba": 6367,
      "des": 6368,
      "gram": 6369,
      "hre": 6370,
      "iop": 6371,
      "iology": 6372,
      "lers": 6373,
      "mann": 6374,
      "rors": 6375,
      "sible": 6376,
      "tun": 6377,
      "uz": 6378,
      "vest": 6379,
      "ycl": 6380,
      "Ã¤": 6381,
      "Ġ)": 6382,
      "Ġtact": 6383,
      "Ġtask": 6384,
      "inter": 6385,
      "anth": 6386,
      "also": 6387,
      "arab": 6388,
      "icago": 6389,
      "Ġfestival": 6390,
      "Ġpal": 6391,
      "Ġborders": 6392,
      "Ġmilit": 6393,
      "Ġtools": 6394,
      "Ġhorn": 6395,
      "ĠTun": 6396,
      "ĠTri": 6397,
      "eline": 6398,
      "elve": 6399,
      "Ġnob": 6400,
      "Ġnaturally": 6401,
      "lyph": 6402,
      "Ġ().": 6403,
      "Ġglands": 6404,
      "unction": 6405,
      "Ġalcoh": 6406,
      "ĠISO": 6407,
      "that": 6408,
      "ĠMo": 6409,
      "ĠMes": 6410,
      "ĠMill": 6411,
      "Ġconjug": 6412,
      "ĠBetween": 6413,
      "Ġwaste": 6414,
      "ĠHong": 6415,
      "ĠHorn": 6416,
      "ĠHospital": 6417,
      "agon": 6418,
      "ĠLi": 6419,
      "Ġvac": 6420,
      "ĠRoger": 6421,
      "Ġexerc": 6422,
      "ĠFer": 6423,
      "ĠDan": 6424,
      "Ġmoist": 6425,
      "illation": 6426,
      "arters": 6427,
      "Ġunst": 6428,
      "see": 6429,
      "eward": 6430,
      "ĠJust": 6431,
      "ĠJones": 6432,
      "Ġnothing": 6433,
      "ĠAristot": 6434,
      "Ġsport": 6435,
      "appe": 6436,
      "Ġpartn": 6437,
      "ĠChicago": 6438,
      "Ġspeed": 6439,
      "ords": 6440,
      "Ġjoint": 6441,
      "ampion": 6442,
      "Ġpreced": 6443,
      "Ġ300": 6444,
      "Ġmoder": 6445,
      "aws": 6446,
      "Ġrecomm": 6447,
      "Ġfounding": 6448,
      "ĠSecurity": 6449,
      "Ġassass": 6450,
      "Ġtermin": 6451,
      "Ġcarb": 6452,
      "Ġ1966": 6453,
      "Ġ1967": 6454,
      "Ġdecisions": 6455,
      "Ġsetting": 6456,
      "Ġlongest": 6457,
      "Ġ1972": 6458,
      "Ġspaceflight": 6459,
      "Alger": 6460,
      "Ġenter": 6461,
      "ĠCommittee": 6462,
      "Ġcapacity": 6463,
      "ĠLee": 6464,
      "Ġvisited": 6465,
      "Ġinsp": 6466,
      "ĠAbout": 6467,
      "ĠMarx": 6468,
      "Ġalongside": 6469,
      "Ġerror": 6470,
      "phabet": 6471,
      "Ġ1860": 6472,
      "ĠHeritage": 6473,
      "Ġexisted": 6474,
      "Ġmotor": 6475,
      "ĠAmphib": 6476,
      "Ġcombination": 6477,
      "Ġsixth": 6478,
      "uela": 6479,
      "Ġverb": 6480,
      "Ġcomputers": 6481,
      "Ġfemales": 6482,
      "Ġsumm": 6483,
      "Ġbirds": 6484,
      "ĠDelos": 6485,
      "ĠScot": 6486,
      "Ġgenetic": 6487,
      "while": 6488,
      "Ġsongs": 6489,
      "Ġpropag": 6490,
      "Ġmolecule": 6491,
      "ĠMinistry": 6492,
      "Ġestablishment": 6493,
      "Ġdefeat": 6494,
      "Ġlayer": 6495,
      "ĠModest": 6496,
      "Ġregarding": 6497,
      "Ġlogic": 6498,
      "Ġsurvived": 6499,
      "Ġdistinguished": 6500,
      "Ġadministrative": 6501,
      "Ġnormally": 6502,
      "ĠMaryland": 6503,
      "ĠSantos": 6504,
      "Ġbraille": 6505,
      "Ġreconstruct": 6506,
      "ĠTerrit": 6507,
      "Ġjurisdictions": 6508,
      "ĠStandards": 6509,
      "Ġobtained": 6510,
      "Ġcovers": 6511,
      "Ġbenefit": 6512,
      "Ġtissue": 6513,
      "Ġsafety": 6514,
      "Ġmillions": 6515,
      "Ġvillages": 6516,
      "Ġphenomena": 6517,
      "Ġtrend": 6518,
      "Ġthermal": 6519,
      "Ġwinners": 6520,
      "Ġequivalent": 6521,
      "Ġneighb": 6522,
      "ĠProvince": 6523,
      "ĠLegisl": 6524,
      "ĠFairbanks": 6525,
      "ĠMontgomery": 6526,
      "Ġfossil": 6527,
      "claimed": 6528,
      "quetÃŃ": 6529,
      "Ġborrowed": 6530,
      "Ġroughly": 6531,
      "Ġexpedition": 6532,
      "Islamic": 6533,
      "ĠProtestant": 6534,
      "Ġtadpoles": 6535,
      "ĠTreaty": 6536,
      "ĠFriedrich": 6537,
      "Ġintermediate": 6538,
      "Ġplatform": 6539,
      "Ġearthquake": 6540,
      "Ġdistricts": 6541,
      "%);": 6542,
      "28": 6543,
      "72": 6544,
      "74": 6545,
      "General": 6546,
      "German": 6547,
      "IV": 6548,
      "If": 6549,
      "Rand": 6550,
      "Roman": 6551,
      "cos": 6552,
      "called": 6553,
      "hi": 6554,
      "house": 6555,
      "iary": 6556,
      "oic": 6557,
      "ooth": 6558,
      "ping": 6559,
      "sw": 6560,
      "vation": 6561,
      "yt": 6562,
      "Ġ=": 6563,
      "Ġtim": 6564,
      "hex": 6565,
      "Ġtheor": 6566,
      "Ġodd": 6567,
      "atre": 6568,
      "atra": 6569,
      "Ġsen": 6570,
      "Ġsel": 6571,
      "Ġsons": 6572,
      "ala": 6573,
      "alin": 6574,
      "Ġcited": 6575,
      "itations": 6576,
      "Ġwave": 6577,
      "Ġwound": 6578,
      "arity": 6579,
      "Ġinput": 6580,
      "Ġfilled": 6581,
      "Ġpet": 6582,
      "Ġpav": 6583,
      "Ġbad": 6584,
      "ione": 6585,
      "rous": 6586,
      "Ġmental": 6587,
      "asc": 6588,
      "Ġhus": 6589,
      "stream": 6590,
      "Ġnet": 6591,
      "Ġnone": 6592,
      "ĠSing": 6593,
      "Ġgained": 6594,
      "Ġforward": 6595,
      "isters": 6596,
      "unennium": 6597,
      "irs": 6598,
      "ĠIII": 6599,
      "ĠThetis": 6600,
      "rait": 6601,
      "ĠMer": 6602,
      "ĠMain": 6603,
      "ĠMah": 6604,
      "ĠMaced": 6605,
      "empl": 6606,
      "emale": 6607,
      "umin": 6608,
      "owed": 6609,
      "ĠBow": 6610,
      "ĠHou": 6611,
      "ĠHun": 6612,
      "ĠLas": 6613,
      "ĠLittle": 6614,
      "ounder": 6615,
      "ĠNad": 6616,
      "ĠGer": 6617,
      "ĠGood": 6618,
      "Ġsust": 6619,
      "ogether": 6620,
      "ĠOper": 6621,
      "Ġuniversity": 6622,
      "Ġcho": 6623,
      "ĠKen": 6624,
      "ĠKandahar": 6625,
      "ova": 6626,
      "ĠArts": 6627,
      "aped": 6628,
      "apacity": 6629,
      "Ġperception": 6630,
      "Ġperhaps": 6631,
      "Ġagree": 6632,
      "chest": 6633,
      "owned": 6634,
      "Ġappre": 6635,
      "Ġappoint": 6636,
      "Ġevolutionary": 6637,
      "Ġproduces": 6638,
      "Ġsomeone": 6639,
      "Ġprey": 6640,
      "Ġ36": 6641,
      "Ġ37": 6642,
      "ĠAmericas": 6643,
      "Ġcharged": 6644,
      "Ġrecently": 6645,
      "Ġaccident": 6646,
      "Ġassess": 6647,
      "Ġ48": 6648,
      "Ġdoct": 6649,
      "ĠAnders": 6650,
      "Ġ500": 6651,
      "Ġboard": 6652,
      "Ġfeet": 6653,
      "ĠProposal": 6654,
      "throp": 6655,
      "iterature": 6656,
      "ĠForce": 6657,
      "Ġ1973": 6658,
      "scape": 6659,
      "enez": 6660,
      "azi": 6661,
      "rowing": 6662,
      "Ġarguments": 6663,
      "monaut": 6664,
      "Ġadvance": 6665,
      "Ġgoddess": 6666,
      "ĠCarl": 6667,
      "Ġpredators": 6668,
      "Ġanalog": 6669,
      "Ġsouthwest": 6670,
      "Ġresearc": 6671,
      "Ġassistance": 6672,
      "Ġdivine": 6673,
      "Ġswim": 6674,
      "Ġbegin": 6675,
      "ĠBrÃ¸nsted": 6676,
      "iciency": 6677,
      "Ġgolden": 6678,
      "Ġreplace": 6679,
      "puter": 6680,
      "Ġprize": 6681,
      "Ġdocuments": 6682,
      "Ġemerging": 6683,
      "Ġdetermine": 6684,
      "Ġsensu": 6685,
      "Ġmountains": 6686,
      "ĠDemocrats": 6687,
      "ĠContinental": 6688,
      "proof": 6689,
      "Ġadapted": 6690,
      "Ġinvestment": 6691,
      "ĠIranian": 6692,
      "Ġdebate": 6693,
      "Ġmerely": 6694,
      "Ġrebell": 6695,
      "Ġtowns": 6696,
      "ĠOscars": 6697,
      "ridor": 6698,
      "Ġcelebrated": 6699,
      "Ġfellow": 6700,
      "Ġjurisdiction": 6701,
      "Ġcircum": 6702,
      "Ġtissues": 6703,
      "Ġorders": 6704,
      "Ġdensity": 6705,
      "Ġlibertarian": 6706,
      "Ġdependent": 6707,
      "Ġáº": 6708,
      "ĠMassachusetts": 6709,
      "Ġarchitecture": 6710,
      "Ġprepared": 6711,
      "Ġweapons": 6712,
      "opteryg": 6713,
      "Ġmartial": 6714,
      "Ġbiocapacity": 6715,
      "Ġcrisis": 6716,
      "ĠVirginia": 6717,
      "Ġacknowled": 6718,
      "45": 6719,
      "90": 6720,
      "Greek": 6721,
      "Ham": 6722,
      "Modern": 6723,
      "Se": 6724,
      "TS": 6725,
      "bra": 6726,
      "down": 6727,
      "kes": 6728,
      "lig": 6729,
      "lie": 6730,
      "ny": 6731,
      "oes": 6732,
      "oard": 6733,
      "ped": 6734,
      "rant": 6735,
      "rating": 6736,
      "uate": 6737,
      "wing": 6738,
      "yc": 6739,
      "Ġtur": 6740,
      "Ġtell": 6741,
      "Ġtree": 6742,
      "rev": 6743,
      "Ġsper": 6744,
      "Ġsoutheast": 6745,
      "Ġcle": 6746,
      "Ġwitness": 6747,
      "orks": 6748,
      "arious": 6749,
      "Ġfest": 6750,
      "Ġfine": 6751,
      "Ġbricks": 6752,
      "roids": 6753,
      "ĠAyn": 6754,
      "Ġmist": 6755,
      "Ġtool": 6756,
      "Ġhier": 6757,
      "olve": 6758,
      "omed": 6759,
      "omic": 6760,
      "ĠTom": 6761,
      "Ġthir": 6762,
      "ushed": 6763,
      "uras": 6764,
      "Ġisomers": 6765,
      "amic": 6766,
      "Ġgot": 6767,
      "istive": 6768,
      "istoric": 6769,
      "under": 6770,
      "ules": 6771,
      "Ġalleg": 6772,
      "irie": 6773,
      "Ġstages": 6774,
      "ĠMajor": 6775,
      "umes": 6776,
      "ĠBan": 6777,
      "ĠBell": 6778,
      "ĠBBC": 6779,
      "ĠHall": 6780,
      "ĠHaw": 6781,
      "Ġwhy": 6782,
      "Ġdeity": 6783,
      "Ġvision": 6784,
      "Ġvulner": 6785,
      "ĠRome": 6786,
      "ĠRenaissance": 6787,
      "iana": 6788,
      "ĠWal": 6789,
      "Ġseems": 6790,
      "Ġusers": 6791,
      "Ġuns": 6792,
      "Ġununennium": 6793,
      "ourism": 6794,
      "Ġchampion": 6795,
      "ection": 6796,
      "ellular": 6797,
      "uban": 6798,
      "assic": 6799,
      "perb": 6800,
      "ĠĊĠ": 6801,
      "ĠArctic": 6802,
      "Ġadmitted": 6803,
      "ĠStalin": 6804,
      "ips": 6805,
      "Ġenh": 6806,
      "Ġmanaged": 6807,
      "Ġclosed": 6808,
      "Ġagent": 6809,
      "ĠThat": 6810,
      "Ġconsensus": 6811,
      "ĠVenez": 6812,
      "Ġprepar": 6813,
      "archy": 6814,
      "Ġdesert": 6815,
      "obi": 6816,
      "gered": 6817,
      "ĠConvention": 6818,
      "aeus": 6819,
      "Ġtransition": 6820,
      "Ġraise": 6821,
      "Ġcolour": 6822,
      "Ġinvented": 6823,
      "ĠAgriculture": 6824,
      "ĠEncyclop": 6825,
      "Ġ1964": 6826,
      "Ġautonomy": 6827,
      "ĠOrig": 6828,
      "cientific": 6829,
      "Ġmining": 6830,
      "scopic": 6831,
      "Ġbackground": 6832,
      "Ġstatistical": 6833,
      "Ġstatuet": 6834,
      "Ġanthropological": 6835,
      "Ġplaying": 6836,
      "Ġdescribing": 6837,
      "Ġnearby": 6838,
      "Ġsocialist": 6839,
      "Ġterritorial": 6840,
      "Art": 6841,
      "Aruba": 6842,
      "Ġfinds": 6843,
      "Ġrestrict": 6844,
      "Ġhelping": 6845,
      "Ġ1937": 6846,
      "Ġchanging": 6847,
      "Ġmasses": 6848,
      "Ġ1929": 6849,
      "Ġdeclined": 6850,
      "ĠBrand": 6851,
      "ĠEdward": 6852,
      "Ġruns": 6853,
      "Ġconcentrations": 6854,
      "Ġjudgment": 6855,
      "Ġsuperior": 6856,
      "Ġquantities": 6857,
      "Ġemerg": 6858,
      "Ġlegislative": 6859,
      "Ġestablishments": 6860,
      "ĠGeorgia": 6861,
      "Ġdestruction": 6862,
      "ournals": 6863,
      "Ġattacked": 6864,
      "Ġceremon": 6865,
      "Ġreviews": 6866,
      "hetics": 6867,
      "Ġburied": 6868,
      "ĠCaquetÃŃ": 6869,
      "Ġthousand": 6870,
      "ĠTennis": 6871,
      "Ġrailroad": 6872,
      "Ġrequirements": 6873,
      "Ġcommittee": 6874,
      "Ġcalculations": 6875,
      "Ġsynthesis": 6876,
      "Ġconquest": 6877,
      "ĠAthens": 6878,
      "Ġlabour": 6879,
      "Ġcriticized": 6880,
      "Ġhundreds": 6881,
      "Ġopin": 6882,
      "Ġbalance": 6883,
      "Ġmythology": 6884,
      "Ġhydrocarbons": 6885,
      "Ġcinema": 6886,
      "Ġsulfur": 6887,
      "Ġtwenty": 6888,
      "onomous": 6889,
      "Ġnortheast": 6890,
      "Ġammonia": 6891,
      "Ġphrase": 6892,
      "Ġperceived": 6893,
      "ĠPhoenician": 6894,
      "Ġdropped": 6895,
      "ĠCaucasus": 6896,
      "Ġsomewhat": 6897,
      "Ġpaintings": 6898,
      "Ġpurposes": 6899,
      "hreb": 6900,
      "Ġhusband": 6901,
      "Ab": 6902,
      "Li": 6903,
      "Mar": 6904,
      "To": 6905,
      "cher": 6906,
      "ek": 6907,
      "gar": 6908,
      "iable": 6909,
      "mond": 6910,
      "making": 6911,
      "nest": 6912,
      "rus": 6913,
      "rÃ«": 6914,
      "ta": 6915,
      "uild": 6916,
      "xic": 6917,
      "yren": 6918,
      "ylic": 6919,
      "Å«": 6920,
      "Ġtrying": 6921,
      "Ġaqueous": 6922,
      "Ġcattle": 6923,
      "Ġincom": 6924,
      "Ġpict": 6925,
      "Ġpestic": 6926,
      "Ġbill": 6927,
      "Ġandroid": 6928,
      "Ġmor": 6929,
      "Ġmorph": 6930,
      "Ġdos": 6931,
      "Ġdism": 6932,
      "Ġhind": 6933,
      "oured": 6934,
      "olute": 6935,
      "iled": 6936,
      "elph": 6937,
      "Ġnouns": 6938,
      "ĠSong": 6939,
      "ĠSeries": 6940,
      "ĠSnow": 6941,
      "ĠCop": 6942,
      "ĠCultural": 6943,
      "add": 6944,
      "ulating": 6945,
      "Ġalle": 6946,
      "ĠIvan": 6947,
      "ĠPop": 6948,
      "ĠBern": 6949,
      "ĠEconomic": 6950,
      "ĠLiber": 6951,
      "Ġvan": 6952,
      "ĠRob": 6953,
      "ĠRights": 6954,
      "ĠFreedom": 6955,
      "ĠGames": 6956,
      "Ġhex": 6957,
      "ĠDo": 6958,
      "ĠDen": 6959,
      "ĠDist": 6960,
      "Ġ1900": 6961,
      "ĠWrit": 6962,
      "Ġrising": 6963,
      "Ġsevent": 6964,
      "ĠOl": 6965,
      "ĠOil": 6966,
      "ghans": 6967,
      "ession": 6968,
      "Ġunus": 6969,
      "ighter": 6970,
      "ube": 6971,
      "ĠKorea": 6972,
      "Ġaboard": 6973,
      "Ġadject": 6974,
      "Ġplot": 6975,
      "Ġkinds": 6976,
      "Ġyouth": 6977,
      "apes": 6978,
      "Ġpartly": 6979,
      "overty": 6980,
      "Ġenforce": 6981,
      "Ġmanuscript": 6982,
      "Ġperfect": 6983,
      "rency": 6984,
      "Ġphosph": 6985,
      "ifications": 6986,
      "anguages": 6987,
      "Ġoverl": 6988,
      "Ġsubmitted": 6989,
      "Ġvaries": 6990,
      "Ġouter": 6991,
      "Ġtransm": 6992,
      "Ġassigned": 6993,
      "Ġdistrict": 6994,
      "ieth": 6995,
      "Ġ1993": 6996,
      "Ġcarry": 6997,
      "Ġsuppl": 6998,
      "Ġsupposed": 6999,
      "hens": 7000,
      "orno": 7001,
      "pective": 7002,
      "aneously": 7003,
      "Ġminimum": 7004,
      "Ġequations": 7005,
      "ylvan": 7006,
      "inned": 7007,
      "Ġnamely": 7008,
      "Ġdepends": 7009,
      "Ġtrading": 7010,
      "elson": 7011,
      "Ġcorruption": 7012,
      "riptions": 7013,
      "Ġsimilarities": 7014,
      "Ġpoison": 7015,
      "Ġadvances": 7016,
      "Ġindependently": 7017,
      "Ġsales": 7018,
      "Ġlaure": 7019,
      "Ġmarriage": 7020,
      "ĠParliament": 7021,
      "Ġengaged": 7022,
      "Ġseparation": 7023,
      "Ġgrant": 7024,
      "Ġprevail": 7025,
      "Ġversions": 7026,
      "Ġruled": 7027,
      "Ġtests": 7028,
      "ymn": 7029,
      "Ġsubstances": 7030,
      "Ġspoke": 7031,
      "Ġbuildings": 7032,
      "Ġpolicies": 7033,
      "Ġestablishing": 7034,
      "ĠAirport": 7035,
      "Ġinterpreted": 7036,
      "Ġdominant": 7037,
      "Ġlayers": 7038,
      "Ġinvestig": 7039,
      "Ġselection": 7040,
      "going": 7041,
      "Ġachieve": 7042,
      "Ġlearned": 7043,
      "continental": 7044,
      "Ġopposite": 7045,
      "Ġcovering": 7046,
      "Ġcommitted": 7047,
      "Ġdemonstrated": 7048,
      "Ġconquered": 7049,
      "iffs": 7050,
      "Ġrainfall": 7051,
      "Ġnucleus": 7052,
      "acteria": 7053,
      "Ġdogs": 7054,
      "Ġlinguistic": 7055,
      "communications": 7056,
      "ĠHermes": 7057,
      "ĠLouis": 7058,
      "Ġcomponents": 7059,
      "Ġbeliefs": 7060,
      "Ġexposed": 7061,
      "Ġsubsid": 7062,
      "Ġships": 7063,
      "Ġranging": 7064,
      "Ġpatterns": 7065,
      "Ġcosm": 7066,
      "ĠCabinda": 7067,
      "ĠMaghreb": 7068,
      "ographer": 7069,
      "Ġdiscipline": 7070,
      "Ġimpossible": 7071,
      "Ġinsects": 7072,
      "ĠSenate": 7073,
      "Ġframework": 7074,
      "Ġopportunity": 7075,
      "English": 7076,
      "thodox": 7077,
      "Ġdialect": 7078,
      "amorphosis": 7079,
      "Ġchallenges": 7080,
      "Ġreptiles": 7081,
      "ylvania": 7082,
      "38": 7083,
      "77": 7084,
      "95": 7085,
      "Dem": 7086,
      "Eth": 7087,
      "SR": 7088,
      "So": 7089,
      "South": 7090,
      "Tarkovsky": 7091,
      "We": 7092,
      "aul": 7093,
      "aug": 7094,
      "effect": 7095,
      "gu": 7096,
      "hold": 7097,
      "ioc": 7098,
      "ients": 7099,
      "mod": 7100,
      "mark": 7101,
      "oo": 7102,
      "oids": 7103,
      "rary": 7104,
      "rates": 7105,
      "rÃ©": 7106,
      "sal": 7107,
      "uels": 7108,
      "yll": 7109,
      "yev": 7110,
      "zen": 7111,
      "ĠĠ": 7112,
      "Ġrom": 7113,
      "Ġast": 7114,
      "hev": 7115,
      "hell": 7116,
      "herent": 7117,
      "ini": 7118,
      "erts": 7119,
      "anim": 7120,
      "Ġsell": 7121,
      "ench": 7122,
      "Ġce": 7123,
      "itics": 7124,
      "aric": 7125,
      "Ġfins": 7126,
      "Ġfaster": 7127,
      "Ġpul": 7128,
      "Ġpir": 7129,
      "Ġpoverty": 7130,
      "Ġbit": 7131,
      "Ġbones": 7132,
      "roll": 7133,
      "ĠABC": 7134,
      "asphalt": 7135,
      "leys": 7136,
      "Ġhatch": 7137,
      "ouri": 7138,
      "olves": 7139,
      "ili": 7140,
      "Ġloy": 7141,
      "ĠTw": 7142,
      "ĠTem": 7143,
      "ĠSuch": 7144,
      "urd": 7145,
      "ĠCasp": 7146,
      "istem": 7147,
      "Ġonline": 7148,
      "irl": 7149,
      "race": 7150,
      "ĠMov": 7151,
      "ĠMark": 7152,
      "ĠMunda": 7153,
      "Ġconce": 7154,
      "osy": 7155,
      "osim": 7156,
      "ĠPot": 7157,
      "ĠPap": 7158,
      "ĠPublic": 7159,
      "ĠPenn": 7160,
      "ĠBona": 7161,
      "anderb": 7162,
      "ifies": 7163,
      "avid": 7164,
      "abited": 7165,
      "ĠLunar": 7166,
      "Ġexport": 7167,
      "ĠFar": 7168,
      "ĠFAA": 7169,
      "Ġsupre": 7170,
      "ĠDu": 7171,
      "ĠDar": 7172,
      "ĠDwan": 7173,
      "Ġ1919": 7174,
      "ĠAlchemy": 7175,
      "lder": 7176,
      "Ġsearch": 7177,
      "Ġseats": 7178,
      "ĠOcc": 7179,
      "akers": 7180,
      "ĠJim": 7181,
      "ĠJean": 7182,
      "ĠJeff": 7183,
      "ovo": 7184,
      "Ġintention": 7185,
      "ĠArmed": 7186,
      "Ġplans": 7187,
      "Ġshar": 7188,
      "Ġshift": 7189,
      "apital": 7190,
      "Ġformally": 7191,
      "Ġcentre": 7192,
      "Ġcenters": 7193,
      "Ġrocks": 7194,
      "teg": 7195,
      "Ġproducers": 7196,
      "Ġtheme": 7197,
      "Ġattend": 7198,
      "Ġattraction": 7199,
      "them": 7200,
      "Ġdiff": 7201,
      "Ġinterior": 7202,
      "Ġaccur": 7203,
      "aean": 7204,
      "Ġremov": 7205,
      "2018": 7206,
      "Ġtrain": 7207,
      "Ġextract": 7208,
      "ĠIndians": 7209,
      "Ġ55": 7210,
      "Ġ1963": 7211,
      "ĠSpring": 7212,
      "lishing": 7213,
      "Ġ1977": 7214,
      "ĠAchille": 7215,
      "Ġleadership": 7216,
      "ĠNorthwest": 7217,
      "Ġcharacteristic": 7218,
      "Ġrequest": 7219,
      "ĠShrug": 7220,
      "Ġmusical": 7221,
      "Ġrepresentative": 7222,
      "Ġvisible": 7223,
      "Ġ150": 7224,
      "Ġtrig": 7225,
      "Ġpubl": 7226,
      "oxide": 7227,
      "ĠCongo": 7228,
      "Ġderives": 7229,
      "Ġindustries": 7230,
      "Ġdemand": 7231,
      "Ġskill": 7232,
      "Ġstronger": 7233,
      "Ġ1933": 7234,
      "Ġanaly": 7235,
      "Ġheadqu": 7236,
      "Ġinvolving": 7237,
      "Ġrecords": 7238,
      "Ġgeographic": 7239,
      "ocratic": 7240,
      "ĠQue": 7241,
      "Ġsufficient": 7242,
      "Ġbirths": 7243,
      "Ġcourse": 7244,
      "Ġtwelve": 7245,
      "Ġfunds": 7246,
      "ĠIndiana": 7247,
      "Ġjudge": 7248,
      "Ġimproved": 7249,
      "Ġuniverse": 7250,
      "Ġcreative": 7251,
      "Ġ1905": 7252,
      "ĠChristianity": 7253,
      "ĠStudy": 7254,
      "Ġinterpret": 7255,
      "Agriculture": 7256,
      "ĠAldous": 7257,
      "Ġassumption": 7258,
      "Ġtreated": 7259,
      "ĠConstitutional": 7260,
      "ĠUNESC": 7261,
      "riminal": 7262,
      "Ġadministration": 7263,
      "Ġinteractions": 7264,
      "Ġdouble": 7265,
      "Ġaccompl": 7266,
      "Ġaccompan": 7267,
      "Ġmigration": 7268,
      "Ġvarying": 7269,
      "Ġnominated": 7270,
      "metus": 7271,
      "Ġnuclei": 7272,
      "Ġminority": 7273,
      "ĠEmir": 7274,
      "Ġpreferred": 7275,
      "Ġincorporated": 7276,
      "Ġdamage": 7277,
      "Ġstrateg": 7278,
      "ĠUrgell": 7279,
      "Ġarchaeological": 7280,
      "finals": 7281,
      "Ġconsumption": 7282,
      "Ġescape": 7283,
      "Ġsovereignty": 7284,
      "Ġconcluded": 7285,
      "Ġmunicipalities": 7286,
      "Ġorbital": 7287,
      "ĠFoundation": 7288,
      "Ġproportion": 7289,
      "ĠOffice": 7290,
      "Ġoccasionally": 7291,
      "ĠOdysseus": 7292,
      "ĠService": 7293,
      "Ġoxidation": 7294,
      "Ġdestroyed": 7295,
      "ĠFlorida": 7296,
      "ĠSecretary": 7297,
      "Alien": 7298,
      "ibliography": 7299,
      "Ġinhabitants": 7300,
      "Ġunstable": 7301,
      "Ġinspired": 7302,
      "Ġresearchers": 7303,
      "ĠCaspian": 7304,
      "ĠBonaire": 7305,
      "ĠShrugged": 7306,
      "ĠUNESCO": 7307,
      "Film": 7308,
      "Karab": 7309,
      "North": 7310,
      "Pre": 7311,
      "Par": 7312,
      "Trans": 7313,
      "ault": 7314,
      "female": 7315,
      "gement": 7316,
      "hyd": 7317,
      "kind": 7318,
      "long": 7319,
      "mas": 7320,
      "mill": 7321,
      "pus": 7322,
      "present": 7323,
      "rhen": 7324,
      "sylvania": 7325,
      "uan": 7326,
      "vious": 7327,
      "yer": 7328,
      "Î¿": 7329,
      "ÏĤ": 7330,
      "erted": 7331,
      "erior": 7332,
      "Ġoct": 7333,
      "atri": 7334,
      "atche": 7335,
      "ancing": 7336,
      "Ġsed": 7337,
      "Ġsche": 7338,
      "esh": 7339,
      "Ġcrust": 7340,
      "orous": 7341,
      "aration": 7342,
      "Ġinaug": 7343,
      "Ġfit": 7344,
      "Ġfair": 7345,
      "Ġban": 7346,
      "Ġball": 7347,
      "Ġbreat": 7348,
      "rose": 7349,
      "ĠAT": 7350,
      "Ġdil": 7351,
      "Ġdated": 7352,
      "Ġdio": 7353,
      "Ġdiver": 7354,
      "level": 7355,
      "olid": 7356,
      "Ġlic": 7357,
      "ĠTir": 7358,
      "ela": 7359,
      "ĠSher": 7360,
      "ĠSahar": 7361,
      "imates": 7362,
      "idges": 7363,
      "ching": 7364,
      "ĠCamp": 7365,
      "uther": 7366,
      "Ġgar": 7367,
      "Ġgain": 7368,
      "Ġglob": 7369,
      "Ġgalax": 7370,
      "una": 7371,
      "ulus": 7372,
      "ulations": 7373,
      "Ġstorm": 7374,
      "emp": 7375,
      "emor": 7376,
      "emic": 7377,
      "Ġconvers": 7378,
      "ĠBeng": 7379,
      "ĠHot": 7380,
      "ĠHell": 7381,
      "odia": 7382,
      "ĠElect": 7383,
      "ĠEve": 7384,
      "ĠEven": 7385,
      "ĠLar": 7386,
      "ĠLingu": 7387,
      "ĠRosen": 7388,
      "ĠFood": 7389,
      "ĠNear": 7390,
      "ĠNathan": 7391,
      "ĠGl": 7392,
      "ĠGlobal": 7393,
      "ĠGraf": 7394,
      "aca": 7395,
      "Ġhealing": 7396,
      "Ġ1912": 7397,
      "ogens": 7398,
      "ĠAlphabet": 7399,
      "ĠInstead": 7400,
      "Ġran": 7401,
      "Ġrice": 7402,
      "Ġseas": 7403,
      "ĠOran": 7404,
      "ĠUK": 7405,
      "pping": 7406,
      "Ġunp": 7407,
      "Ġchurch": 7408,
      "asts": 7409,
      "Ġcontest": 7410,
      "Ġcompl": 7411,
      "Ġintent": 7412,
      "Ġintens": 7413,
      "ishing": 7414,
      "Ġplus": 7415,
      "Ġkilling": 7416,
      "Ġspend": 7417,
      "apor": 7418,
      "apse": 7419,
      "ĠUnivers": 7420,
      "tsville": 7421,
      "ĠChief": 7422,
      "Ġperip": 7423,
      "ĠThough": 7424,
      "ĠThrough": 7425,
      "Ġspear": 7426,
      "enses": 7427,
      "Ġmetamorphosis": 7428,
      "Ġmeat": 7429,
      "Ġrow": 7430,
      "Ġroom": 7431,
      "Ġrose": 7432,
      "Ġprec": 7433,
      "Ġ34": 7434,
      "Ġdesire": 7435,
      "Ġthemes": 7436,
      "Ġrecovery": 7437,
      "ixon": 7438,
      "Ġ400": 7439,
      "Ġdoing": 7440,
      "Ġreprodu": 7441,
      "ĠAgency": 7442,
      "ĠAgricultural": 7443,
      "Ġcalls": 7444,
      "Ġfollowers": 7445,
      "Ġpersu": 7446,
      "Ġendors": 7447,
      "cession": 7448,
      "ussian": 7449,
      "ĠOrthodox": 7450,
      "Ġeditor": 7451,
      "annes": 7452,
      "Ġ75": 7453,
      "fully": 7454,
      "Ġshel": 7455,
      "Ġdepart": 7456,
      "Ġvalid": 7457,
      "Ġvalley": 7458,
      "Ġcommunist": 7459,
      "Ġcommunism": 7460,
      "ĠAlgerians": 7461,
      "Ġcorpor": 7462,
      "ĠShort": 7463,
      "Ġmuscle": 7464,
      "Ġplayer": 7465,
      "Ġcritics": 7466,
      "Ġapproaches": 7467,
      "ĠWhig": 7468,
      "Ġconfig": 7469,
      "Ã©t": 7470,
      "Ġprotests": 7471,
      "Ġargue": 7472,
      "Ġtruth": 7473,
      "Ġprimitive": 7474,
      "ĠAbel": 7475,
      "Ġpurch": 7476,
      "Ġmarg": 7477,
      "Ġrelatives": 7478,
      "Ġskills": 7479,
      "Ġmarking": 7480,
      "ĠPlan": 7481,
      "Ġpatron": 7482,
      "Ġmulti": 7483,
      "Ġdecline": 7484,
      "ficial": 7485,
      "dez": 7486,
      "Ġseek": 7487,
      "Ġvotes": 7488,
      "Ġantiquity": 7489,
      "Ġdeliver": 7490,
      "Ġreflected": 7491,
      "Ġrecognition": 7492,
      "Ġphotos": 7493,
      "Ġunderstand": 7494,
      "Ġtourist": 7495,
      "Ġportray": 7496,
      "Ġappellant": 7497,
      "ĠCommand": 7498,
      "ĠCommunity": 7499,
      "Ġdriven": 7500,
      "Ġastronomical": 7501,
      "Ġscreenwrit": 7502,
      "Ġeye": 7503,
      "Ġextension": 7504,
      "Ġtendency": 7505,
      "Ġmultiplic": 7506,
      "Ġcampaigns": 7507,
      "Ġcapture": 7508,
      "compet": 7509,
      "Ġlearn": 7510,
      "Ġcollapse": 7511,
      "Ġclearly": 7512,
      "ĠTransl": 7513,
      "Ġinteraction": 7514,
      "Ġsettlers": 7515,
      "Ġmagic": 7516,
      "Ġviolence": 7517,
      "ĠMcC": 7518,
      "ĠEthn": 7519,
      "Ġbenefits": 7520,
      "ĠOlympic": 7521,
      "Ġuncertain": 7522,
      "Ġnitrogen": 7523,
      "Ġresemble": 7524,
      "speaking": 7525,
      "chemical": 7526,
      "Ġnutri": 7527,
      "Ġsusp": 7528,
      "Ġnervous": 7529,
      "Political": 7530,
      "ĠAstronaut": 7531,
      "Ġlectures": 7532,
      "Ġmammals": 7533,
      "ĠMartin": 7534,
      "Ġexclusively": 7535,
      "Ġappropriate": 7536,
      "ĠPashtun": 7537,
      "Ġadherents": 7538,
      "Albania": 7539,
      "ĠNagorno": 7540,
      "ĠIndependence": 7541,
      "Ġmagazine": 7542,
      "Ġhectares": 7543,
      "Ġadvantage": 7544,
      "ĠAristotelian": 7545,
      "Algeria": 7546,
      "Ġvulnerable": 7547,
      "ĠCaquetÃŃo": 7548,
      "rÃ«s": 7549,
      "Ġaccompanied": 7550,
      "Karabakh": 7551,
      "'.": 7552,
      "100": 7553,
      "39": 7554,
      "54": 7555,
      "AP": 7556,
      "Ach": 7557,
      "MP": 7558,
      "Sh": 7559,
      "Soviet": 7560,
      "ait": 7561,
      "bel": 7562,
      "base": 7563,
      "iat": 7564,
      "iest": 7565,
      "kin": 7566,
      "lif": 7567,
      "nce": 7568,
      "tz": 7569,
      "trans": 7570,
      "uf": 7571,
      "uic": 7572,
      "xual": 7573,
      "Î±": 7574,
      "Ġ).": 7575,
      "Ġtends": 7576,
      "Ġtape": 7577,
      "Ġtropical": 7578,
      "Ġax": 7579,
      "Ġath": 7580,
      "erick": 7581,
      "reland": 7582,
      "atched": 7583,
      "Ġsays": 7584,
      "Ġsched": 7585,
      "Ġsounds": 7586,
      "aly": 7587,
      "alism": 7588,
      "Ġcave": 7589,
      "Ġcorn": 7590,
      "Ġcotton": 7591,
      "Ġanion": 7592,
      "oro": 7593,
      "Ġinert": 7594,
      "Ġinstitution": 7595,
      "ication": 7596,
      "Ġfly": 7597,
      "Ġfraction": 7598,
      "Ġpairs": 7599,
      "Ġbow": 7600,
      "ĠAikido": 7601,
      "asks": 7602,
      "Ġdie": 7603,
      "Ġdance": 7604,
      "Ġdraft": 7605,
      "olph": 7606,
      "Ġeat": 7607,
      "Ġrepe": 7608,
      "Ġreality": 7609,
      "ationally": 7610,
      "ĠSa": 7611,
      "ĠSerb": 7612,
      "ims": 7613,
      "ivistic": 7614,
      "ider": 7615,
      "using": 7616,
      "urches": 7617,
      "ĠCriminal": 7618,
      "Ġgif": 7619,
      "Ġgall": 7620,
      "Ġgram": 7621,
      "Ġgather": 7622,
      "Ġgiant": 7623,
      "iger": 7624,
      "istent": 7625,
      "istence": 7626,
      "unciation": 7627,
      "uled": 7628,
      "Ġalpha": 7629,
      "irds": 7630,
      "ĠIrish": 7631,
      "Ġstands": 7632,
      "raignment": 7633,
      "ĠMid": 7634,
      "ĠMinn": 7635,
      "ĠMeth": 7636,
      "ĠMicro": 7637,
      "Ġconsec": 7638,
      "ĠBi": 7639,
      "ĠHay": 7640,
      "odrig": 7641,
      "estab": 7642,
      "Ġprost": 7643,
      "ĠEuro": 7644,
      "ĠEuras": 7645,
      "aval": 7646,
      "ĠLt": 7647,
      "ĠLab": 7648,
      "ĠLabor": 7649,
      "Ġvice": 7650,
      "ĠFI": 7651,
      "ĠFoot": 7652,
      "ĠNon": 7653,
      "ĠGh": 7654,
      "ĠGil": 7655,
      "ĠGener": 7656,
      "ĠDie": 7657,
      "ogical": 7658,
      "ĠWild": 7659,
      "Ġranks": 7660,
      "Ġseat": 7661,
      "Ġseaw": 7662,
      "ĠOh": 7663,
      "Ġchoice": 7664,
      "Ġchosen": 7665,
      "clam": 7666,
      "aste": 7667,
      "Ġarrest": 7668,
      "Ġlex": 7669,
      "Ġcontribute": 7670,
      "ĠKe": 7671,
      "ĠKor": 7672,
      "ishop": 7673,
      "Ġkil": 7674,
      "Ġimper": 7675,
      "itional": 7676,
      "rone": 7677,
      "Ġcommemor": 7678,
      "Ġgross": 7679,
      "ĠVis": 7680,
      "Ġovert": 7681,
      "Ġ39": 7682,
      "Ġprison": 7683,
      "Ġinterview": 7684,
      "haz": 7685,
      "Ġdefense": 7686,
      "Ġelectrical": 7687,
      "Ġalkal": 7688,
      "Ġdistinction": 7689,
      "Ġinvent": 7690,
      "Another": 7691,
      "Ancient": 7692,
      "ĠProgram": 7693,
      "Ġlocations": 7694,
      "Ġanything": 7695,
      "ĠZosim": 7696,
      "Ġaddit": 7697,
      "aneous": 7698,
      "type": 7699,
      "Ġrevolutionary": 7700,
      "Ġ1971": 7701,
      "Ġamongst": 7702,
      "Ġtemples": 7703,
      "Ġmatches": 7704,
      "Ġinfluences": 7705,
      "Ġstatue": 7706,
      "Ġstatement": 7707,
      "Ġcapable": 7708,
      "Ġpractition": 7709,
      "Ġpossibility": 7710,
      "Ġreader": 7711,
      "Ġprotons": 7712,
      "Ġstudying": 7713,
      "Ġofficials": 7714,
      "Ġparam": 7715,
      "ĠRoad": 7716,
      "Ġprocessing": 7717,
      "ĠCentre": 7718,
      "oxides": 7719,
      "ĠChristopher": 7720,
      "rison": 7721,
      "Ġerrors": 7722,
      "Ġshowing": 7723,
      "Ġlink": 7724,
      "Ġshortly": 7725,
      "Ġlasted": 7726,
      "Ġexplos": 7727,
      "ĠHeracles": 7728,
      "ĠSocial": 7729,
      "Ġpatent": 7730,
      "Ġmassive": 7731,
      "Asia": 7732,
      "Ġproposal": 7733,
      "Ġsuggesting": 7734,
      "Ġbegun": 7735,
      "Ġ1959": 7736,
      "Ġidentify": 7737,
      "Ġrealized": 7738,
      "Ġzones": 7739,
      "Ġzero": 7740,
      "Ġhydroxide": 7741,
      "Ġphotographs": 7742,
      "Ġmeasured": 7743,
      "puted": 7744,
      "Ġparticipation": 7745,
      "clusion": 7746,
      "Ġdifficulty": 7747,
      "Ġdifficulties": 7748,
      "ĠPrime": 7749,
      "ĠPrinc": 7750,
      "Ġconsistent": 7751,
      "Char": 7752,
      "Ġburial": 7753,
      "Ġadaptation": 7754,
      "Ġplanet": 7755,
      "Ġpromoted": 7756,
      "Ġratified": 7757,
      "Ġachieved": 7758,
      "ĠAlexand": 7759,
      "ĠReview": 7760,
      "Ġdefinitions": 7761,
      "Ġcopper": 7762,
      "Ġlooking": 7763,
      "ĠGovernor": 7764,
      "Ġboundary": 7765,
      "celand": 7766,
      "Ġdiseases": 7767,
      "Ġneutron": 7768,
      "Ġslowly": 7769,
      "ĠSimilar": 7770,
      "Ġminerals": 7771,
      "Ġwinner": 7772,
      "Ġspectrum": 7773,
      "Ġprefix": 7774,
      "Ġacquired": 7775,
      "Ġstrategy": 7776,
      "Ġisolated": 7777,
      "Ġclocks": 7778,
      "Ġoracle": 7779,
      "Ġrevealed": 7780,
      "Ġdelegates": 7781,
      "Johnston": 7782,
      "Ġatmosphere": 7783,
      "Ġpermanent": 7784,
      "Ġencoding": 7785,
      "Ġadoption": 7786,
      "Ġhouses": 7787,
      "Ġrhyth": 7788,
      "Ġtongue": 7789,
      "Ġlosing": 7790,
      "Ġsurfaces": 7791,
      "ĠHouston": 7792,
      "ĠHuntsville": 7793,
      "ĠEncyclopedia": 7794,
      "Ġrestrictions": 7795,
      "Ġdismiss": 7796,
      "rhenius": 7797,
      "Ġdioxide": 7798,
      "ĠTirana": 7799,
      "-,": 7800,
      "33": 7801,
      "44": 7802,
      "49": 7803,
      "?\"": 7804,
      "Ass": 7805,
      "Arab": 7806,
      "Bitumen": 7807,
      "Fore": 7808,
      "Human": 7809,
      "MO": 7810,
      "Ma": 7811,
      "Rep": 7812,
      "Rodrig": 7813,
      "aism": 7814,
      "da": 7815,
      "do": 7816,
      "din": 7817,
      "free": 7818,
      "ih": 7819,
      "kins": 7820,
      "language": 7821,
      "mic": 7822,
      "male": 7823,
      "name": 7824,
      "rade": 7825,
      "sk": 7826,
      "tr": 7827,
      "upt": 7828,
      "yas": 7829,
      "Ã£": 7830,
      "Ä«": 7831,
      "Ġ),": 7832,
      "Ġton": 7833,
      "Ġtun": 7834,
      "Ġtone": 7835,
      "inder": 7836,
      "Ġtherap": 7837,
      "Ġsend": 7838,
      "Ġsight": 7839,
      "Ġsides": 7840,
      "eda": 7841,
      "Ġcra": 7842,
      "order": 7843,
      "Ġfur": 7844,
      "Ġfreed": 7845,
      "Ġpupp": 7846,
      "Ġpump": 7847,
      "Ġpseud": 7848,
      "Ġpione": 7849,
      "Ġbul": 7850,
      "Ġband": 7851,
      "rox": 7852,
      "Ġmud": 7853,
      "Ġmess": 7854,
      "Ġmilk": 7855,
      "Ġmentions": 7856,
      "asure": 7857,
      "Ġdating": 7858,
      "Ġdrop": 7859,
      "Ġdrin": 7860,
      "Ġdrug": 7861,
      "Ġdrawn": 7862,
      "leton": 7863,
      "Ġhit": 7864,
      "Ġhop": 7865,
      "Ġhors": 7866,
      "Ġelim": 7867,
      "stances": 7868,
      "Ġreign": 7869,
      "ctu": 7870,
      "Ġlit": 7871,
      "ĠTimes": 7872,
      "elch": 7873,
      "ĠSar": 7874,
      "ĠSel": 7875,
      "iments": 7876,
      "idon": 7877,
      "amem": 7878,
      "ading": 7879,
      "adium": 7880,
      "adelph": 7881,
      "Ġasc": 7882,
      "ĠIreland": 7883,
      "ĠThen": 7884,
      "ĠMr": 7885,
      "ĠMur": 7886,
      "umed": 7887,
      "ĠPass": 7888,
      "ĠPose": 7889,
      "ĠBill": 7890,
      "ĠBates": 7891,
      "ĠBetan": 7892,
      "tered": 7893,
      "ĠHind": 7894,
      "ĠEll": 7895,
      "ayer": 7896,
      "Ġvoc": 7897,
      "ĠRh": 7898,
      "ĠRock": 7899,
      "ĠFour": 7900,
      "acent": 7901,
      "Ġ1918": 7902,
      "rium": 7903,
      "ĠWall": 7904,
      "ĠWomen": 7905,
      "Ġrational": 7906,
      "illa": 7907,
      "Ġunion": 7908,
      "second": 7909,
      "ardo": 7910,
      "Ġchance": 7911,
      "duction": 7912,
      "ĠJon": 7913,
      "ĠJos": 7914,
      "Ġarraignment": 7915,
      "Ġnote": 7916,
      "Ġnotion": 7917,
      "Ġworth": 7918,
      "active": 7919,
      "occo": 7920,
      "ibl": 7921,
      "Ġplains": 7922,
      "Ġkill": 7923,
      "Ġwheat": 7924,
      "orean": 7925,
      "apter": 7926,
      "construction": 7927,
      "Ġresid": 7928,
      "Ġenviron": 7929,
      "Ġclust": 7930,
      "Ġteach": 7931,
      "ĠAfghans": 7932,
      "Ġaggreg": 7933,
      "ordination": 7934,
      "Ġapply": 7935,
      "190": 7936,
      "Ġjournals": 7937,
      "ĠAsh": 7938,
      "ĠVeg": 7939,
      "iversary": 7940,
      "Ġindicated": 7941,
      "ophone": 7942,
      "Ġproved": 7943,
      "Ġsystematic": 7944,
      "Ġapart": 7945,
      "Ġremote": 7946,
      "Ġtransc": 7947,
      "Ġweather": 7948,
      "Ġdistribut": 7949,
      "Ġsurvey": 7950,
      "Ġcoordin": 7951,
      "ĠAgamem": 7952,
      "Ġscatter": 7953,
      "Ġbox": 7954,
      "conomy": 7955,
      "Ġcultivation": 7956,
      "Ġmainland": 7957,
      "embran": 7958,
      "ĠZe": 7959,
      "Ġedited": 7960,
      "ometimes": 7961,
      "iodiversity": 7962,
      "Ġentry": 7963,
      "ĠPhysics": 7964,
      "ĠCommon": 7965,
      "ĠAdvent": 7966,
      "ĠAdmetus": 7967,
      "Ġsheep": 7968,
      "Ġ1985": 7969,
      "Ġ1987": 7970,
      "Ġbackup": 7971,
      "Ġvalleys": 7972,
      "ĠColon": 7973,
      "Ġmuseum": 7974,
      "Ġbrown": 7975,
      "ĠLeon": 7976,
      "Ġblue": 7977,
      "Ġofficers": 7978,
      "Ġtril": 7979,
      "Ġnorthwest": 7980,
      "Ġinsol": 7981,
      "Ġoperated": 7982,
      "ĠBering": 7983,
      "Ġbranched": 7984,
      "Ġairports": 7985,
      "Ġchildhood": 7986,
      "Ġfewer": 7987,
      "Ġ1863": 7988,
      "Ġmarkets": 7989,
      "Ġincident": 7990,
      "Ġexplan": 7991,
      "Ġsuccessor": 7992,
      "Ġpopularity": 7993,
      "Ġinvolve": 7994,
      "2002": 7995,
      "2005": 7996,
      "2007": 7997,
      "Ġreduction": 7998,
      "Ġlineage": 7999,
      "Ġ1955": 8000,
      "ĠExp": 8001,
      "Ġvoted": 8002,
      "Ġiniti": 8003,
      "Ġopening": 8004,
      "Ġrecognize": 8005,
      "Ġparticipate": 8006,
      "Ġjudicial": 8007,
      "Ġsubjects": 8008,
      "Ġblock": 8009,
      "Ġaffairs": 8010,
      "ĠMinor": 8011,
      "Ġabsence": 8012,
      "Ġabsolute": 8013,
      "ĠPrince": 8014,
      "Ġlegislation": 8015,
      "Ġfunctional": 8016,
      "ĠMountain": 8017,
      "ĠCooper": 8018,
      "Ġ1830": 8019,
      "Ġrobots": 8020,
      "Ġpainting": 8021,
      "Ġpsychological": 8022,
      "Ġcorrespondence": 8023,
      "named": 8024,
      "Ġcollabor": 8025,
      "ĠPhiladelph": 8026,
      "Ġdecreasing": 8027,
      "Ġdiscussed": 8028,
      "Ġvariations": 8029,
      "ĠArchive": 8030,
      "Ġhappiness": 8031,
      "Ġcontexts": 8032,
      "Ġprairie": 8033,
      "ĠBuddhist": 8034,
      "Ġqualities": 8035,
      "Ġsynthetic": 8036,
      "Ġconsequence": 8037,
      "Ġattracted": 8038,
      "ĠMalays": 8039,
      "Ġkingdom": 8040,
      "Ġdisplayed": 8041,
      "Ġinhabited": 8042,
      "ĠDurrÃ«s": 8043,
      "Ġaimed": 8044,
      "Ġinjuries": 8045,
      "Ġexposure": 8046,
      "Ġdetailed": 8047,
      "Ġadults": 8048,
      "Ġvisitors": 8049,
      "Ġecological": 8050,
      "Ġrevenues": 8051,
      "ĠAnthropology": 8052,
      "ĠKarl": 8053,
      "Ġhydrocarbon": 8054,
      "Ġreforms": 8055,
      "Ġcredit": 8056,
      "Ġisolation": 8057,
      "Ġsequence": 8058,
      "Ġhoriz": 8059,
      "ĠArmenian": 8060,
      "Ġelsewhere": 8061,
      "Ġcustom": 8062,
      "Ġvehicle": 8063,
      "ĠSidwell": 8064,
      "Ġtournament": 8065,
      "Ġjobs": 8066,
      "ĠAhmad": 8067,
      "Ġcelest": 8068,
      "ĠCurrent": 8069,
      "ĠGolden": 8070,
      "Ġsurpass": 8071,
      "ĠDivision": 8072,
      "ĠRocky": 8073,
      "Animals": 8074,
      "inosaur": 8075,
      "Ġrefugees": 8076,
      "ĠByzantine": 8077,
      "Ġrebellion": 8078,
      "Ġfestivals": 8079,
      "Ġpictures": 8080,
      "ĠSnowball": 8081,
      "Ġsupreme": 8082,
      "Ġconfiguration": 8083,
      "ĠLtd": 8084,
      "clamation": 8085,
      "Rodriguez": 8086,
      "ĠBetancur": 8087,
      "Ġenvironments": 8088,
      "ĠAgamemnon": 8089,
      "Brit": 8090,
      "Education": 8091,
      "Histor": 8092,
      "ID": 8093,
      "Jap": 8094,
      "Med": 8095,
      "Military": 8096,
      "Na": 8097,
      "PR": 8098,
      "Pl": 8099,
      "Tele": 8100,
      "cal": 8101,
      "come": 8102,
      "final": 8103,
      "finned": 8104,
      "had": 8105,
      "jamin": 8106,
      "krit": 8107,
      "lik": 8108,
      "lived": 8109,
      "lantic": 8110,
      "mid": 8111,
      "uis": 8112,
      "Î½": 8113,
      "Ġtalk": 8114,
      "reen": 8115,
      "ati": 8116,
      "eded": 8117,
      "esota": 8118,
      "itors": 8119,
      "itled": 8120,
      "oria": 8121,
      "arctic": 8122,
      "Ġfile": 8123,
      "Ġfought": 8124,
      "Ġfounder": 8125,
      "Ġpp": 8126,
      "Ġpicture": 8127,
      "Ġmac": 8128,
      "Ġmiss": 8129,
      "Ġmembran": 8130,
      "Ġtoxic": 8131,
      "Ġdu": 8132,
      "Ġdiet": 8133,
      "Ġhab": 8134,
      "Ġhaz": 8135,
      "ilty": 8136,
      "Ġreaching": 8137,
      "ctive": 8138,
      "Ġlakes": 8139,
      "Ġthor": 8140,
      "ĠSit": 8141,
      "ĠSir": 8142,
      "etics": 8143,
      "ami": 8144,
      "ĠCs": 8145,
      "ĠCro": 8146,
      "ĠCyr": 8147,
      "igration": 8148,
      "Ġstations": 8149,
      "Ġstrict": 8150,
      "ĠTheatre": 8151,
      "ĠMa": 8152,
      "ĠMel": 8153,
      "oske": 8154,
      "opus": 8155,
      "ĠBure": 8156,
      "ĠBalt": 8157,
      "vertebr": 8158,
      "ĠHank": 8159,
      "Ġprox": 8160,
      "ifact": 8161,
      "aven": 8162,
      "ager": 8163,
      "ĠLo": 8164,
      "ĠLib": 8165,
      "Ġvess": 8166,
      "Ġvital": 8167,
      "oung": 8168,
      "ĠNep": 8169,
      "Ġathe": 8170,
      "Ġcoming": 8171,
      "ainable": 8172,
      "Ġheard": 8173,
      "ĠDr": 8174,
      "Ġ1914": 8175,
      "ogy": 8176,
      "ĠAlm": 8177,
      "Ġrig": 8178,
      "illic": 8179,
      "ĠUk": 8180,
      "ĠUt": 8181,
      "Ġunless": 8182,
      "ardv": 8183,
      "ongo": 8184,
      "endar": 8185,
      "ouring": 8186,
      "Ġcham": 8187,
      "Ġchampions": 8188,
      "ultaneously": 8189,
      "ĠJack": 8190,
      "ĠJournal": 8191,
      "Ġleague": 8192,
      "angel": 8193,
      "ĠKos": 8194,
      "ĠKansas": 8195,
      "overs": 8196,
      "ocol": 8197,
      "ocene": 8198,
      "Ġcomprising": 8199,
      "Ġintr": 8200,
      "ĠArrhenius": 8201,
      "Ġyields": 8202,
      "Ġpartially": 8203,
      "Ġresolution": 8204,
      "Ġmane": 8205,
      "Ġformat": 8206,
      "Ġagents": 8207,
      "Ġrotation": 8208,
      "Ġconsult": 8209,
      "Ġevil": 8210,
      "ĠVarious": 8211,
      "Ġattended": 8212,
      "Ġattitude": 8213,
      "Ġrecording": 8214,
      "Ġacted": 8215,
      "athy": 8216,
      "ĠConference": 8217,
      "Ġestimate": 8218,
      "Ġgovernments": 8219,
      "2011": 8220,
      "Ġalkyl": 8221,
      "ictional": 8222,
      "Ġcolle": 8223,
      "Ġ43": 8224,
      "Ġ44": 8225,
      "Ġextending": 8226,
      "Ġextraction": 8227,
      "lling": 8228,
      "Ġterminal": 8229,
      "ĠIndones": 8230,
      "Ġscore": 8231,
      "Ġboiling": 8232,
      "ĠAngolans": 8233,
      "Ġimpress": 8234,
      "Ġimpair": 8235,
      "Ġdecay": 8236,
      "Ġdecade": 8237,
      "Ġdecimal": 8238,
      "Ġends": 8239,
      "ographical": 8240,
      "Ġlegend": 8241,
      "Alkanes": 8242,
      "Ġ...": 8243,
      "Ġdepth": 8244,
      "Ġmeanings": 8245,
      "Ġsimilarly": 8246,
      "Ġcurrency": 8247,
      "Ġreactive": 8248,
      "Ġreactivity": 8249,
      "Ġ99": 8250,
      "Ġready": 8251,
      "Ġreadily": 8252,
      "Ġvisiting": 8253,
      "Ġpotentially": 8254,
      "cipation": 8255,
      "Ġoperation": 8256,
      "Ġoperate": 8257,
      "oxylic": 8258,
      "rises": 8259,
      "Ġgoes": 8260,
      "Ġlinked": 8261,
      "Ġpredict": 8262,
      "Ġ1939": 8263,
      "Ġ1943": 8264,
      "Ġ1946": 8265,
      "2009": 8266,
      "Ġhistoric": 8267,
      "Ġtopics": 8268,
      "Ġvolunt": 8269,
      "ĠConfederacy": 8270,
      "Ġruler": 8271,
      "Ġcombat": 8272,
      "Ġ1957": 8273,
      "Ġexceptions": 8274,
      "Ġepic": 8275,
      "Ġfalling": 8276,
      "Ġreflects": 8277,
      "who": 8278,
      "upport": 8279,
      "Ġcontributing": 8280,
      "Ġinfant": 8281,
      "Ġexpectancy": 8282,
      "Ġscreenplay": 8283,
      "Ġfeeding": 8284,
      "Ġdegrad": 8285,
      "Ġindicates": 8286,
      "ĠPerseus": 8287,
      "Ġvariant": 8288,
      "Ġfacilit": 8289,
      "Ġratio": 8290,
      "Climate": 8291,
      "Ġconsiderable": 8292,
      "Ġsquares": 8293,
      "contin": 8294,
      "Ġdeeply": 8295,
      "Ġmeetings": 8296,
      "Ġsuccessfully": 8297,
      "Ġcheck": 8298,
      "Ġfrequent": 8299,
      "Ġhomes": 8300,
      "Ġeasy": 8301,
      "Ġprompt": 8302,
      "Ġsteel": 8303,
      "Ġ1859": 8304,
      "Ġrocket": 8305,
      "Ġcalculated": 8306,
      "Ġnomination": 8307,
      "ĠGreenland": 8308,
      "suit": 8309,
      "ĠBelg": 8310,
      "Ġaims": 8311,
      "Ġinjury": 8312,
      "Ġcontinuing": 8313,
      "Ġcontinuous": 8314,
      "Ġmanufacturing": 8315,
      "Ġtrends": 8316,
      "Ġseemed": 8317,
      "Ġtrip": 8318,
      "Ġvegetables": 8319,
      "Ġranges": 8320,
      "ĠAnarchists": 8321,
      "Ġprefixes": 8322,
      "Ġrevenue": 8323,
      "ĠAnthropological": 8324,
      "ĠBoris": 8325,
      "Ġabolition": 8326,
      "Ġtetrap": 8327,
      "Ġcontroversial": 8328,
      "rocity": 8329,
      "Ġvehicles": 8330,
      "ĠSamuel": 8331,
      "ĠRadio": 8332,
      "Ġshifted": 8333,
      "Ġinstruments": 8334,
      "Ġbeautiful": 8335,
      "ĠFrederick": 8336,
      "Ġencountered": 8337,
      "Ġbehaviour": 8338,
      "Ġstruggle": 8339,
      "Ġgeometry": 8340,
      "Ġfilmmaker": 8341,
      "Ġconjugate": 8342,
      "Ġcircumstances": 8343,
      "anderbeg": 8344,
      "ĠMinnesota": 8345,
      "ĠPhiladelphia": 8346,
      "ĠCyrillic": 8347,
      "ĠBureau": 8348,
      "\";": 8349,
      "63": 8350,
      "66": 8351,
      "73": 8352,
      "Can": 8353,
      "Following": 8354,
      "Huxley": 8355,
      "Leg": 8356,
      "Ro": 8357,
      "Several": 8358,
      "aire": 8359,
      "bn": 8360,
      "bur": 8361,
      "break": 8362,
      "ding": 8363,
      "even": 8364,
      "film": 8365,
      "hand": 8366,
      "lu": 8367,
      "no": 8368,
      "ois": 8369,
      "pres": 8370,
      "point": 8371,
      "since": 8372,
      "tar": 8373,
      "uated": 8374,
      "weg": 8375,
      "yst": 8376,
      "Äĩ": 8377,
      "ĠÂ": 8378,
      "Ġties": 8379,
      "heus": 8380,
      "ink": 8381,
      "inced": 8382,
      "onaut": 8383,
      "reement": 8384,
      "atis": 8385,
      "anj": 8386,
      "Ġsamples": 8387,
      "enin": 8388,
      "enic": 8389,
      "enger": 8390,
      "encing": 8391,
      "esis": 8392,
      "alf": 8393,
      "alg": 8394,
      "Ġcations": 8395,
      "Ġcatal": 8396,
      "Ġanions": 8397,
      "itals": 8398,
      "Ġwavel": 8399,
      "orb": 8400,
      "ori": 8401,
      "oride": 8402,
      "Ġinn": 8403,
      "Ġinher": 8404,
      "icus": 8405,
      "icular": 8406,
      "icode": 8407,
      "Ġpip": 8408,
      "Ġpages": 8409,
      "Ġbre": 8410,
      "Ġbag": 8411,
      "Ġbony": 8412,
      "Ġbomb": 8413,
      "ĠAv": 8414,
      "asan": 8415,
      "ilib": 8416,
      "Ġech": 8417,
      "Ġeasi": 8418,
      "Ġego": 8419,
      "standing": 8420,
      "Ġrear": 8421,
      "Ġrely": 8422,
      "ctuary": 8423,
      "Ġlob": 8424,
      "Ġlibrary": 8425,
      "ĠTogether": 8426,
      "eland": 8427,
      "Ġnoun": 8428,
      "Ġnymph": 8429,
      "ĠSon": 8430,
      "ĠSac": 8431,
      "ĠSans": 8432,
      "ĠSite": 8433,
      "ĠSolar": 8434,
      "ĠSeward": 8435,
      "imony": 8436,
      "etch": 8437,
      "chlor": 8438,
      "aman": 8439,
      "aments": 8440,
      "ĠCape": 8441,
      "adian": 8442,
      "adder": 8443,
      "Ġ120": 8444,
      "uten": 8445,
      "Ġgran": 8446,
      "igious": 8447,
      "Ġfort": 8448,
      "istically": 8449,
      "ulg": 8450,
      "ĠIB": 8451,
      "ĠId": 8452,
      "ĠIber": 8453,
      "ĠIde": 8454,
      "ĠIceland": 8455,
      "Ġstem": 8456,
      "Ġstand": 8457,
      "Ġstored": 8458,
      "rage": 8459,
      "ĠMuch": 8460,
      "ĠMasters": 8461,
      "emet": 8462,
      "Ġconcrete": 8463,
      "ĠPower": 8464,
      "ĠPale": 8465,
      "ĠPoint": 8466,
      "ĠBol": 8467,
      "ĠBox": 8468,
      "ĠEs": 8469,
      "ĠEst": 8470,
      "ĠEqu": 8471,
      "ĠLow": 8472,
      "Ġvig": 8473,
      "Ġvocal": 8474,
      "ĠFount": 8475,
      "ĠNatural": 8476,
      "ĠGra": 8477,
      "cia": 8478,
      "Ġhence": 8479,
      "ĠDj": 8480,
      "ĠDam": 8481,
      "ĠWell": 8482,
      "ĠWars": 8483,
      "Ġrug": 8484,
      "Ġrhet": 8485,
      "Ġsecular": 8486,
      "ĠOs": 8487,
      "section": 8488,
      "ourse": 8489,
      "ourney": 8490,
      "ewise": 8491,
      "ĠJo": 8492,
      "ĠJr": 8493,
      "Ġarrow": 8494,
      "Ġnotice": 8495,
      "Ġcompre": 8496,
      "ĠAruban": 8497,
      "Ġshoot": 8498,
      "Ġshares": 8499,
      "Ġspending": 8500,
      "outheastern": 8501,
      "Ġdisappe": 8502,
      "Ġcancer": 8503,
      "Ġamni": 8504,
      "Ġagency": 8505,
      "Ġgrown": 8506,
      "ensis": 8507,
      "Ġmetaph": 8508,
      "Ġ1850": 8509,
      "Ġroles": 8510,
      "Ġroutes": 8511,
      "1914": 8512,
      "ĠVII": 8513,
      "ribed": 8514,
      "Ġdesired": 8515,
      "Ġears": 8516,
      "urnal": 8517,
      "Ġprove": 8518,
      "ĠAnglo": 8519,
      "2015": 8520,
      "Ġwebs": 8521,
      "Ġcolony": 8522,
      "Ġassembly": 8523,
      "Ġ49": 8524,
      "position": 8525,
      "Ġtrace": 8526,
      "Ġtraced": 8527,
      "Ġtrained": 8528,
      "Ġtraged": 8529,
      "Ġdistillation": 8530,
      "Ġextends": 8531,
      "Ġreproduction": 8532,
      "Ġoffers": 8533,
      "Ġnews": 8534,
      "Ġhighlight": 8535,
      "Ġwaterproof": 8536,
      "Ġparticle": 8537,
      "Ġlateral": 8538,
      "Ġimpression": 8539,
      "ĠDev": 8540,
      "Ġaddressed": 8541,
      "Ġ64": 8542,
      "ademic": 8543,
      "ĠNews": 8544,
      "Ġenth": 8545,
      "Ġentertain": 8546,
      "Ġretain": 8547,
      "Ġsmallest": 8548,
      "Ġdescend": 8549,
      "ennial": 8550,
      "Ġmovies": 8551,
      "Ġ1983": 8552,
      "Ġterror": 8553,
      "Ġmonitor": 8554,
      "itumin": 8555,
      "Ġsupporting": 8556,
      "Ġdeterior": 8557,
      "Ġradar": 8558,
      "Ġradius": 8559,
      "Ġapproval": 8560,
      "Ġconfirmed": 8561,
      "Ġprobability": 8562,
      "Ġprinted": 8563,
      "Ġnorthwestern": 8564,
      "Ġinsurg": 8565,
      "Ġparad": 8566,
      "cipality": 8567,
      "Ġoperates": 8568,
      "ĠCentury": 8569,
      "Ġcrewed": 8570,
      "ĠTherefore": 8571,
      "Ġfinished": 8572,
      "Ġrestric": 8573,
      "Ġreceiving": 8574,
      "Ġ1865": 8575,
      "Ġrelativistic": 8576,
      "Ġtelecommunications": 8577,
      "Ġjustice": 8578,
      "Ġexplicit": 8579,
      "alkanes": 8580,
      "Ġeducational": 8581,
      "2004": 8582,
      "2008": 8583,
      "loyd": 8584,
      "Ġmassac": 8585,
      "sequently": 8586,
      "apped": 8587,
      "Ġswitch": 8588,
      "Ġwider": 8589,
      "Ġtopic": 8590,
      "ĠPolk": 8591,
      "ĠPolish": 8592,
      "ĠPolice": 8593,
      "Ġ1958": 8594,
      "Ġtreaty": 8595,
      "Ġrelevant": 8596,
      "Ġseeing": 8597,
      "Ġconnections": 8598,
      "Ġidentity": 8599,
      "Ġidentical": 8600,
      "Ġdelay": 8601,
      "Ġsatire": 8602,
      "Ġformerly": 8603,
      "ĠMedicine": 8604,
      "Ġprotected": 8605,
      "Ġyounger": 8606,
      "ĠAleut": 8607,
      "Äģh": 8608,
      "Ġpriest": 8609,
      "Ġcapitalism": 8610,
      "ĠSwed": 8611,
      "Ġrenowned": 8612,
      "ĠBoard": 8613,
      "Ġ1901": 8614,
      "Ġquantity": 8615,
      "Ġmaintains": 8616,
      "ĠCommission": 8617,
      "Ġdrama": 8618,
      "Ġdenomin": 8619,
      "Christ": 8620,
      "Ġsensory": 8621,
      "Ġfeedback": 8622,
      "Ġcyan": 8623,
      "Ġcycle": 8624,
      "Ġburrows": 8625,
      "Ġfootage": 8626,
      "Ġfacility": 8627,
      "Ġfacilities": 8628,
      "Ġcomparative": 8629,
      "Ġpercentage": 8630,
      "ĠDesign": 8631,
      "Ġthinking": 8632,
      "Ġmechanical": 8633,
      "Ġapplies": 8634,
      "States": 8635,
      "ĠBrown": 8636,
      "Health": 8637,
      "ĠBrave": 8638,
      "Ġdecrease": 8639,
      "Ġdecreases": 8640,
      "Ġcopies": 8641,
      "Ġfacial": 8642,
      "Ġembry": 8643,
      "Ġimmigrants": 8644,
      "Ġautomation": 8645,
      "Ġstrengthe": 8646,
      "Ġspeeches": 8647,
      "Ġviolent": 8648,
      "success": 8649,
      "ĠSanta": 8650,
      "ĠCathol": 8651,
      "Ġdrawings": 8652,
      "Ġpunishment": 8653,
      "Ġpreservation": 8654,
      "Ġconvinced": 8655,
      "Ġconservative": 8656,
      "Ġwarming": 8657,
      "Ġweek": 8658,
      "gressive": 8659,
      "Ġensure": 8660,
      "ĠAuthor": 8661,
      "Ġharmony": 8662,
      "Ġcosmonaut": 8663,
      "Ġemotion": 8664,
      "Ġnarrow": 8665,
      "ĠPython": 8666,
      "ĠHomeric": 8667,
      "Ġadjust": 8668,
      "Ġadjacent": 8669,
      "ĠBenjamin": 8670,
      "Ġadventure": 8671,
      "Ġdramatically": 8672,
      "ĠSummer": 8673,
      "Ġresponded": 8674,
      "Ġmobile": 8675,
      "ĠTimur": 8676,
      "Ġduties": 8677,
      "ĠHyperb": 8678,
      "ĠSkanderbeg": 8679,
      "novation": 8680,
      "Ġcryst": 8681,
      "Ġmaximum": 8682,
      "ĠNorweg": 8683,
      "Ġfertilizers": 8684,
      "ĠChampionships": 8685,
      "Ġchallenged": 8686,
      "Ġteachers": 8687,
      "omorpha": 8688,
      "opolis": 8689,
      "lyphs": 8690,
      "ĠScotland": 8691,
      "IVB": 8692,
      "Ġtheorists": 8693,
      "Ġalleged": 8694,
      "ĠDistrict": 8695,
      "Ġunusual": 8696,
      "ĠPennsylvania": 8697,
      "ĠSahara": 8698,
      "Ġphotosynthe": 8699,
      "Ġconsecutive": 8700,
      "ĠFootball": 8701,
      "ĠPoseidon": 8702,
      "iblical": 8703,
      "ĠVegas": 8704,
      "Ġhorizon": 8705,
      "ĠKosovo": 8706,
      "Ġeasier": 8707,
      "ĠFountain": 8708,
      "ĠNorwegian": 8709,
      "32": 8710,
      "AS": 8711,
      "Due": 8712,
      "Ed": 8713,
      "Fran": 8714,
      "God": 8715,
      "PS": 8716,
      "Pop": 8717,
      "Semitic": 8718,
      "aci": 8719,
      "bar": 8720,
      "bow": 8721,
      "gments": 8722,
      "iations": 8723,
      "iatic": 8724,
      "iÄĩ": 8725,
      "mud": 8726,
      "modern": 8727,
      "night": 8728,
      "oi": 8729,
      "pa": 8730,
      "pm": 8731,
      "rub": 8732,
      "rator": 8733,
      "sl": 8734,
      "ses": 8735,
      "ti": 8736,
      "uct": 8737,
      "vated": 8738,
      "zo": 8739,
      "Ġtub": 8740,
      "hered": 8741,
      "inrich": 8742,
      "Ġtheat": 8743,
      "erk": 8744,
      "rection": 8745,
      "Ġol": 8746,
      "Ġov": 8747,
      "atim": 8748,
      "Ġsake": 8749,
      "Ġsale": 8750,
      "isode": 8751,
      "alc": 8752,
      "alem": 8753,
      "although": 8754,
      "alysis": 8755,
      "Ġcul": 8756,
      "Ġcous": 8757,
      "Ġcere": 8758,
      "Ġcraft": 8759,
      "itans": 8760,
      "Ġwatch": 8761,
      "oring": 8762,
      "Ġinfl": 8763,
      "Ġinherent": 8764,
      "icide": 8765,
      "icks": 8766,
      "icellular": 8767,
      "Ġfer": 8768,
      "Ġfra": 8769,
      "Ġpark": 8770,
      "Ġpaving": 8771,
      "Ġpeninsula": 8772,
      "Ġbone": 8773,
      "Ġbrick": 8774,
      "Ġbronze": 8775,
      "ionys": 8776,
      "rod": 8777,
      "ĠAqu": 8778,
      "ĠAik": 8779,
      "Ġmil": 8780,
      "asso": 8781,
      "Ġtoler": 8782,
      "Ġdies": 8783,
      "Ġhub": 8784,
      "entine": 8785,
      "entane": 8786,
      "olutions": 8787,
      "Ġeagle": 8788,
      "Ġetymology": 8789,
      "ctors": 8790,
      "Ġlover": 8791,
      "ĠSav": 8792,
      "ĠSix": 8793,
      "ĠSiber": 8794,
      "ivered": 8795,
      "uses": 8796,
      "eton": 8797,
      "chant": 8798,
      "chang": 8799,
      "ĠChe": 8800,
      "ĠCold": 8801,
      "ĠCorn": 8802,
      "Ġascent": 8803,
      "Ġgrab": 8804,
      "Ġbeat": 8805,
      "Ġbead": 8806,
      "unk": 8807,
      "ulch": 8808,
      "ĠIron": 8809,
      "Ġstories": 8810,
      "Ġstones": 8811,
      "ĠMult": 8812,
      "Ġcongress": 8813,
      "oses": 8814,
      "ĠPear": 8815,
      "ĠBac": 8816,
      "ĠBang": 8817,
      "ĠHor": 8818,
      "ĠHom": 8819,
      "estyle": 8820,
      "iferous": 8821,
      "Ġorth": 8822,
      "ĠEdu": 8823,
      "romise": 8824,
      "agan": 8825,
      "aba": 8826,
      "abyl": 8827,
      "Ġdeities": 8828,
      "ĠLast": 8829,
      "ĠLank": 8830,
      "ĠLiving": 8831,
      "ĠRun": 8832,
      "ĠRavel": 8833,
      "ĠReligion": 8834,
      "Ġexceed": 8835,
      "ĠFree": 8836,
      "ĠFront": 8837,
      "ĠNixon": 8838,
      "acrit": 8839,
      "Ġ\",": 8840,
      "Ġhear": 8841,
      "Ġ1915": 8842,
      "Ġ1911": 8843,
      "anta": 8844,
      "ĠWind": 8845,
      "ĠOv": 8846,
      "urea": 8847,
      "Ġunlike": 8848,
      "phone": 8849,
      "Ġchains": 8850,
      "aryn": 8851,
      "Ġarrows": 8852,
      "Ġnotation": 8853,
      "Ġworsh": 8854,
      "Ġworship": 8855,
      "ĠKush": 8856,
      "earing": 8857,
      "polar": 8858,
      "ĠArk": 8859,
      "ruz": 8860,
      "Ġyellow": 8861,
      "Ġpartner": 8862,
      "Ġresource": 8863,
      "Ġenem": 8864,
      "Ġenable": 8865,
      "ologically": 8866,
      "oste": 8867,
      "ostal": 8868,
      "place": 8869,
      "Ġagnost": 8870,
      "ĠThail": 8871,
      "Ġcommod": 8872,
      "Ġcommission": 8873,
      "ĠHec": 8874,
      "ĠHeinem": 8875,
      "Ġrot": 8876,
      "techn": 8877,
      "oking": 8878,
      "Ġsymp": 8879,
      "oughs": 8880,
      "Ġknew": 8881,
      "Ġactin": 8882,
      "Ġactors": 8883,
      "Ġacceler": 8884,
      "Ġdefence": 8885,
      "Ġremark": 8886,
      "Ġgovernors": 8887,
      "2017": 8888,
      "2014": 8889,
      "2022": 8890,
      "Ġ42": 8891,
      "Ġtraff": 8892,
      "Ġtrack": 8893,
      "Ġdistant": 8894,
      "Ġinvited": 8895,
      "Ġreputation": 8896,
      "Ġsurren": 8897,
      "Ġgenerate": 8898,
      "Ġwrites": 8899,
      "Ġtermed": 8900,
      "Ġ58": 8901,
      "amaic": 8902,
      "Ġboards": 8903,
      "Ġsimultaneously": 8904,
      "Ġlanded": 8905,
      "Ġsmooth": 8906,
      "Ġimply": 8907,
      "Ġmedian": 8908,
      "Ġadding": 8909,
      "Ġeconomics": 8910,
      "Ġ170": 8911,
      "Ġserving": 8912,
      "annel": 8913,
      "hemical": 8914,
      "Ġentitled": 8915,
      "Ġsevere": 8916,
      "Ġequilib": 8917,
      "heses": 8918,
      "ĠAdam": 8919,
      "Ġdeploy": 8920,
      "ĠReport": 8921,
      "Ġbuff": 8922,
      "Ġpresentation": 8923,
      "Ġsupports": 8924,
      "Ġreferences": 8925,
      "Ġpublicly": 8926,
      "Ġrepresentatives": 8927,
      "Ġbelieves": 8928,
      "Ġparks": 8929,
      "Ġlimit": 8930,
      "Ġopera": 8931,
      "Ġanniversary": 8932,
      "Ġderiv": 8933,
      "Ġderive": 8934,
      "ĠCarth": 8935,
      "Ġstructural": 8936,
      "Ġproductivity": 8937,
      "ĠMuses": 8938,
      "Ġobjective": 8939,
      "Ġmarks": 8940,
      "Ġhelps": 8941,
      "Ġdemands": 8942,
      "Ġinstruct": 8943,
      "Ġrespir": 8944,
      "Ġprogramming": 8945,
      "ĠHera": 8946,
      "Ġpassage": 8947,
      "Ġ1945": 8948,
      "Ġ1947": 8949,
      "Ġheaded": 8950,
      "ictionary": 8951,
      "ourses": 8952,
      "ĠBeaut": 8953,
      "ĠBecker": 8954,
      "Ġ1926": 8955,
      "Ġgeography": 8956,
      "Ġhistorian": 8957,
      "Ġ1953": 8958,
      "Ġessays": 8959,
      "Ġessentially": 8960,
      "Ġtreatments": 8961,
      "Ġsynd": 8962,
      "Ġelig": 8963,
      "Ġcoastline": 8964,
      "Ġcolonization": 8965,
      "Ġepistem": 8966,
      "Ġzo": 8967,
      "Ġhydrox": 8968,
      "Ġfunding": 8969,
      "Ġguilty": 8970,
      "Ġjudges": 8971,
      "Ġsymbolic": 8972,
      "Ġrenew": 8973,
      "ĠNATO": 8974,
      "adesh": 8975,
      "Ġconsisted": 8976,
      "Ġprofessor": 8977,
      "Ġdiacrit": 8978,
      "Ġdisplaced": 8979,
      "Ġelementary": 8980,
      "Agricultural": 8981,
      "Ġfavored": 8982,
      "Ġparents": 8983,
      "Ġcyc": 8984,
      "Ġ1838": 8985,
      "ĠColumbus": 8986,
      "Ġvariants": 8987,
      "Ġloan": 8988,
      "ĠAliyev": 8989,
      "Ġcompetition": 8990,
      "1986": 8991,
      "Ġlisted": 8992,
      "Ġsurvive": 8993,
      "ĠPhilip": 8994,
      "Ġconflicts": 8995,
      "helm": 8996,
      "Ġfrequency": 8997,
      "Ġnecessarily": 8998,
      "ĠSmall": 8999,
      "Ġpromised": 9000,
      "ĠMorocco": 9001,
      "Ġquestions": 9002,
      "Ġpronunciation": 9003,
      "Ġintegral": 9004,
      "Ġpreserved": 9005,
      "Ġcovalent": 9006,
      "Ġvillage": 9007,
      "Ġtransferred": 9008,
      "Ġdetails": 9009,
      "Ġcoinc": 9010,
      "Ġphenomenon": 9011,
      "Ġstruck": 9012,
      "Ġunclear": 9013,
      "Ġprice": 9014,
      "Ġcolumn": 9015,
      "Ġwalking": 9016,
      "Ġbringing": 9017,
      "Ġexactly": 9018,
      "Ġnutrit": 9019,
      "Ġneighbor": 9020,
      "Ġarranged": 9021,
      "Ġtetra": 9022,
      "Ġemulsion": 9023,
      "Ġinformed": 9024,
      "Ġcooperation": 9025,
      "Ġthreatened": 9026,
      "ĠIlly": 9027,
      "Ġduty": 9028,
      "Ġinstrument": 9029,
      "Ġmomentum": 9030,
      "Austroasiatic": 9031,
      "Ġparliamentary": 9032,
      "Ġfertilizer": 9033,
      "ĠRepresentation": 9034,
      "Ġsecure": 9035,
      "Ġmutual": 9036,
      "Ġvertebrates": 9037,
      "Music": 9038,
      "Ġdollars": 9039,
      "ĠRailway": 9040,
      "Ġnewspaper": 9041,
      "Ġphysicists": 9042,
      "Ġintelligence": 9043,
      "ĠCarolina": 9044,
      "ĠJustice": 9045,
      "Ġsenior": 9046,
      "Ġpavement": 9047,
      "Ġacknowledged": 9048,
      "Ġceremonies": 9049,
      "Ġpesticides": 9050,
      "Ġenforcement": 9051,
      "Ġaccurate": 9052,
      "employ": 9053,
      "Achilles": 9054,
      "Ġscheduled": 9055,
      "Ġgifts": 9056,
      "ĠZosimos": 9057,
      "ĠPrinceton": 9058,
      "Ġcelestial": 9059,
      "British": 9060,
      "uisine": 9061,
      "emetery": 9062,
      "ĠThailand": 9063,
      "ĠHeinemann": 9064,
      "--": 9065,
      ".).": 9066,
      "67": 9067,
      "App": 9068,
      "CI": 9069,
      "His": 9070,
      "Low": 9071,
      "Life": 9072,
      "Nov": 9073,
      "Public": 9074,
      "Russian": 9075,
      "West": 9076,
      "bell": 9077,
      "cm": 9078,
      "capital": 9079,
      "don": 9080,
      "div": 9081,
      "fess": 9082,
      "fred": 9083,
      "fiction": 9084,
      "franch": 9085,
      "gard": 9086,
      "harm": 9087,
      "human": 9088,
      "mn": 9089,
      "mol": 9090,
      "made": 9091,
      "number": 9092,
      "oct": 9093,
      "person": 9094,
      "ser": 9095,
      "tru": 9096,
      "uy": 9097,
      "uver": 9098,
      "uous": 9099,
      "ucl": 9100,
      "uven": 9101,
      "va": 9102,
      "wed": 9103,
      "Ê¼": 9104,
      "á¹": 9105,
      "ĠÄ": 9106,
      "Ġtort": 9107,
      "Ġtasks": 9108,
      "Ġarose": 9109,
      "inations": 9110,
      "onso": 9111,
      "eros": 9112,
      "erland": 9113,
      "aning": 9114,
      "Ġsort": 9115,
      "Ġsail": 9116,
      "enz": 9117,
      "esides": 9118,
      "alse": 9119,
      "Ġcation": 9120,
      "Ġcod": 9121,
      "Ġcore": 9122,
      "Ġcob": 9123,
      "Ġwa": 9124,
      "Ġwet": 9125,
      "Ġwire": 9126,
      "Ġwrong": 9127,
      "orld": 9128,
      "Ġinequ": 9129,
      "Ġfuels": 9130,
      "Ġpine": 9131,
      "Ġpie": 9132,
      "Ġbinary": 9133,
      "Ġandroids": 9134,
      "ĠAre": 9135,
      "ĠAround": 9136,
      "ĠAmb": 9137,
      "Ġmol": 9138,
      "Ġmos": 9139,
      "Ġtoads": 9140,
      "Ġdense": 9141,
      "olas": 9142,
      "omach": 9143,
      "Ġlot": 9144,
      "Ġlighter": 9145,
      "ĠTan": 9146,
      "ĠTar": 9147,
      "ĠTusc": 9148,
      "ĠSil": 9149,
      "ĠSund": 9150,
      "char": 9151,
      "Ġisot": 9152,
      "ceans": 9153,
      "ĠCret": 9154,
[...]
