{
  "version": "1.0",
  "truncation": null,
  "padding": null,
  "added_tokens": [
    {
      "id": 0,
      "content": "<pad>",
      "single_word": false,
      "lstrip": false,
      "rstrip": false,
      "normalized": false,
      "special": true
    },
    {
      "id": 1,
      "content": "<s>",
      "single_word": false,
      "lstrip": false,
      "rstrip": false,
      "normalized": false,
      "special": true
    },
    {
      "id": 2,
      "content": "</s>",
      "single_word": false,
      "lstrip": false,
      "rstrip": false,
      "normalized": false,
      "special": true
    },
    {
      "id": 3,
      "content": "<unk>",
      "single_word": false,
      "lstrip": false,
      "rstrip": false,
      "normalized": false,
      "special": true
    }
  ],
  "normalizer": null,
  "pre_tokenizer": {
    "type": "ByteLevel",
    "add_prefix_space": false,
    "trim_offsets": true,
    "use_regex": true
  },
  "post_processor": {
    "type": "TemplateProcessing",
    "single": [
      {
        "SpecialToken": {
          "id": "<s>",
          "type_id": 0
        }
      },
      {
        "Sequence": {
          "id": "A",
          "type_id": 0
        }
      },
      {
        "SpecialToken": {
          "id": "</s>",
          "type_id": 0
        }
      }
    ],
    "pair": [
      {
        "Sequence": {
          "id": "A",
          "type_id": 0
        }
      },
      {
        "Sequence": {
          "id": "B",
          "type_id": 1
        }
      }
    ],
    "special_tokens": {
      "</s>": {
        "id": "</s>",
        "ids": [
          2
        ],
        "tokens": [
          "</s>"
        ]
      },
      "<s>": {
        "id": "<s>",
        "ids": [
          1
        ],
        "tokens": [
          "<s>"
        ]
      }
    }
  },
  "decoder": {
    "type": "ByteLevel",
    "add_prefix_space": true,
    "trim_offsets": true,
    "use_regex": true
  },
  "model": {
    "type": "BPE",
    "dropout": null,
    "unk_token": null,
    "continuing_subword_prefix": null,
    "end_of_word_suffix": null,
    "fuse_unk": false,
    "byte_fallback": false,
    "ignore_merges": false,
    "vocab": {
      "<pad>": 0,
      "<s>": 1,
      "</s>": 2,
      "<unk>": 3,
      "!": 4,
      "\"": 5,
      "#": 6,
      "$": 7,
      "%": 8,
      "&": 9,
      "'": 10,
      "(": 11,
      ")": 12,
      "*": 13,
      "+": 14,
      ",": 15,
      "-": 16,
      ".": 17,
      "/": 18,
      "0": 19,
      "1": 20,
      "2": 21,
      "3": 22,
      "4": 23,
      "5": 24,
      "6": 25,
      "7": 26,
      "8": 27,
      "9": 28,
      ":": 29,
      ";": 30,
      "<": 31,
      "=": 32,
      ">": 33,
      "?": 34,
      "@": 35,
      "A": 36,
      "B": 37,
      "C": 38,
      "D": 39,
      "E": 40,
      "F": 41,
      "G": 42,
      "H": 43,
      "I": 44,
      "J": 45,
      "K": 46,
      "L": 47,
      "M": 48,
      "N": 49,
      "O": 50,
      "P": 51,
      "Q": 52,
      "R": 53,
      "S": 54,
      "T": 55,
      "U": 56,
      "V": 57,
      "W": 58,
      "X": 59,
      "Y": 60,
      "Z": 61,
      "[": 62,
      "\\": 63,
      "]": 64,
      "^": 65,
      "_": 66,
      "`": 67,
      "a": 68,
      "b": 69,
      "c": 70,
      "d": 71,
      "e": 72,
      "f": 73,
      "g": 74,
      "h": 75,
      "i": 76,
      "j": 77,
      "k": 78,
      "l": 79,
      "m": 80,
      "n": 81,
      "o": 82,
      "p": 83,
      "q": 84,
      "r": 85,
      "s": 86,
      "t": 87,
      "u": 88,
      "v": 89,
      "w": 90,
      "x": 91,
      "y": 92,
      "z": 93,
      "{": 94,
      "|": 95,
      "}": 96,
      "~": 97,
      "¡": 98,
      "¢": 99,
      "£": 100,
      "¤": 101,
      "¥": 102,
      "¦": 103,
      "§": 104,
      "¨": 105,
      "©": 106,
      "ª": 107,
      "«": 108,
      "¬": 109,
      "®": 110,
      "¯": 111,
      "°": 112,
      "±": 113,
      "²": 114,
      "³": 115,
      "´": 116,
      "µ": 117,
      "¶": 118,
      "·": 119,
      "¸": 120,
      "¹": 121,
      "º": 122,
      "»": 123,
      "¼": 124,
      "½": 125,
      "¾": 126,
      "¿": 127,
      "À": 128,
      "Á": 129,
      "Â": 130,
      "Ã": 131,
      "Ä": 132,
      "Å": 133,
      "Æ": 134,
      "Ç": 135,
      "È": 136,
      "É": 137,
      "Ê": 138,
      "Ë": 139,
      "Ì": 140,
      "Í": 141,
      "Î": 142,
      "Ï": 143,
      "Ð": 144,
      "Ñ": 145,
      "Ò": 146,
      "Ó": 147,
      "Ô": 148,
      "Õ": 149,
      "Ö": 150,
      "×": 151,
      "Ø": 152,
      "Ù": 153,
      "Ú": 154,
      "Û": 155,
      "Ü": 156,
      "Ý": 157,
      "Þ": 158,
      "ß": 159,
      "à": 160,
      "á": 161,
      "â": 162,
      "ã": 163,
      "ä": 164,
      "å": 165,
      "æ": 166,
      "ç": 167,
      "è": 168,
      "é": 169,
      "ê": 170,
      "ë": 171,
      "ì": 172,
      "í": 173,
      "î": 174,
      "ï": 175,
      "ð": 176,
      "ñ": 177,
      "ò": 178,
      "ó": 179,
      "ô": 180,
      "õ": 181,
      "ö": 182,
      "÷": 183,
      "ø": 184,
      "ù": 185,
      "ú": 186,
      "û": 187,
      "ü": 188,
      "ý": 189,
      "þ": 190,
      "ÿ": 191,
      "Ā": 192,
      "ā": 193,
      "Ă": 194,
      "ă": 195,
      "Ą": 196,
      "ą": 197,
      "Ć": 198,
      "ć": 199,
      "Ĉ": 200,
      "ĉ": 201,
      "Ċ": 202,
      "ċ": 203,
      "Č": 204,
      "č": 205,
      "Ď": 206,
      "ď": 207,
      "Đ": 208,
      "đ": 209,
      "Ē": 210,
      "ē": 211,
      "Ĕ": 212,
      "ĕ": 213,
      "Ė": 214,
      "ė": 215,
      "Ę": 216,
      "ę": 217,
      "Ě": 218,
      "ě": 219,
      "Ĝ": 220,
      "ĝ": 221,
      "Ğ": 222,
      "ğ": 223,
      "Ġ": 224,
      "ġ": 225,
      "Ģ": 226,
      "ģ": 227,
      "Ĥ": 228,
      "ĥ": 229,
      "Ħ": 230,
      "ħ": 231,
      "Ĩ": 232,
      "ĩ": 233,
      "Ī": 234,
      "ī": 235,
      "Ĭ": 236,
      "ĭ": 237,
      "Į": 238,
      "į": 239,
      "İ": 240,
      "ı": 241,
      "Ĳ": 242,
      "ĳ": 243,
      "Ĵ": 244,
      "ĵ": 245,
      "Ķ": 246,
      "ķ": 247,
      "ĸ": 248,
      "Ĺ": 249,
      "ĺ": 250,
      "Ļ": 251,
      "ļ": 252,
      "Ľ": 253,
      "ľ": 254,
      "Ŀ": 255,
      "ŀ": 256,
      "Ł": 257,
      "ł": 258,
      "Ń": 259,
      "Ġt": 260,
      "he": 261,
      "Ġa": 262,
      "in": 263,
      "er": 264,
      "on": 265,
      "Ġthe": 266,
      "re": 267,
      "an": 268,
      "Ġo": 269,
      "at": 270,
      "en": 271,
      "ed": 272,
      "Ġs": 273,
      "or": 274,
      "is": 275,
      "al": 276,
      "es": 277,
      "Ġw": 278,
      "it": 279,
      "ar": 280,
      "Ġof": 281,
      "nd": 282,
      "Ġc": 283,
      "Ġin": 284,
      "Ġf": 285,
      "Ġb": 286,
      "ic": 287,
      "Ġp": 288,
      "as": 289,
      "Ġand": 290,
      "ing": 291,
      "ion": 292,
      "ro": 293,
      "le": 294,
      "Ġto": 295,
      "Ġm": 296,
      "ĠS": 297,
      "Ġd": 298,
      "ou": 299,
      "ĠA": 300,
      "ĠC": 301,
      "ent": 302,
      "Ġh": 303,
      "il": 304,
      "ĠT": 305,
      "Ġ1": 306,
      "st": 307,
      "om": 308,
      "Ġ(": 309,
      "el": 310,
      "am": 311,
      "Ġre": 312,
      "ol": 313,
      "ĠM": 314,
      "ct": 315,
      "ĠB": 316,
      "Ġl": 317,
      "ad": 318,
      "ur": 319,
      "et": 320,
      "Ġn": 321,
      "ation": 322,
      "ch": 323,
      "ĠP": 324,
      "Ġth": 325,
      "iv": 326,
      "Ġe": 327,
      "ers": 328,
      "Ġ2": 329,
      "us": 330,
      "ig": 331,
      "ly": 332,
      "id": 333,
      "ot": 334,
      "ĠI": 335,
      "ir": 336,
      "ĠH": 337,
      "ce": 338,
      "Ġwas": 339,
      "im": 340,
      "Ġfor": 341,
      "ĠR": 342,
      "Ġon": 343,
      "Ġ19": 344,
      "ay": 345,
      "ut": 346,
      "Ġg": 347,
      "Ġis": 348,
      "ist": 349,
      "ĠD": 350,
      "Ġas": 351,
      "ow": 352,
      "ĠThe": 353,
      "ra": 354,
      "ter": 355,
      "ĠL": 356,
      "ĠF": 357,
      "Ġbe": 358,
      "ith": 359,
      "un": 360,
      "00": 361,
      "ĠG": 362,
      "ĠN": 363,
      "ul": 364,
      "em": 365,
      "Ġst": 366,
      "th": 367,
      "ĠW": 368,
      "her": 369,
      "and": 370,
      "Ġwith": 371,
      "Ġby": 372,
      "âĢ": 373,
      "Ġal": 374,
      "ĠE": 375,
      "um": 376,
      "os": 377,
      "ver": 378,
      "ag": 379,
      "rom": 380,
      "'s": 381,
      "ĠJ": 382,
      "ac": 383,
      "Ġcon": 384,
      "Ġan": 385,
      "op": 386,
      "est": 387,
      "Ġwh": 388,
      "ri": 389,
      "âĢĵ": 390,
      "Ġat": 391,
      "ĠO": 392,
      "Ġthat": 393,
      "od": 394,
      "Ġfrom": 395,
      "oc": 396,
      "Ġv": 397,
      "Ġ\"": 398,
      "ian": 399,
      "ec": 400,
      "av": 401,
      "ab": 402,
      "ies": 403,
      "ain": 404,
      "Ġpro": 405,
      "Ġhe": 406,
      "ity": 407,
      "Ġcom": 408,
      "all": 409,
      "if": 410,
      "res": 411,
      "ĠK": 412,
      "Ġit": 413,
      "ate": 414,
      "up": 415,
      "ort": 416,
      "art": 417,
      "ew": 418,
      "ia": 419,
      "ill": 420,
      "ĠU": 421,
      "ber": 422,
      "ud": 423,
      "Ġde": 424,
      "ard": 425,
      "Ġor": 426,
      "igh": 427,
      "ich": 428,
      "ub": 429,
      "Ġ200": 430,
      "ment": 431,
      "ak": 432,
      "ap": 433,
      "Ġare": 434,
      "ore": 435,
      "ĠSt": 436,
      "ld": 437,
      "qu": 438,
      "19": 439,
      "ip": 440,
      "ess": 441,
      "Ġpl": 442,
      "ant": 443,
      "ear": 444,
      "Ġhis": 445,
      "ated": 446,
      "Ġr": 447,
      "ish": 448,
      "ĠIn": 449,
      "The": 450,
      "Ġex": 451,
      "ial": 452,
      "ive": 453,
      "ary": 454,
      "ov": 455,
      "nt": 456,
      "ge": 457,
      "end": 458,
      "Ġ20": 459,
      "ect": 460,
      "og": 461,
      "mer": 462,
      "Ġch": 463,
      "ĠCh": 464,
      "ug": 465,
      "ast": 466,
      "our": 467,
      "ong": 468,
      "se": 469,
      "Ġse": 470,
      "ere": 471,
      "ine": 472,
      "und": 473,
      "ell": 474,
      "ust": 475,
      "ical": 476,
      "ame": 477,
      "ord": 478,
      "ĠV": 479,
      "ure": 480,
      "ks": 481,
      "uc": 482,
      "ost": 483,
      "so": 484,
      "ĠâĢĵ": 485,
      "ions": 486,
      "Ġwere": 487,
      "ran": 488,
      "Ġwhich": 489,
      "fer": 490,
      "),": 491,
      "Ġle": 492,
      "ire": 493,
      "Ġsp": 494,
      "ep": 495,
      "ther": 496,
      "ight": 497,
      "ue": 498,
      "Ġalso": 499,
      "rit": 500,
      "Ġcomp": 501,
      "tern": 502,
      "ie": 503,
      "Ġsh": 504,
      "pp": 505,
      "ry": 506,
      "cl": 507,
      "ous": 508,
      "ations": 509,
      "Ġk": 510,
      "ff": 511,
      "are": 512,
      "ces": 513,
      "Ġy": 514,
      "ass": 515,
      "ĠUn": 516,
      "Ġus": 517,
      "ign": 518,
      "ĠĊ": 519,
      "ric": 520,
      "Ġun": 521,
      "Ġnot": 522,
      "ave": 523,
      "Ġ201": 524,
      "Ġar": 525,
      "irst": 526,
      "man": 527,
      "ĠHe": 528,
      "age": 529,
      "ide": 530,
      "Ġ199": 531,
      "iz": 532,
      "land": 533,
      "ult": 534,
      "ome": 535,
      "Ġcl": 536,
      "per": 537,
      "ory": 538,
      "ack": 539,
      "Ġhad": 540,
      "Ġhas": 541,
      "ount": 542,
      "Ġcont": 543,
      "ond": 544,
      "erv": 545,
      "Ġint": 546,
      "ction": 547,
      "hed": 548,
      "Ġplay": 549,
      "ng": 550,
      "port": 551,
      "Ġres": 552,
      "ang": 553,
      "Ġte": 554,
      "ork": 555,
      "pt": 556,
      "Ġwhe": 557,
      "ican": 558,
      "ition": 559,
      "ater": 560,
      "own": 561,
      "ational": 562,
      "ok": 563,
      "Ġfirst": 564,
      "ib": 565,
      "Ġ3": 566,
      "ence": 567,
      "Ġits": 568,
      "ĠAl": 569,
      "ice": 570,
      "fter": 571,
      "ĠIt": 572,
      "Ġad": 573,
      "Ġ18": 574,
      "ach": 575,
      "ĠTh": 576,
      "Ġro": 577,
      "ey": 578,
      "Ġtheir": 579,
      "pl": 580,
      "ĠY": 581,
      "ree": 582,
      "ph": 583,
      "wo": 584,
      "Ġpart": 585,
      "out": 586,
      "In": 587,
      "eg": 588,
      "ens": 589,
      "ime": 590,
      "ates": 591,
      ").": 592,
      "Ġab": 593,
      "Ġac": 594,
      "ound": 595,
      "Ġbut": 596,
      "orn": 597,
      "Ġhave": 598,
      "ru": 599,
      "ally": 600,
      "act": 601,
      "ĠAr": 602,
      "clud": 603,
      "amp": 604,
      "over": 605,
      "ited": 606,
      "Ġone": 607,
      "Ġwho": 608,
      "ark": 609,
      "low": 610,
      "ould": 611,
      "ool": 612,
      "Ġapp": 613,
      "ee": 614,
      "merican": 615,
      "ik": 616,
      "ace": 617,
      "Ġman": 618,
      "Ġj": 619,
      "ors": 620,
      "aw": 621,
      "ugh": 622,
      "Ġper": 623,
      "ts": 624,
      "ubl": 625,
      "20": 626,
      "ite": 627,
      "Ġyear": 628,
      "ath": 629,
      "ile": 630,
      "Ġthis": 631,
      "Ġrec": 632,
      "ents": 633,
      "Ġbec": 634,
      "for": 635,
      "ress": 636,
      "ild": 637,
      "Ġinclud": 638,
      "uch": 639,
      "Ġdis": 640,
      "Ġother": 641,
      "Ġen": 642,
      "uring": 643,
      "Ġag": 644,
      "gh": 645,
      "ivers": 646,
      "wn": 647,
      "te": 648,
      "Ġbeen": 649,
      "Ġ198": 650,
      "Ġtwo": 651,
      "ade": 652,
      "les": 653,
      "ely": 654,
      "ons": 655,
      "able": 656,
      "Ġsc": 657,
      "vel": 658,
      "ilm": 659,
      "Ġim": 660,
      "ences": 661,
      "ob": 662,
      "old": 663,
      "ĠNew": 664,
      "ase": 665,
      "ased": 666,
      "chool": 667,
      "ĠĠ": 668,
      "pe": 669,
      "oy": 670,
      "oin": 671,
      "Ġ4": 672,
      "ball": 673,
      "ember": 674,
      "Ġher": 675,
      "Ġdes": 676,
      "iss": 677,
      "ail": 678,
      "ied": 679,
      "we": 680,
      "ics": 681,
      "Ġcomm": 682,
      "ings": 683,
      "ss": 684,
      "ind": 685,
      "red": 686,
      "als": 687,
      "lect": 688,
      "io": 689,
      "ward": 690,
      "Ġafter": 691,
      "ople": 692,
      "ted": 693,
      "urn": 694,
      "oot": 695,
      "ury": 696,
      "ance": 697,
      "ĠMar": 698,
      "ood": 699,
      "hip": 700,
      "Ġcan": 701,
      "orld": 702,
      "ĠCom": 703,
      "ough": 704,
      "Re": 705,
      "Ġ-": 706,
      "Ġ197": 707,
      "ron": 708,
      "Ġover": 709,
      "Ġthey": 710,
      "Ġall": 711,
      "way": 712,
      "ft": 713,
      "Ġinto": 714,
      "ans": 715,
      "Ġnew": 716,
      "ĠAmerican": 717,
      "Ġev": 718,
      "Ġout": 719,
      "ral": 720,
      "Ġup": 721,
      "reat": 722,
      "outh": 723,
      "Ġact": 724,
      "eople": 725,
      "ished": 726,
      "Ġ5": 727,
      "der": 728,
      "du": 729,
      "Âł": 730,
      "olog": 731,
      "ren": 732,
      "Ġoff": 733,
      "ah": 734,
      "ferences": 735,
      "eb": 736,
      "ram": 737,
      "Ġgro": 738,
      "ex": 739,
      "ton": 740,
      "rans": 741,
      "oh": 742,
      "ision": 743,
      "gan": 744,
      "Ġpre": 745,
      "Ġra": 746,
      "Ġund": 747,
      "rough": 748,
      "Ġtra": 749,
      "rib": 750,
      "duc": 751,
      "Ġcol": 752,
      "Ġcons": 753,
      "ose": 754,
      "Ġatt": 755,
      "one": 756,
      "cess": 757,
      "200": 758,
      "ious": 759,
      "ever": 760,
      "Ġcent": 761,
      "ock": 762,
      "Ġtime": 763,
      "Ġfilm": 764,
      "Ġserv": 765,
      "orth": 766,
      "Ġkn": 767,
      "inal": 768,
      "ĠDe": 769,
      "Ġbet": 770,
      "18": 771,
      "ener": 772,
      "ict": 773,
      "Ġmore": 774,
      "ĠCol": 775,
      "Ġform": 776,
      "References": 777,
      "ames": 778,
      "Ġreg": 779,
      "ĠLe": 780,
      "Ġlin": 781,
      "che": 782,
      "Ġpol": 783,
      "ists": 784,
      "Ġ196": 785,
      "Ġloc": 786,
      "ick": 787,
      "ular": 788,
      "ities": 789,
      "ins": 790,
      "iversity": 791,
      "Ġunder": 792,
      "form": 793,
      "Ġmost": 794,
      "Ġsy": 795,
      "ince": 796,
      "Ġused": 797,
      "ne": 798,
      "oth": 799,
      "ake": 800,
      "ween": 801,
      "Ġco": 802,
      "Ġwhen": 803,
      "Ġsec": 804,
      "ix": 805,
      "ĠSh": 806,
      "Ġwork": 807,
      "Ġind": 808,
      "Ġwould": 809,
      "Ġrel": 810,
      "ĠUnited": 811,
      "Ġpr": 812,
      "aus": 813,
      "rad": 814,
      "Ġbu": 815,
      "Ġonly": 816,
      "att": 817,
      "ale": 818,
      "Ġme": 819,
      "az": 820,
      "Ġhim": 821,
      "ĠPro": 822,
      "lish": 823,
      "iel": 824,
      "ĠSp": 825,
      "ual": 826,
      "Ġ6": 827,
      "ason": 828,
      "Ġsub": 829,
      "Ġsuch": 830,
      "ll": 831,
      "cent": 832,
      "Ġass": 833,
      "Ġbetween": 834,
      "Ġpubl": 835,
      "ollow": 836,
      "overn": 837,
      "ism": 838,
      "Ġsup": 839,
      "ĠEng": 840,
      "Ġest": 841,
      "ĠAn": 842,
      "ĠOr": 843,
      "Ġear": 844,
      "oun": 845,
      "ann": 846,
      "ĠZ": 847,
      "Ġduring": 848,
      "aj": 849,
      "ating": 850,
      "iet": 851,
      "Ġyears": 852,
      "ife": 853,
      "ily": 854,
      "ced": 855,
      "ident": 856,
      "ĠCon": 857,
      "Ġbo": 858,
      "Ġpeople": 859,
      "emb": 860,
      "ier": 861,
      "ĠSc": 862,
      "Ex": 863,
      "inn": 864,
      "ific": 865,
      "ative": 866,
      "Ġnum": 867,
      "ten": 868,
      "Ġinter": 869,
      "ĠInd": 870,
      "Ġqu": 871,
      "ternal": 872,
      "Ġret": 873,
      "Ġfound": 874,
      "Ġwhere": 875,
      "ĠThis": 876,
      "Ġthan": 877,
      "Ġstud": 878,
      "Ġshe": 879,
      "Ġthrough": 880,
      "Ġdec": 881,
      "usic": 882,
      "ĠCl": 883,
      "Ġagain": 884,
      "Ġrem": 885,
      "erman": 886,
      "ck": 887,
      "erm": 888,
      "Ġam": 889,
      "eat": 890,
      "Ġso": 891,
      "ootball": 892,
      "eries": 893,
      "resent": 894,
      "ĠUniversity": 895,
      "arg": 896,
      "Ġsome": 897,
      "\".": 898,
      "Ġthere": 899,
      "Ġthem": 900,
      "ev": 901,
      "Ġtrans": 902,
      "ars": 903,
      "ern": 904,
      "ject": 905,
      "Ġabout": 906,
      "fore": 907,
      "Ġ7": 908,
      "round": 909,
      "raph": 910,
      "cc": 911,
      "hen": 912,
      "Ġdist": 913,
      "bum": 914,
      "\",": 915,
      "Ġthree": 916,
      "Ġteam": 917,
      "istory": 918,
      "any": 919,
      "ley": 920,
      "Ġdef": 921,
      "ohn": 922,
      "air": 923,
      "Ġph": 924,
      "Ġspec": 925,
      "Ã©": 926,
      "Ġ194": 927,
      "Ġlinks": 928,
      "Ġprov": 929,
      "Ġend": 930,
      "Ġpop": 931,
      "ĠBrit": 932,
      "Ġknown": 933,
      "Ġlater": 934,
      "Ġfollow": 935,
      "irect": 936,
      "mp": 937,
      "Ġset": 938,
      "velop": 939,
      "ower": 940,
      "stem": 941,
      "Ġrele": 942,
      "Ġ195": 943,
      "oss": 944,
      "ures": 945,
      "||": 946,
      "Ġthen": 947,
      "Ġed": 948,
      "ash": 949,
      "Ġmov": 950,
      "ments": 951,
      "uro": 952,
      "Ġcall": 953,
      "pr": 954,
      "Ġsing": 955,
      "External": 956,
      "Ġwrit": 957,
      "ober": 958,
      "ution": 959,
      "ield": 960,
      "iver": 961,
      "ague": 962,
      "ĠStates": 963,
      "Ġinv": 964,
      "ĠAs": 965,
      "enn": 966,
      "Ġmade": 967,
      "els": 968,
      ".\"": 969,
      "iam": 970,
      "199": 971,
      "Ġschool": 972,
      "ert": 973,
      "Ġexp": 974,
      "ike": 975,
      "Ġmod": 976,
      "its": 977,
      "ank": 978,
      "Ġbecame": 979,
      "ĠIs": 980,
      "ement": 981,
      "ĠAust": 982,
      "Ġent": 983,
      "eth": 984,
      "ĠCan": 985,
      "erson": 986,
      "ines": 987,
      "Ġrecord": 988,
      "Ġart": 989,
      "ise": 990,
      "Ġbeing": 991,
      "Ġmany": 992,
      "Ġfl": 993,
      "ĠWorld": 994,
      "Ġinc": 995,
      "Ġ8": 996,
      "Ġsecond": 997,
      "Ġdo": 998,
      "Ġbl": 999,
      "ĠBl": 1000,
      "Ġcount": 1001,
      "ived": 1002,
      "inist": 1003,
      "Ġalbum": 1004,
      "ina": 1005,
      "ĠNo": 1006,
      "ouse": 1007,
      "Ġmon": 1008,
      "Ġacc": 1009,
      "Ġwell": 1010,
      "Ġmay": 1011,
      "Ġ17": 1012,
      "pen": 1013,
      "ays": 1014,
      "ium": 1015,
      "ĠWar": 1016,
      "very": 1017,
      "uss": 1018,
      "ve": 1019,
      "Ġinst": 1020,
      "ĠGerman": 1021,
      "cy": 1022,
      "000": 1023,
      "owever": 1024,
      "ĠJohn": 1025,
      "ĠAt": 1026,
      "iew": 1027,
      "ax": 1028,
      "ional": 1029,
      "Ġestab": 1030,
      "lev": 1031,
      "rist": 1032,
      "Ġincluding": 1033,
      "Ġgroup": 1034,
      "itt": 1035,
      "ract": 1036,
      "urch": 1037,
      "ĠFran": 1038,
      "other": 1039,
      "ograph": 1040,
      "ys": 1041,
      "Ġ10": 1042,
      "cept": 1043,
      "ians": 1044,
      "arl": 1045,
      "Ġadd": 1046,
      "ĠFor": 1047,
      "Ġorig": 1048,
      "ural": 1049,
      "ĠQ": 1050,
      "Ġ2006": 1051,
      "Ġhigh": 1052,
      "ĠComm": 1053,
      "Ġlead": 1054,
      "Ġmed": 1055,
      "Ġchar": 1056,
      "ered": 1057,
      "ont": 1058,
      "Ġno": 1059,
      "ues": 1060,
      "Ġfour": 1061,
      "Ġ9": 1062,
      "Ġseason": 1063,
      "Ġdevelop": 1064,
      "Ġdif": 1065,
      "Ġwhile": 1066,
      "Ġsign": 1067,
      "Ġsur": 1068,
      "ĊĊ": 1069,
      "ute": 1070,
      "Ġfam": 1071,
      "ĠAd": 1072,
      "ternational": 1073,
      "Ġmain": 1074,
      "til": 1075,
      "rid": 1076,
      "elf": 1077,
      "rict": 1078,
      "Ġboth": 1079,
      "ient": 1080,
      "Ġsystem": 1081,
      "Ġnumber": 1082,
      "Ġgener": 1083,
      "Ġgovern": 1084,
      "Ġoper": 1085,
      "Ġseries": 1086,
      "Ġ15": 1087,
      "ĠPh": 1088,
      "ired": 1089,
      "led": 1090,
      "uth": 1091,
      "ized": 1092,
      "ĠCount": 1093,
      "ĠNational": 1094,
      "by": 1095,
      "Ġown": 1096,
      "ĠBritish": 1097,
      "ĠSchool": 1098,
      "Ġrep": 1099,
      "ept": 1100,
      "Ġvar": 1101,
      "let": 1102,
      "ĠReg": 1103,
      "une": 1104,
      "ually": 1105,
      "son": 1106,
      "Ġbefore": 1107,
      "Ġcar": 1108,
      "iving": 1109,
      "Ġbro": 1110,
      "Ġdirect": 1111,
      "ather": 1112,
      "ird": 1113,
      "Ġname": 1114,
      "my": 1115,
      "ology": 1116,
      "gram": 1117,
      "ty": 1118,
      "Ġext": 1119,
      "Ġcap": 1120,
      "Ġ16": 1121,
      "Ġagainst": 1122,
      "Ġem": 1123,
      "Ġshow": 1124,
      "ĠSouth": 1125,
      "ants": 1126,
      "Ġuntil": 1127,
      "ause": 1128,
      "imes": 1129,
      "Ġuse": 1130,
      "Ġ193": 1131,
      "ott": 1132,
      "hes": 1133,
      "Ġsever": 1134,
      "Ġ.": 1135,
      "amed": 1136,
      "ajor": 1137,
      "Ġsm": 1138,
      "Ġob": 1139,
      "Ġfootball": 1140,
      "oci": 1141,
      "ĠOn": 1142,
      "ruct": 1143,
      "21": 1144,
      "Ġcre": 1145,
      "ĠJan": 1146,
      "ved": 1147,
      "ai": 1148,
      "Ġne": 1149,
      "Ġcalled": 1150,
      "ives": 1151,
      "ull": 1152,
      "ĠEuro": 1153,
      "Ġback": 1154,
      "duced": 1155,
      "ĠPl": 1156,
      "ained": 1157,
      "Ġsong": 1158,
      "Ġgu": 1159,
      "Ġplayers": 1160,
      "Ġconst": 1161,
      "eng": 1162,
      "ices": 1163,
      "ible": 1164,
      "au": 1165,
      "Ġ||": 1166,
      "Ġelect": 1167,
      "ĠMay": 1168,
      "Ġpolit": 1169,
      "oman": 1170,
      "ke": 1171,
      "Ġprodu": 1172,
      "Ġfin": 1173,
      "Ġmusic": 1174,
      "aid": 1175,
      "ĠYork": 1176,
      "ared": 1177,
      "Ġarea": 1178,
      "ages": 1179,
      "ĠShe": 1180,
      "sp": 1181,
      "fl": 1182,
      "ĠCanad": 1183,
      "ross": 1184,
      "the": 1185,
      "lege": 1186,
      "Ġthese": 1187,
      "ĠAustral": 1188,
      "ĠAm": 1189,
      "10": 1190,
      "arm": 1191,
      "ility": 1192,
      "Ġdesign": 1193,
      "osed": 1194,
      "ially": 1195,
      "ene": 1196,
      "rand": 1197,
      "ris": 1198,
      "Ġ&": 1199,
      "vent": 1200,
      "Ġbuild": 1201,
      "ulation": 1202,
      "ĠCent": 1203,
      "Ġcontin": 1204,
      "Ġstate": 1205,
      "Ġlong": 1206,
      "ica": 1207,
      "ful": 1208,
      "17": 1209,
      "Ġformer": 1210,
      "ically": 1211,
      "inc": 1212,
      "ĠNorth": 1213,
      "Ġimp": 1214,
      "ets": 1215,
      "Ġfeat": 1216,
      "ior": 1217,
      "ampions": 1218,
      "uary": 1219,
      "198": 1220,
      "Ġdep": 1221,
      "Ġearly": 1222,
      "ths": 1223,
      "Ġdeath": 1224,
      "embers": 1225,
      "con": 1226,
      "ange": 1227,
      "ugust": 1228,
      "Ġsame": 1229,
      "ission": 1230,
      "ital": 1231,
      "ĠWh": 1232,
      "Ġgame": 1233,
      "ret": 1234,
      "âĢĶ": 1235,
      "Ġseveral": 1236,
      "ĠEurope": 1237,
      "Ġgo": 1238,
      "Ġair": 1239,
      "ĠMan": 1240,
      "angu": 1241,
      "yl": 1242,
      "Ġcentury": 1243,
      "ae": 1244,
      "Ġopen": 1245,
      "Ġany": 1246,
      "Ġdr": 1247,
      "icip": 1248,
      "oint": 1249,
      "ring": 1250,
      "Ġresult": 1251,
      "Ġsuc": 1252,
      "ook": 1253,
      "Ġbel": 1254,
      "omen": 1255,
      "istor": 1256,
      "ĠGe": 1257,
      "Ġann": 1258,
      "Ġeff": 1259,
      "isc": 1260,
      "born": 1261,
      "Ġ12": 1262,
      "Ġrun": 1263,
      "Ġoffic": 1264,
      "aking": 1265,
      "eter": 1266,
      "ĠKing": 1267,
      "Ġsim": 1268,
      "ĠEnglish": 1269,
      "ĠII": 1270,
      "rop": 1271,
      "ains": 1272,
      "ĠAf": 1273,
      "Ġdisc": 1274,
      "Ġprogram": 1275,
      "Ġ'": 1276,
      "ony": 1277,
      "ask": 1278,
      "Ġwill": 1279,
      "ĊĠ": 1280,
      "ĠTe": 1281,
      "Ġcharact": 1282,
      "ĠJu": 1283,
      "arn": 1284,
      "Ġ2005": 1285,
      "ĠBro": 1286,
      "ven": 1287,
      "lex": 1288,
      "ove": 1289,
      "Ġsince": 1290,
      "wards": 1291,
      "Ġpublic": 1292,
      "Ġreleased": 1293,
      "por": 1294,
      "ĠPr": 1295,
      "Ġcity": 1296,
      "levision": 1297,
      "Ġcare": 1298,
      "ĠNov": 1299,
      "ĠAss": 1300,
      "ĠChrist": 1301,
      "rent": 1302,
      "chn": 1303,
      "ĠCity": 1304,
      "ided": 1305,
      "ĠRe": 1306,
      "Ġlife": 1307,
      "Ġcur": 1308,
      "eptember": 1309,
      "Ġplayed": 1310,
      "ĠCounty": 1311,
      "ilit": 1312,
      "ued": 1313,
      "Ġstation": 1314,
      "Ġorgan": 1315,
      "ĠAugust": 1316,
      "Ġwe": 1317,
      "Ġmin": 1318,
      "ĠLeague": 1319,
      "ox": 1320,
      "ĠMarch": 1321,
      "ctober": 1322,
      "ham": 1323,
      "ĠCal": 1324,
      "erg": 1325,
      "lection": 1326,
      "ilt": 1327,
      "Ġnear": 1328,
      "af": 1329,
      "Ġstart": 1330,
      "ster": 1331,
      "Ġwon": 1332,
      "Ġdesc": 1333,
      "ĠAll": 1334,
      "Ġpres": 1335,
      "ble": 1336,
      "Ġresp": 1337,
      "15": 1338,
      "Ġsupport": 1339,
      "ator": 1340,
      "Ġrece": 1341,
      "mber": 1342,
      "Ġmar": 1343,
      "Ġmat": 1344,
      "Ġreturn": 1345,
      "lished": 1346,
      "anc": 1347,
      "yp": 1348,
      "197": 1349,
      "Ġocc": 1350,
      "16": 1351,
      "Ġworld": 1352,
      "ĠThey": 1353,
      "ured": 1354,
      "Ġcommun": 1355,
      "ised": 1356,
      "ĠOrder": 1357,
      "Ġsmall": 1358,
      "com": 1359,
      "orm": 1360,
      "St": 1361,
      "fess": 1362,
      "ales": 1363,
      "ĠEd": 1364,
      "Ġterm": 1365,
      "amb": 1366,
      "sh": 1367,
      "Ġeach": 1368,
      "Ġdiffer": 1369,
      "13": 1370,
      "Ch": 1371,
      "pril": 1372,
      "yn": 1373,
      "ĠBe": 1374,
      "ĠGu": 1375,
      "12": 1376,
      "Ġmet": 1377,
      "See": 1378,
      "ience": 1379,
      "Ġgovernment": 1380,
      "Ġfollowing": 1381,
      "ling": 1382,
      "Ġmajor": 1383,
      "ended": 1384,
      "illion": 1385,
      "cember": 1386,
      "ried": 1387,
      "Ġclass": 1388,
      "Ġpass": 1389,
      "ĠJanuary": 1390,
      "Ġhead": 1391,
      "Ġbir": 1392,
      "Ġ2000": 1393,
      "ined": 1394,
      "rench": 1395,
      "Ġ14": 1396,
      "hem": 1397,
      "Ġland": 1398,
      "Ġ13": 1399,
      "Ã¡": 1400,
      "American": 1401,
      "ane": 1402,
      "Ġtr": 1403,
      "Ġbased": 1404,
      "arge": 1405,
      "ze": 1406,
      "Ġbegan": 1407,
      "ĠRep": 1408,
      "ĠPol": 1409,
      "ode": 1410,
      "Ġalong": 1411,
      "row": 1412,
      "Ġband": 1413,
      "ĠCar": 1414,
      "ĠSeptember": 1415,
      "Ġvers": 1416,
      "ung": 1417,
      "ection": 1418,
      "ights": 1419,
      "ality": 1420,
      "Ġcould": 1421,
      "Ġlaw": 1422,
      "ography": 1423,
      "Ġtown": 1424,
      "reen": 1425,
      "ĠUS": 1426,
      "Ġclub": 1427,
      "alth": 1428,
      "ĠWest": 1429,
      "atic": 1430,
      "ĠOctober": 1431,
      "Ġgames": 1432,
      "ĠJune": 1433,
      "ĠBar": 1434,
      "Ġdid": 1435,
      "ival": 1436,
      "aving": 1437,
      "itions": 1438,
      "osition": 1439,
      "On": 1440,
      "Ġfamily": 1441,
      "ĠWill": 1442,
      "ĠĠĠĠ": 1443,
      "22": 1444,
      "century": 1445,
      "Ġmembers": 1446,
      "apan": 1447,
      "ature": 1448,
      "to": 1449,
      "Ġplace": 1450,
      "Ġrev": 1451,
      "Ġeng": 1452,
      "Ġchild": 1453,
      "Ġprom": 1454,
      "ĠEx": 1455,
      "ebru": 1456,
      "ebruary": 1457,
      "orks": 1458,
      "ĠJuly": 1459,
      "Ġ2004": 1460,
      "Ġstr": 1461,
      "..": 1462,
      "ampionship": 1463,
      "ides": 1464,
      "Ġappear": 1465,
      "Ġsuccess": 1466,
      "Ġref": 1467,
      "ords": 1468,
      "14": 1469,
      "ting": 1470,
      "ner": 1471,
      "rol": 1472,
      "iety": 1473,
      "lymp": 1474,
      "que": 1475,
      "aced": 1476,
      "Ġestablished": 1477,
      "uck": 1478,
      "ĠHowever": 1479,
      "iod": 1480,
      "Ġsk": 1481,
      "ĠAnd": 1482,
      "ĠApril": 1483,
      "ĠAb": 1484,
      "Ġplayer": 1485,
      "ĠDecember": 1486,
      "though": 1487,
      "Ã¼": 1488,
      "ese": 1489,
      "ats": 1490,
      "aster": 1491,
      "ĠState": 1492,
      "Ġpar": 1493,
      "ille": 1494,
      "side": 1495,
      "Ġaround": 1496,
      "Ġconsid": 1497,
      "Ġnamed": 1498,
      "uthor": 1499,
      "ards": 1500,
      "ĠĊĠĊ": 1501,
      "Ġnow": 1502,
      "ĠNovember": 1503,
      "Ġtit": 1504,
      "ĠSe": 1505,
      "Ġperson": 1506,
      "ified": 1507,
      "ĠAfter": 1508,
      "Ġlarg": 1509,
      "ĠCo": 1510,
      "ple": 1511,
      "ration": 1512,
      "use": 1513,
      "Ġsingle": 1514,
      "rem": 1515,
      "Ġ2001": 1516,
      "estern": 1517,
      "earch": 1518,
      "med": 1519,
      "rew": 1520,
      "ĠCollege": 1521,
      "Ġleg": 1522,
      "urg": 1523,
      "Ġhome": 1524,
      "Ġyou": 1525,
      "Ġbecause": 1526,
      "ĠFl": 1527,
      "ĠHigh": 1528,
      "ording": 1529,
      "omin": 1530,
      "aur": 1531,
      "Ġpo": 1532,
      "ald": 1533,
      "sc": 1534,
      "ivision": 1535,
      "ĠMc": 1536,
      "oad": 1537,
      "Ġlocal": 1538,
      "ively": 1539,
      "ries": 1540,
      "idd": 1541,
      "ford": 1542,
      "Ġ2003": 1543,
      "Ġlarge": 1544,
      "ĠFrench": 1545,
      "ĠHar": 1546,
      "ery": 1547,
      "Ġnational": 1548,
      "ĠGeor": 1549,
      "Ġbus": 1550,
      "ounc": 1551,
      "ourn": 1552,
      "ĠFebruary": 1553,
      "Ġdue": 1554,
      "ately": 1555,
      "Ġmanag": 1556,
      "Ġinclude": 1557,
      "Ġsl": 1558,
      "ently": 1559,
      "Ġlist": 1560,
      "iness": 1561,
      "Ġlast": 1562,
      "Ġpower": 1563,
      "aim": 1564,
      "196": 1565,
      "ĠAfric": 1566,
      "Ġrest": 1567,
      "Ġrequ": 1568,
      "Ġcompet": 1569,
      "ublic": 1570,
      "conom": 1571,
      "uman": 1572,
      "Ġsoc": 1573,
      "Ġ2007": 1574,
      "augh": 1575,
      "ĠPart": 1576,
      "Ġallow": 1577,
      "Ġoften": 1578,
      "ization": 1579,
      "Ġrefer": 1580,
      "adem": 1581,
      "Ġcareer": 1582,
      "hern": 1583,
      "ĠSy": 1584,
      "ĠRec": 1585,
      "Ġif": 1586,
      "ĠHis": 1587,
      "Ġtelevision": 1588,
      "Ġstand": 1589,
      "Ġheld": 1590,
      "ffic": 1591,
      "Ġdifferent": 1592,
      "ĠComp": 1593,
      "Ġlangu": 1594,
      "ĠJapan": 1595,
      "umb": 1596,
      "stit": 1597,
      "uk": 1598,
      "ĠEn": 1599,
      "ches": 1600,
      "Ġline": 1601,
      "ĠAng": 1602,
      "iven": 1603,
      "ected": 1604,
      "ilitary": 1605,
      "Ġep": 1606,
      "day": 1607,
      "Al": 1608,
      "ĠPar": 1609,
      "oph": 1610,
      "Ġ,": 1611,
      "ored": 1612,
      "attle": 1613,
      "Ġdet": 1614,
      "Ġorder": 1615,
      "Ġappro": 1616,
      "yle": 1617,
      "Ġtrad": 1618,
      "ata": 1619,
      "vers": 1620,
      "Ġold": 1621,
      "Ġhistory": 1622,
      "Ġmen": 1623,
      "ourt": 1624,
      "ridge": 1625,
      "Ġmark": 1626,
      "Ġpopulation": 1627,
      "Ġlocated": 1628,
      "lement": 1629,
      "ĠDav": 1630,
      "ody": 1631,
      "Ġleft": 1632,
      "Ġpresent": 1633,
      "orthern": 1634,
      "Ġ1999": 1635,
      "Ġincre": 1636,
      "ĠAir": 1637,
      "ext": 1638,
      "ondon": 1639,
      "Ġbuilt": 1640,
      "Ġtook": 1641,
      "ĠAct": 1642,
      "ink": 1643,
      "Ġpublished": 1644,
      "dom": 1645,
      "ĠSw": 1646,
      "Ġperiod": 1647,
      "ĠSec": 1648,
      "urther": 1649,
      "Ġhel": 1650,
      "Ġwithin": 1651,
      "Ġwar": 1652,
      "ĠCup": 1653,
      "Ġreport": 1654,
      "raft": 1655,
      "Ġshort": 1656,
      "oll": 1657,
      "23": 1658,
      "iter": 1659,
      "Ġcountry": 1660,
      "line": 1661,
      "ison": 1662,
      "ief": 1663,
      "ĠPark": 1664,
      "eder": 1665,
      "ves": 1666,
      "int": 1667,
      "Ġlike": 1668,
      "Ġcompany": 1669,
      "ulations": 1670,
      "Ġequ": 1671,
      "aul": 1672,
      "ases": 1673,
      "Ġrepl": 1674,
      "Ġnorth": 1675,
      "ness": 1676,
      "ped": 1677,
      "Ġ2010": 1678,
      "par": 1679,
      "Ġcommon": 1680,
      "oo": 1681,
      "Ġdescrib": 1682,
      "Ġcult": 1683,
      "ana": 1684,
      "Ġ2008": 1685,
      "Ġcor": 1686,
      "adio": 1687,
      "Ġ11": 1688,
      "Ġevent": 1689,
      "Ġprot": 1690,
      "ument": 1691,
      "Ġcharacter": 1692,
      "Ġmember": 1693,
      "Ġdown": 1694,
      "lands": 1695,
      "Ġav": 1696,
      "ĠEl": 1697,
      "itional": 1698,
      "uf": 1699,
      "Th": 1700,
      "akes": 1701,
      "Ġvill": 1702,
      "ency": 1703,
      "ĠHer": 1704,
      "alk": 1705,
      "Ġcamp": 1706,
      "Ġstill": 1707,
      "Ġfilms": 1708,
      "ington": 1709,
      "50": 1710,
      "Ġincluded": 1711,
      "ĠOlymp": 1712,
      "tt": 1713,
      "Ġfinal": 1714,
      "ĠX": 1715,
      "ius": 1716,
      "Ġthough": 1717,
      "Ġdem": 1718,
      "Ġfive": 1719,
      "esp": 1720,
      "ĠLondon": 1721,
      "ĠMed": 1722,
      "rick": 1723,
      "leg": 1724,
      "eal": 1725,
      "Ġimport": 1726,
      "Ġday": 1727,
      "Ġeduc": 1728,
      "11": 1729,
      "ĠSoc": 1730,
      "ĠWilliam": 1731,
      "ript": 1732,
      "Ġvery": 1733,
      "ĠBr": 1734,
      "Ġnon": 1735,
      "Ġamong": 1736,
      "reet": 1737,
      "Ġsix": 1738,
      "Ġwater": 1739,
      "ilar": 1740,
      "Ġoriginal": 1741,
      "aces": 1742,
      "ms": 1743,
      "Ġadv": 1744,
      "epend": 1745,
      "ugg": 1746,
      "Ġthose": 1747,
      "ample": 1748,
      "ideo": 1749,
      "ĠRuss": 1750,
      "ler": 1751,
      "ps": 1752,
      "ĠItal": 1753,
      "Ġsaid": 1754,
      "ĠAg": 1755,
      "inning": 1756,
      "ouncil": 1757,
      "Ġeven": 1758,
      "Ġjust": 1759,
      "oon": 1760,
      "ĠMe": 1761,
      "Ġeffect": 1762,
      "ino": 1763,
      "ones": 1764,
      "Ġval": 1765,
      "Ġposs": 1766,
      "Ġ1998": 1767,
      "Ġ2009": 1768,
      "ether": 1769,
      "ara": 1770,
      "ĠThere": 1771,
      "Ġ2002": 1772,
      "ĠTr": 1773,
      "lin": 1774,
      "Ġauthor": 1775,
      "omb": 1776,
      "Ġled": 1777,
      "ociation": 1778,
      "Ġbook": 1779,
      "ĠPhil": 1780,
      "Ġopp": 1781,
      "Ġanother": 1782,
      "Ġ190": 1783,
      "olution": 1784,
      "rag": 1785,
      "ĠSup": 1786,
      "urs": 1787,
      "vious": 1788,
      "Ġtop": 1789,
      "ĠCanada": 1790,
      "ĠEngland": 1791,
      "Ġ$": 1792,
      "ruction": 1793,
      "cast": 1794,
      "Ġsouth": 1795,
      "Ġthird": 1796,
      "Ġrepresent": 1797,
      "Ġarch": 1798,
      "ize": 1799,
      "ĠCor": 1800,
      "Ġ2011": 1801,
      "Ġhand": 1802,
      "He": 1803,
      "Ġ30": 1804,
      "Ġjoin": 1805,
      "ering": 1806,
      "Ġvis": 1807,
      "Ġcrit": 1808,
      "Ġstat": 1809,
      "ĠDist": 1810,
      "Ġbirths": 1811,
      "alf": 1812,
      "Ġdeb": 1813,
      "Ġserved": 1814,
      "ĠGl": 1815,
      "omet": 1816,
      "orts": 1817,
      "Ġkill": 1818,
      "Ġorigin": 1819,
      "rest": 1820,
      "ense": 1821,
      "iforn": 1822,
      "Ġexper": 1823,
      "unicip": 1824,
      "uted": 1825,
      "Ġservice": 1826,
      "Ġcurrent": 1827,
      "Ġaff": 1828,
      "tain": 1829,
      "ĠEast": 1830,
      "sk": 1831,
      "Ġreceived": 1832,
      "tal": 1833,
      "Ġprocess": 1834,
      "Ġiss": 1835,
      "Ġadm": 1836,
      "ops": 1837,
      "Ġbuilding": 1838,
      "Ġla": 1839,
      "ĠInternational": 1840,
      "Ġmuch": 1841,
      "ĠChurch": 1842,
      "ories": 1843,
      "read": 1844,
      "Ġsold": 1845,
      "Ġant": 1846,
      ".,": 1847,
      "Ġcomple": 1848,
      "Ġwomen": 1849,
      "Ġfield": 1850,
      "Ġlate": 1851,
      "Ġfun": 1852,
      "Ġexpl": 1853,
      "History": 1854,
      "Ġ192": 1855,
      "empt": 1856,
      "duct": 1857,
      "Ġcr": 1858,
      "Ġprofess": 1859,
      "ifornia": 1860,
      "Ġread": 1861,
      "Ġtechn": 1862,
      "ĠSch": 1863,
      "Ġhistor": 1864,
      "ĠMich": 1865,
      "Ġlevel": 1866,
      "eneral": 1867,
      "eek": 1868,
      "Ġperform": 1869,
      "alt": 1870,
      "aint": 1871,
      "olic": 1872,
      "iber": 1873,
      "work": 1874,
      "Ġfre": 1875,
      "Ã¶": 1876,
      "ĠMon": 1877,
      "Ġconc": 1878,
      "Ġbeg": 1879,
      "ĠAc": 1880,
      "Ġmag": 1881,
      "Ġversion": 1882,
      "astern": 1883,
      "ander": 1884,
      "ivil": 1885,
      "itar": 1886,
      "rain": 1887,
      "ef": 1888,
      "Ġpartic": 1889,
      "Ġfact": 1890,
      "ole": 1891,
      "Ġpat": 1892,
      "reg": 1893,
      "ĠRiver": 1894,
      "ĠRoman": 1895,
      "Ġinfl": 1896,
      "Ġ2012": 1897,
      "ym": 1898,
      "Ġwhat": 1899,
      "ĠAustralia": 1900,
      "ĠTur": 1901,
      "osp": 1902,
      "Ġusing": 1903,
      "ĠSan": 1904,
      "riend": 1905,
      "Ġchang": 1906,
      "Ġfore": 1907,
      "roup": 1908,
      "ĠIndian": 1909,
      "ours": 1910,
      "ĠCalifornia": 1911,
      "ÃŃ": 1912,
      "ĠAmer": 1913,
      "ael": 1914,
      "Ġpopular": 1915,
      "Ġborn": 1916,
      "Ġdied": 1917,
      "Ġ25": 1918,
      "ummer": 1919,
      "Ġpost": 1920,
      "iron": 1921,
      "Ġ189": 1922,
      "formation": 1923,
      "Ġport": 1924,
      "Ġmake": 1925,
      "lear": 1926,
      "ĠNor": 1927,
      "ĠChampionship": 1928,
      "Ġwin": 1929,
      "umn": 1930,
      "ĠÃ": 1931,
      "BC": 1932,
      "Ġactiv": 1933,
      "ĠArt": 1934,
      "Ġproduced": 1935,
      "Ġbest": 1936,
      "ett": 1937,
      "Ġturn": 1938,
      "Ġson": 1939,
      "reek": 1940,
      "Ġinvol": 1941,
      "Ġfac": 1942,
      "Ġchildren": 1943,
      "194": 1944,
      "Ġvarious": 1945,
      "Ġprop": 1946,
      "Ġgeneral": 1947,
      "Ġinternational": 1948,
      "oyal": 1949,
      "Ġbecome": 1950,
      "eed": 1951,
      "of": 1952,
      "na": 1953,
      "Ġ0": 1954,
      "thern": 1955,
      "ological": 1956,
      "ĠEuropean": 1957,
      "Ġexample": 1958,
      "Ġestablish": 1959,
      "Ġspecies": 1960,
      "âĢĻ": 1961,
      "Ġintro": 1962,
      "Ġcame": 1963,
      "ĠHouse": 1964,
      "ĠAnt": 1965,
      "Ġrole": 1966,
      "irc": 1967,
      "Ġproject": 1968,
      "ĠBy": 1969,
      "Ġnov": 1970,
      "Ġmillion": 1971,
      "co": 1972,
      "Am": 1973,
      "hel": 1974,
      "ots": 1975,
      "ray": 1976,
      "aff": 1977,
      "Ġsimilar": 1978,
      "Ġgiven": 1979,
      "ĠPres": 1980,
      "Ġeconom": 1981,
      "ched": 1982,
      "ĠOne": 1983,
      "ploy": 1984,
      "outhern": 1985,
      "bo": 1986,
      "Ġside": 1987,
      "acks": 1988,
      "Ġstruct": 1989,
      "eh": 1990,
      "Ġ24": 1991,
      "Ġgreat": 1992,
      "195": 1993,
      "ead": 1994,
      "ote": 1995,
      "ĠThese": 1996,
      "ĠYou": 1997,
      "Ġtem": 1998,
      "ama": 1999,
      "Ġcover": 2000,
      "useum": 2001,
      "Ġpe": 2002,
      "Ġel": 2003,
      "Ã³": 2004,
      "An": 2005,
      "Ġmoved": 2006,
      "Ġcomb": 2007,
      "Ġengine": 2008,
      "Ġway": 2009,
      "app": 2010,
      "Ġprevious": 2011,
      "Ġfew": 2012,
      "Ġrail": 2013,
      "Ġdel": 2014,
      "ĠAward": 2015,
      "rab": 2016,
      "Ä±": 2017,
      "Ġsite": 2018,
      "bert": 2019,
      "Ġbusiness": 2020,
      "ament": 2021,
      "rian": 2022,
      "Ġregion": 2023,
      "ention": 2024,
      "omp": 2025,
      "Ġepis": 2026,
      "Ġhost": 2027,
      "avy": 2028,
      "ape": 2029,
      "ination": 2030,
      "Ġgl": 2031,
      "Ġclaim": 2032,
      "Ġhig": 2033,
      "ounced": 2034,
      "Ġwritten": 2035,
      "Ġinit": 2036,
      "Ġevery": 2037,
      "ĠBo": 2038,
      "li": 2039,
      "ĠRed": 2040,
      "Ġconsidered": 2041,
      "yd": 2042,
      "Ġ2013": 2043,
      "artment": 2044,
      "ivid": 2045,
      "Ġmale": 2046,
      "ĠGermany": 2047,
      "Ġproduction": 2048,
      "Ġ2014": 2049,
      "Ġsit": 2050,
      "omm": 2051,
      "ĠBel": 2052,
      "Ġ1990": 2053,
      "abor": 2054,
      "Ġsw": 2055,
      "Ġprim": 2056,
      "ĠDistrict": 2057,
      "ĠHol": 2058,
      "Ar": 2059,
      "inister": 2060,
      "off": 2061,
      "ush": 2062,
      "ront": 2063,
      "rote": 2064,
      "Ġhaving": 2065,
      "uel": 2066,
      "Ġmult": 2067,
      "ĠRes": 2068,
      "ĠDavid": 2069,
      "ĠChar": 2070,
      "hers": 2071,
      "ĠParty": 2072,
      "Ġter": 2073,
      "Ġdevelopment": 2074,
      "Ġmilitary": 2075,
      "30": 2076,
      "Ġtimes": 2077,
      "anish": 2078,
      "Ġsol": 2079,
      "Ġareas": 2080,
      "forman": 2081,
      "Ġdistrict": 2082,
      "Ġhowever": 2083,
      "ĠPer": 2084,
      "Ġtitle": 2085,
      "ances": 2086,
      "ĠSm": 2087,
      "Ġhouse": 2088,
      "ming": 2089,
      "sequ": 2090,
      "ean": 2091,
      "ogn": 2092,
      "Ġpolitical": 2093,
      "ico": 2094,
      "Ġer": 2095,
      "Ġweb": 2096,
      "Ġbas": 2097,
      "Ġlim": 2098,
      "ĠAmerica": 2099,
      "Ġship": 2100,
      "Un": 2101,
      "Ġbre": 2102,
      "ĠPort": 2103,
      "Ġtyp": 2104,
      "Ġ1980": 2105,
      "Ġbeh": 2106,
      "urb": 2107,
      "ĠRegulations": 2108,
      "Ġvillage": 2109,
      "otes": 2110,
      "ney": 2111,
      "|-": 2112,
      "Ġgen": 2113,
      "arch": 2114,
      "Ġinf": 2115,
      "men": 2116,
      "Ġofficial": 2117,
      "Ġpoint": 2118,
      "Ġvol": 2119,
      "ope": 2120,
      "ĠBra": 2121,
      "ĠEm": 2122,
      "ĠDivision": 2123,
      "aken": 2124,
      "ule": 2125,
      "ĠUnion": 2126,
      "ĠAustralian": 2127,
      "Ġcreated": 2128,
      "Ġbroad": 2129,
      "Ġident": 2130,
      "Ġneed": 2131,
      "Ġproduc": 2132,
      "ĠQu": 2133,
      "Ġinflu": 2134,
      "Ġmodern": 2135,
      "less": 2136,
      "Ġ188": 2137,
      "Ġtrain": 2138,
      "Ġsett": 2139,
      "ached": 2140,
      "Ġconf": 2141,
      "self": 2142,
      "Ġstudents": 2143,
      "Ġworks": 2144,
      "Ġcontrol": 2145,
      "Ġfather": 2146,
      "ĠArmy": 2147,
      "Ġwithout": 2148,
      "Ġspecial": 2149,
      "Ġtw": 2150,
      "Ġbase": 2151,
      "Ġlanguage": 2152,
      "Ġconn": 2153,
      "ators": 2154,
      "erb": 2155,
      "Ġsent": 2156,
      "Ġcoach": 2157,
      "ician": 2158,
      "ests": 2159,
      "ournal": 2160,
      "asket": 2161,
      "Ġtake": 2162,
      "lic": 2163,
      "Ġattempt": 2164,
      "ĠProv": 2165,
      "ĠLa": 2166,
      "iddle": 2167,
      "field": 2168,
      "ning": 2169,
      "itect": 2170,
      "ateg": 2171,
      "ports": 2172,
      "ources": 2173,
      "Ġnext": 2174,
      "Ġindust": 2175,
      "Ġtri": 2176,
      "esc": 2177,
      "Ġimportant": 2178,
      "Ġyoung": 2179,
      "ĠIndia": 2180,
      "Ġgroups": 2181,
      "ĠClub": 2182,
      "ĠRober": 2183,
      "Ġpract": 2184,
      "ĠStreet": 2185,
      "Ġwent": 2186,
      "ĠFrance": 2187,
      "ĠRoad": 2188,
      "rated": 2189,
      "Ġ2015": 2190,
      "ably": 2191,
      "ĠRich": 2192,
      "iction": 2193,
      "ĠGeorge": 2194,
      "Ġpri": 2195,
      "ĠQue": 2196,
      "ĠLou": 2197,
      "ither": 2198,
      "Ġless": 2199,
      "ream": 2200,
      "raw": 2201,
      "Ġ2016": 2202,
      "aining": 2203,
      "Ġproper": 2204,
      "ago": 2205,
      "ĠKingdom": 2206,
      "Ġhuman": 2207,
      "ittle": 2208,
      "Ġright": 2209,
      "ĠDep": 2210,
      "ĠVal": 2211,
      "Ġtotal": 2212,
      "apt": 2213,
      "ype": 2214,
      "iers": 2215,
      "ĠCath": 2216,
      "Ġaut": 2217,
      "Ġparticular": 2218,
      "ĠGovern": 2219,
      "ĠPal": 2220,
      "berg": 2221,
      "Ġsee": 2222,
      "ĠBer": 2223,
      "Ġage": 2224,
      "ĠBlack": 2225,
      "Ġposition": 2226,
      "ĠFootball": 2227,
      "Ġstyle": 2228,
      "Ġdeveloped": 2229,
      "cer": 2230,
      "ested": 2231,
      "Ġdescribed": 2232,
      "Ġcond": 2233,
      "ha": 2234,
      "Ġopened": 2235,
      "Ġwrote": 2236,
      "As": 2237,
      "iol": 2238,
      "ids": 2239,
      "atter": 2240,
      "Ġmunicip": 2241,
      "ĠCouncil": 2242,
      "ĠMor": 2243,
      "site": 2244,
      "Ġvideo": 2245,
      "Ġ21": 2246,
      "ccording": 2247,
      "Ġcaus": 2248,
      "now": 2249,
      "Ġcommunity": 2250,
      "ston": 2251,
      "ĠPaul": 2252,
      "Ġview": 2253,
      "icle": 2254,
      "asketball": 2255,
      "ĠRev": 2256,
      "van": 2257,
      "iment": 2258,
      "ĠCanadian": 2259,
      "utes": 2260,
      "ville": 2261,
      "'t": 2262,
      "idence": 2263,
      "ertain": 2264,
      "Ġ23": 2265,
      "Ġhalf": 2266,
      "ĠWhen": 2267,
      "oe": 2268,
      "Ġannounced": 2269,
      "ising": 2270,
      "ĠAlex": 2271,
      "oor": 2272,
      "Ġrul": 2273,
      "irl": 2274,
      "eared": 2275,
      "ĠServ": 2276,
      "Ġcontinued": 2277,
      "most": 2278,
      "lected": 2279,
      "bor": 2280,
      "Ġaward": 2281,
      "Ġreal": 2282,
      "itor": 2283,
      "ĠScott": 2284,
      "ĠChristian": 2285,
      "ĠJames": 2286,
      "Ġgr": 2287,
      "wh": 2288,
      "ĠHall": 2289,
      "ĠDr": 2290,
      "ĠAssociation": 2291,
      "Ġdest": 2292,
      "acy": 2293,
      "ari": 2294,
      "ellow": 2295,
      "etwork": 2296,
      "Ġroad": 2297,
      "ister": 2298,
      "reland": 2299,
      "Ġ27": 2300,
      "Ġmater": 2301,
      "Pro": 2302,
      "ma": 2303,
      "xt": 2304,
      "Ġ22": 2305,
      "Ġdiv": 2306,
      "Ġ186": 2307,
      "itz": 2308,
      "Ġindepend": 2309,
      "Ġsu": 2310,
      "used": 2311,
      "ethod": 2312,
      "itive": 2313,
      "Ġfull": 2314,
      "here": 2315,
      "rap": 2316,
      "ways": 2317,
      "Ġexist": 2318,
      "Ġstory": 2319,
      "Ġbody": 2320,
      "ĠRecords": 2321,
      "Ġanim": 2322,
      "istic": 2323,
      "val": 2324,
      "Ġperforman": 2325,
      "ili": 2326,
      "Ġattack": 2327,
      "Ġoffer": 2328,
      "Ġvoc": 2329,
      "Ġ2017": 2330,
      "Ġ[": 2331,
      "People": 2332,
      "udd": 2333,
      "wood": 2334,
      "Ġproduct": 2335,
      "ensive": 2336,
      "ĠDuring": 2337,
      "ecut": 2338,
      "Ġstarted": 2339,
      "ification": 2340,
      "Ġrelations": 2341,
      "Ġ26": 2342,
      "ĠâĢ": 2343,
      "Ġlow": 2344,
      "atural": 2345,
      "Ġgrad": 2346,
      "Ġleague": 2347,
      "Ġgrow": 2348,
      "Ġbi": 2349,
      "Ġguitar": 2350,
      "Ġreturned": 2351,
      "craft": 2352,
      "play": 2353,
      "Ġcase": 2354,
      "ĠJew": 2355,
      "Ġ1997": 2356,
      "Ġren": 2357,
      "uation": 2358,
      "istan": 2359,
      "ĠTurk": 2360,
      "Ġdoes": 2361,
      "endment": 2362,
      "de": 2363,
      "Ġrelig": 2364,
      "193": 2365,
      "Ġschools": 2366,
      "rack": 2367,
      "Ġz": 2368,
      "ĠGeneral": 2369,
      "Ġevents": 2370,
      "aper": 2371,
      "After": 2372,
      "ending": 2373,
      "ged": 2374,
      "viron": 2375,
      "ying": 2376,
      "Ġins": 2377,
      "uter": 2378,
      "Ġindivid": 2379,
      "Ġalthough": 2380,
      "Ġfurther": 2381,
      "Ġservices": 2382,
      "ĠBu": 2383,
      "ills": 2384,
      "ential": 2385,
      "Ġphys": 2386,
      "Ġhold": 2387,
      "Ġmy": 2388,
      "ĠGreat": 2389,
      "ĠIreland": 2390,
      "):": 2391,
      "ĠPress": 2392,
      "ference": 2393,
      "Ġformed": 2394,
      "Ġaddition": 2395,
      "Ġ2018": 2396,
      "aut": 2397,
      "ĠArch": 2398,
      "Ġsepar": 2399,
      "arent": 2400,
      "ibr": 2401,
      "omas": 2402,
      "ements": 2403,
      "Ġ187": 2404,
      "Ġfind": 2405,
      "ĠMart": 2406,
      "Ġstations": 2407,
      "Ġappeared": 2408,
      "anies": 2409,
      "right": 2410,
      "inter": 2411,
      "Ġdays": 2412,
      "ĠMag": 2413,
      "ointed": 2414,
      "ĠSk": 2415,
      "Ġ28": 2416,
      "odes": 2417,
      "Ġ1996": 2418,
      "ĠRoyal": 2419,
      "hib": 2420,
      "ware": 2421,
      "ipp": 2422,
      "Ġround": 2423,
      "Ġothers": 2424,
      "Ġsurv": 2425,
      "ĠStud": 2426,
      "roll": 2427,
      "Ġ1970": 2428,
      "iles": 2429,
      "ges": 2430,
      "Ġbelie": 2431,
      "Ġlight": 2432,
      "Ġrock": 2433,
      "oints": 2434,
      "Ġavail": 2435,
      "Ġshould": 2436,
      "arly": 2437,
      "ergy": 2438,
      "Ġide": 2439,
      "ĠMy": 2440,
      "ĠPat": 2441,
      "ishing": 2442,
      "ĠWestern": 2443,
      "Ġgood": 2444,
      "Ġder": 2445,
      "Ġfriend": 2446,
      "Ġ100": 2447,
      "Ġcross": 2448,
      "aries": 2449,
      "ĠZeal": 2450,
      "=\"": 2451,
      "CA": 2452,
      "ells": 2453,
      "25": 2454,
      "arliam": 2455,
      "ificant": 2456,
      "year": 2457,
      "Ġeducation": 2458,
      "Ġlargest": 2459,
      "Ġfounded": 2460,
      "ashington": 2461,
      "ability": 2462,
      "Ġet": 2463,
      "ĠMal": 2464,
      "ĠSl": 2465,
      "ĠCro": 2466,
      "ĠPresident": 2467,
      "Ġground": 2468,
      "Ġeast": 2469,
      "ĠTrans": 2470,
      "ĠZealand": 2471,
      "Ġadminist": 2472,
      "ĠOlympics": 2473,
      "Ġanal": 2474,
      "Ġmaterial": 2475,
      "view": 2476,
      "Ġchurch": 2477,
      "Ġstrong": 2478,
      "ĠMusic": 2479,
      "Ġnever": 2480,
      "ĠInstit": 2481,
      "Ġlive": 2482,
      "ĠRail": 2483,
      "arliament": 2484,
      "Ġsocial": 2485,
      "ĠJos": 2486,
      "Eng": 2487,
      "oks": 2488,
      "itted": 2489,
      "Ġtrack": 2490,
      "ĠWith": 2491,
      "Ġlost": 2492,
      "oms": 2493,
      "Ġdeaths": 2494,
      "atin": 2495,
      "ĠPri": 2496,
      "ades": 2497,
      "Ġmaking": 2498,
      "ockey": 2499,
      "ĠLaw": 2500,
      "Ġrecorded": 2501,
      "imately": 2502,
      "ĠFirst": 2503,
      "me": 2504,
      "ĠUK": 2505,
      "serv": 2506,
      "atch": 2507,
      "eel": 2508,
      "ĠCommun": 2509,
      "Ġdev": 2510,
      "ĠTV": 2511,
      "Ġpriv": 2512,
      "ien": 2513,
      "Ġhon": 2514,
      "Ġ2019": 2515,
      "nel": 2516,
      "Ġhimself": 2517,
      "writ": 2518,
      "cient": 2519,
      "Ġmid": 2520,
      "Ġfail": 2521,
      "oviet": 2522,
      "Ġelection": 2523,
      "Ġalbums": 2524,
      "burg": 2525,
      "Ġsqu": 2526,
      "Ġsignificant": 2527,
      "duction": 2528,
      "Ġjoined": 2529,
      "vironment": 2530,
      "Ġ1995": 2531,
      "mpire": 2532,
      "ula": 2533,
      "ĠMex": 2534,
      "Ġradio": 2535,
      "Ġfem": 2536,
      "ĠCentral": 2537,
      "ĠAngel": 2538,
      "elt": 2539,
      "Ġpresident": 2540,
      "cks": 2541,
      "ein": 2542,
      "Ġvict": 2543,
      "Ġworked": 2544,
      "ĠBay": 2545,
      "Ġproble": 2546,
      "Ġ1994": 2547,
      "Ġbrother": 2548,
      "Ġten": 2549,
      "iting": 2550,
      "Ġnovel": 2551,
      "Ġrecogn": 2552,
      "Ġbecom": 2553,
      "ership": 2554,
      "ĠDem": 2555,
      "ida": 2556,
      "Ġusually": 2557,
      "ude": 2558,
      "ĠChina": 2559,
      "ĠCatholic": 2560,
      "ij": 2561,
      "ademy": 2562,
      "ĠAfrican": 2563,
      "ilities": 2564,
      "lim": 2565,
      "ĠâĢĶ": 2566,
      "Ġavailable": 2567,
      "Ġresearch": 2568,
      "Ġassoci": 2569,
      "eph": 2570,
      "Ġmust": 2571,
      "Ġdirector": 2572,
      "aches": 2573,
      "Ġdoc": 2574,
      "ĠHen": 2575,
      "Ġsugg": 2576,
      "Ġsongs": 2577,
      "24": 2578,
      "Ġred": 2579,
      "Ġ()": 2580,
      "Ġwest": 2581,
      "ĠMichael": 2582,
      "ores": 2583,
      "ĠIsland": 2584,
      "Ġbar": 2585,
      "pro": 2586,
      "ume": 2587,
      "ria": 2588,
      "anding": 2589,
      "ya": 2590,
      "ĠGod": 2591,
      "Ġmot": 2592,
      "ĠCourt": 2593,
      "ique": 2594,
      "Ġstates": 2595,
      "Ġking": 2596,
      "Ġdi": 2597,
      "ĠSal": 2598,
      "ceed": 2599,
      "ĠBest": 2600,
      "igned": 2601,
      "ĠRepublic": 2602,
      "Ġ2020": 2603,
      "Ġtro": 2604,
      "itch": 2605,
      "sy": 2606,
      "gin": 2607,
      "Ġliter": 2608,
      "ects": 2609,
      "ĠVir": 2610,
      "Ġparty": 2611,
      "ele": 2612,
      "Ġhow": 2613,
      "ground": 2614,
      "Ġmean": 2615,
      "It": 2616,
      "Ġfree": 2617,
      "Ġacross": 2618,
      "Ġmarried": 2619,
      "Ġrelease": 2620,
      "ger": 2621,
      "Ġstar": 2622,
      "ĠWashington": 2623,
      "Ġdeg": 2624,
      "Ġcirc": 2625,
      "ĠLouis": 2626,
      "arian": 2627,
      "anted": 2628,
      "Ġblack": 2629,
      "Ġhelp": 2630,
      "Ġwebsite": 2631,
      "ĠGr": 2632,
      "unk": 2633,
      "Ġteams": 2634,
      "ĠSen": 2635,
      "Ġtog": 2636,
      "ĠTra": 2637,
      "Ġ1992": 2638,
      "Ġparticip": 2639,
      "Ġlaun": 2640,
      "Ġseen": 2641,
      "ĠDon": 2642,
      "Ġfollowed": 2643,
      "incip": 2644,
      "iqu": 2645,
      "ĠMary": 2646,
      "ĠDay": 2647,
      "Ġcoll": 2648,
      "Ġpoints": 2649,
      "Ġcountries": 2650,
      "utions": 2651,
      "Ġmiss": 2652,
      "Ġweek": 2653,
      "Ġinvest": 2654,
      "II": 2655,
      "ĠList": 2656,
      "Ġtogether": 2657,
      "olit": 2658,
      "Ġmodel": 2659,
      "Ġ29": 2660,
      "isl": 2661,
      "icles": 2662,
      "ĠKh": 2663,
      "asons": 2664,
      "Ġ1960": 2665,
      "iation": 2666,
      "ĠTex": 2667,
      "ĠRobert": 2668,
      "Ġtaken": 2669,
      "Ġmarket": 2670,
      "bour": 2671,
      "eep": 2672,
      "oted": 2673,
      "Ġforces": 2674,
      "ump": 2675,
      "mar": 2676,
      "Ġcast": 2677,
      "Ġspace": 2678,
      "Ġassist": 2679,
      "oul": 2680,
      "Ġeither": 2681,
      "ĠAfrica": 2682,
      "ees": 2683,
      "Ġkey": 2684,
      "ĠSam": 2685,
      "Ġsuccessful": 2686,
      "ĠChe": 2687,
      "ĠScot": 2688,
      "ĠCont": 2689,
      "fic": 2690,
      "alls": 2691,
      "ĠCompany": 2692,
      "Ġ(\"": 2693,
      "ĠJapanese": 2694,
      "Ġfire": 2695,
      "atory": 2696,
      "Ġonce": 2697,
      "Ġemploy": 2698,
      "Ġsound": 2699,
      "Ġfund": 2700,
      "aker": 2701,
      "Ġarr": 2702,
      "oice": 2703,
      "time": 2704,
      "aughter": 2705,
      "40": 2706,
      "usical": 2707,
      "Ġarg": 2708,
      "Ġcost": 2709,
      "ĠBen": 2710,
      "Ġaccess": 2711,
      "cial": 2712,
      "ĠMark": 2713,
      "Ġphot": 2714,
      "ĠGroup": 2715,
      "ĠMac": 2716,
      "Ġinformation": 2717,
      "ĠBC": 2718,
      "aign": 2719,
      "gy": 2720,
      "ranch": 2721,
      "eck": 2722,
      "Ġ/": 2723,
      "ĠApp": 2724,
      "Ġthroughout": 2725,
      "ĠSociety": 2726,
      "ĠCharles": 2727,
      "aves": 2728,
      "ĠAp": 2729,
      "ĠMount": 2730,
      "Ġstudy": 2731,
      "Ġtreat": 2732,
      "Ġcontrib": 2733,
      "Ġcompleted": 2734,
      "Ġincludes": 2735,
      "ĠSome": 2736,
      "Living": 2737,
      "ocr": 2738,
      "Ġprofessional": 2739,
      "ĠCenter": 2740,
      "annel": 2741,
      "Ġpolitician": 2742,
      "och": 2743,
      "cle": 2744,
      "ka": 2745,
      "lor": 2746,
      "ulated": 2747,
      "ishop": 2748,
      "ĠIr": 2749,
      "azine": 2750,
      "Ġagre": 2751,
      "gen": 2752,
      "ĠYear": 2753,
      "ĠCap": 2754,
      "hest": 2755,
      "Ġtour": 2756,
      "Ġtransl": 2757,
      "roy": 2758,
      "ought": 2759,
      "inese": 2760,
      "Ġlab": 2761,
      "Ġfeatures": 2762,
      "Ġwid": 2763,
      "ĠRh": 2764,
      "Ġ1993": 2765,
      "Ġenc": 2766,
      "face": 2767,
      "Ġobject": 2768,
      "Ġintroduced": 2769,
      "ederal": 2770,
      "ictor": 2771,
      "gress": 2772,
      "Ġmeet": 2773,
      "estival": 2774,
      "rd": 2775,
      "Ġentire": 2776,
      "Ġplaying": 2777,
      "Ġconstruction": 2778,
      "For": 2779,
      "Ġreview": 2780,
      "TV": 2781,
      "Ġacqu": 2782,
      "Ġimpro": 2783,
      "ĠFrank": 2784,
      "Ġfootballer": 2785,
      "be": 2786,
      "ĠSim": 2787,
      "Pl": 2788,
      "erous": 2789,
      "oral": 2790,
      "ource": 2791,
      "Ġepisode": 2792,
      "Ġreported": 2793,
      "vert": 2794,
      "ĠFranc": 2795,
      "Ġ1991": 2796,
      "Ġconsist": 2797,
      "ĠWil": 2798,
      "Ġmedal": 2799,
      "umni": 2800,
      "ites": 2801,
      "ĠGreek": 2802,
      "Ġplan": 2803,
      "onst": 2804,
      "unt": 2805,
      "ĠNe": 2806,
      "ometimes": 2807,
      "ĠColumb": 2808,
      "Ġoffice": 2809,
      "Ġpress": 2810,
      "order": 2811,
      "asing": 2812,
      "ĠArab": 2813,
      "west": 2814,
      "Treat": 2815,
      "mon": 2816,
      "arth": 2817,
      "Ġfunction": 2818,
      "Ġcontract": 2819,
      "elling": 2820,
      "chie": 2821,
      "Ġcompanies": 2822,
      "enc": 2823,
      "mb": 2824,
      "lements": 2825,
      "rig": 2826,
      "Ġwife": 2827,
      "ĠHam": 2828,
      "Ġsystems": 2829,
      "Ġmix": 2830,
      "ception": 2831,
      "ĠMer": 2832,
      "Ġparts": 2833,
      "Ġoriginally": 2834,
      "ems": 2835,
      "Ġrange": 2836,
      "ĠGold": 2837,
      "ĠPeter": 2838,
      "Ġaver": 2839,
      "olf": 2840,
      "Ġtest": 2841,
      "Ġpark": 2842,
      "rel": 2843,
      "Ġdou": 2844,
      "ĠInter": 2845,
      "Ġpos": 2846,
      "Ġconstit": 2847,
      "Ġremained": 2848,
      "ducation": 2849,
      "Ġmethod": 2850,
      "\")": 2851,
      "ĠMinister": 2852,
      "Ġtre": 2853,
      "Ġaway": 2854,
      "FL": 2855,
      "rup": 2856,
      ".)": 2857,
      "imate": 2858,
      "ows": 2859,
      "ĠBill": 2860,
      "Ġleast": 2861,
      "ĠAcademy": 2862,
      "âĢĿ": 2863,
      "Ġ2021": 2864,
      "ecially": 2865,
      "Ġregular": 2866,
      "ĠWe": 2867,
      "Ġcivil": 2868,
      "Ġabove": 2869,
      "Ġ#": 2870,
      "ror": 2871,
      "ĠThomas": 2872,
      "ĠVol": 2873,
      "Ġmass": 2874,
      "ĠTer": 2875,
      "Ġarchitect": 2876,
      "Ġkilled": 2877,
      "edy": 2878,
      "ĠItalian": 2879,
      "ĠSoviet": 2880,
      "Ġappointed": 2881,
      "Ġput": 2882,
      "atre": 2883,
      "Ġmonths": 2884,
      "Ġmother": 2885,
      "Ġdiscover": 2886,
      "ĠTown": 2887,
      "Ġgold": 2888,
      "Ġfig": 2889,
      "New": 2890,
      "head": 2891,
      "Ġworking": 2892,
      "Ġdebut": 2893,
      "urity": 2894,
      "arily": 2895,
      "oys": 2896,
      "Ġ50": 2897,
      "ĠMuseum": 2898,
      "utch": 2899,
      "thlet": 2900,
      "At": 2901,
      "ĠTexas": 2902,
      "iding": 2903,
      "Ġmatch": 2904,
      "Ġbooks": 2905,
      "Cl": 2906,
      "rim": 2907,
      "Ġchange": 2908,
      "Film": 2909,
      "Ġconduct": 2910,
      "ĠSpanish": 2911,
      "Ġeight": 2912,
      "airs": 2913,
      "Ġmount": 2914,
      "Ġget": 2915,
      "aps": 2916,
      "Ġperformed": 2917,
      "Ġperformance": 2918,
      "Ġbroadcast": 2919,
      "especially": 2920,
      "ĠMet": 2921,
      "ala": 2922,
      ",\"": 2923,
      "go": 2924,
      "Treaties": 2925,
      "ios": 2926,
      "Ġser": 2927,
      "NA": 2928,
      "Ġsigned": 2929,
      "ĠGrand": 2930,
      "Ġinstit": 2931,
      "ittee": 2932,
      "ecutive": 2933,
      "Ġfight": 2934,
      "anded": 2935,
      "ĠGreen": 2936,
      "Ġoccur": 2937,
      "Sh": 2938,
      "Ġhous": 2939,
      "ĠFrom": 2940,
      "cher": 2941,
      "aching": 2942,
      "ĊĠĊ": 2943,
      "Ġ=": 2944,
      "Ġfoc": 2945,
      "ĠInstitute": 2946,
      "ĠEmpire": 2947,
      "Ġreplaced": 2948,
      "ĠBow": 2949,
      "Ġviol": 2950,
      "emor": 2951,
      "Ġfrequ": 2952,
      "ector": 2953,
      "ĠRichard": 2954,
      "Ġclos": 2955,
      "Ġsil": 2956,
      "ĠFin": 2957,
      "De": 2958,
      "Ġcapt": 2959,
      "rial": 2960,
      "etic": 2961,
      "olk": 2962,
      "Ġupon": 2963,
      "ĠCong": 2964,
      "rey": 2965,
      "ĠOther": 2966,
      "Ġrights": 2967,
      "Ġdefe": 2968,
      "Ġexpress": 2969,
      "Ġstri": 2970,
      "lam": 2971,
      "anta": 2972,
      "Ġestablishments": 2973,
      "icro": 2974,
      "Ġdesigned": 2975,
      "iff": 2976,
      "Ġeventually": 2977,
      "Ġcour": 2978,
      "Ġelected": 2979,
      "atives": 2980,
      "ĠMus": 2981,
      "Ġpred": 2982,
      "ĠTor": 2983,
      "Ġrather": 2984,
      "chol": 2985,
      "medi": 2986,
      "ving": 2987,
      "ĠSing": 2988,
      "Ġbasketball": 2989,
      "Ġpot": 2990,
      "Ġsubject": 2991,
      "ĠDepartment": 2992,
      "Ġreb": 2993,
      "ĠMad": 2994,
      "sel": 2995,
      "Ġcy": 2996,
      "ands": 2997,
      "Ġcop": 2998,
      "Ġterrit": 2999,
      "uments": 3000,
      "Ġleading": 3001,
      "Ġpossible": 3002,
      "icy": 3003,
      "bon": 3004,
      "Amendment": 3005,
      "Ġmeas": 3006,
      "Ġcharacters": 3007,
      "ota": 3008,
      "Ġphil": 3009,
      "Ġseven": 3010,
      "Ġdecl": 3011,
      "chan": 3012,
      "Ġpast": 3013,
      "Ġculture": 3014,
      "Äģ": 3015,
      "rought": 3016,
      "Sc": 3017,
      "ĠGo": 3018,
      "There": 3019,
      "nder": 3020,
      "hood": 3021,
      "Ġsinger": 3022,
      "Ġgave": 3023,
      "ĠBur": 3024,
      "Ġcapital": 3025,
      "ply": 3026,
      "Ġill": 3027,
      "Ġdata": 3028,
      "Ġfeatured": 3029,
      "ona": 3030,
      "Ġpain": 3031,
      "ĠSecond": 3032,
      "Ġrace": 3033,
      "Ġsports": 3034,
      "Ġshows": 3035,
      "Ġcentral": 3036,
      "atal": 3037,
      "Ġ40": 3038,
      "Ġfront": 3039,
      "Ġable": 3040,
      "rael": 3041,
      "SA": 3042,
      "Ġtrib": 3043,
      "ĠDan": 3044,
      "min": 3045,
      "road": 3046,
      "Ġrespons": 3047,
      "uns": 3048,
      "Ġaircraft": 3049,
      "ux": 3050,
      "ĠRussian": 3051,
      "icated": 3052,
      "Ġpur": 3053,
      "idents": 3054,
      "ĠLos": 3055,
      "Ġlower": 3056,
      "adium": 3057,
      "Ġ1989": 3058,
      "ples": 3059,
      "Ġtype": 3060,
      "Ġaud": 3061,
      "ĠHistory": 3062,
      "ĠTo": 3063,
      "zil": 3064,
      "asc": 3065,
      "ĠBut": 3066,
      "Ġ1986": 3067,
      "ĠPet": 3068,
      "Sp": 3069,
      "Wh": 3070,
      "Ġhard": 3071,
      "ĠFilm": 3072,
      "ena": 3073,
      "Ġobserv": 3074,
      "Ġmultip": 3075,
      "ĠAtl": 3076,
      "Ġsubsequ": 3077,
      "Ġjud": 3078,
      "Ġcommer": 3079,
      "ĠKore": 3080,
      "ĠFore": 3081,
      "icago": 3082,
      "Ġaccept": 3083,
      "ĠGames": 3084,
      "km": 3085,
      "het": 3086,
      "ĠMel": 3087,
      "oid": 3088,
      "ugby": 3089,
      "27": 3090,
      "Ġaccount": 3091,
      "ĠFlor": 3092,
      "ufact": 3093,
      "ĠChinese": 3094,
      "26": 3095,
      "ĠLake": 3096,
      "Ġcal": 3097,
      "Ġ2022": 3098,
      "like": 3099,
      "ĠVictor": 3100,
      "Ġinstead": 3101,
      "ĠIts": 3102,
      "Ġ1988": 3103,
      "Ġespecially": 3104,
      "ension": 3105,
      "28": 3106,
      "aged": 3107,
      "Ġclose": 3108,
      "ĠLeg": 3109,
      "Ġadded": 3110,
      "Ġalmost": 3111,
      "SI": 3112,
      "ĠRob": 3113,
      "Ġprovided": 3114,
      "ĠMiss": 3115,
      "ires": 3116,
      "Ġcourt": 3117,
      "Ġrank": 3118,
      "Ġcritic": 3119,
      "Ġsem": 3120,
      "ĠĠĠĠĠĠĠĠ": 3121,
      ");": 3122,
      "ĠKn": 3123,
      "ayer": 3124,
      "ĠSmith": 3125,
      "anks": 3126,
      "ĠMur": 3127,
      "Ġdam": 3128,
      "Ġcampaign": 3129,
      "Ġlik": 3130,
      "ibrary": 3131,
      "osaur": 3132,
      "ental": 3133,
      "Ġnatural": 3134,
      "Ġge": 3135,
      "Ġbattle": 3136,
      "...": 3137,
      "ĠAccording": 3138,
      "ĠBrown": 3139,
      "ras": 3140,
      "Ġresults": 3141,
      "Ġcomplex": 3142,
      "ĠIm": 3143,
      "ĠWhite": 3144,
      "kn": 3145,
      "29": 3146,
      "Ġfav": 3147,
      "ĠWhile": 3148,
      "ĠHill": 3149,
      "aught": 3150,
      "ĠÂ": 3151,
      "ĠTom": 3152,
      "Ã§": 3153,
      "uture": 3154,
      "Ġvia": 3155,
      "Ġrespect": 3156,
      "ini": 3157,
      "Ġitself": 3158,
      "190": 3159,
      "Ġche": 3160,
      "action": 3161,
      "Ġconv": 3162,
      "ship": 3163,
      "ends": 3164,
      "ĠâĢľ": 3165,
      "Ġbuildings": 3166,
      "Ġachie": 3167,
      "Ġinvolved": 3168,
      "uit": 3169,
      "This": 3170,
      "Ġwhite": 3171,
      "Ġvir": 3172,
      "Ġhealth": 3173,
      "ĠVirgin": 3174,
      "Ġfar": 3175,
      "Ġneigh": 3176,
      "ecess": 3177,
      "Ġ1985": 3178,
      "Ġknow": 3179,
      "Ġforce": 3180,
      "Ġwhose": 3181,
      "Ġsaw": 3182,
      "Ġapprox": 3183,
      "60": 3184,
      "Ġcoast": 3185,
      "ĠMont": 3186,
      "Ġsometimes": 3187,
      "Ġdirected": 3188,
      "Ġstandard": 3189,
      "Ġ31": 3190,
      "clus": 3191,
      "Ġprovide": 3192,
      "ersey": 3193,
      "ĠService": 3194,
      "Ġmanager": 3195,
      "back": 3196,
      "inary": 3197,
      "ĠRock": 3198,
      "ĠNorthern": 3199,
      "Ġgenerally": 3200,
      "arter": 3201,
      "Ġ1979": 3202,
      "Ġdistrib": 3203,
      "Ad": 3204,
      "ĠHenry": 3205,
      "ingu": 3206,
      "Ġregard": 3207,
      "aying": 3208,
      "porary": 3209,
      "ĠCarol": 3210,
      "Ġcertain": 3211,
      "abit": 3212,
      "bl": 3213,
      "Ġprincip": 3214,
      "ĠDes": 3215,
      "Ġap": 3216,
      "Ġoccup": 3217,
      "oz": 3218,
      "Ġactor": 3219,
      "uz": 3220,
      "Ġhom": 3221,
      "ĠAngeles": 3222,
      "Ġ1984": 3223,
      "ĠItaly": 3224,
      "Ġtraining": 3225,
      "Ġjournal": 3226,
      "isions": 3227,
      "ada": 3228,
      "Ġrailway": 3229,
      "Ġopt": 3230,
      "Ġmeans": 3231,
      "embly": 3232,
      "Ġnorthern": 3233,
      "Ġnetwork": 3234,
      "based": 3235,
      "Ġtheory": 3236,
      "ĠHistor": 3237,
      "hi": 3238,
      "uated": 3239,
      "ani": 3240,
      "ength": 3241,
      "ĠJun": 3242,
      "Ġplaces": 3243,
      "Ġcompos": 3244,
      "ulture": 3245,
      "Ġactress": 3246,
      "bers": 3247,
      "Ġwinn": 3248,
      "Ġprivate": 3249,
      "Ġscient": 3250,
      "Ġisland": 3251,
      "align": 3252,
      "ked": 3253,
      "eleb": 3254,
      "istics": 3255,
      "Ġ185": 3256,
      "Ġmovement": 3257,
      "Ġthus": 3258,
      "BA": 3259,
      "Ġsouthern": 3260,
      "Ġdisp": 3261,
      "Con": 3262,
      "Ġtransfer": 3263,
      "yr": 3264,
      "ĠPenn": 3265,
      "Ġartists": 3266,
      "ĠClass": 3267,
      "Ġdaughter": 3268,
      "Ġword": 3269,
      "Ġflow": 3270,
      "Early": 3271,
      "ĠSuper": 3272,
      "ises": 3273,
      "Ġimm": 3274,
      "ĠForce": 3275,
      "Ġfinished": 3276,
      "Ġaverage": 3277,
      "Ġreached": 3278,
      "Ġinterest": 3279,
      "Ġbrought": 3280,
      "oper": 3281,
      "Ġpers": 3282,
      "Ġcenter": 3283,
      "ĠMass": 3284,
      "ĠCons": 3285,
      "vention": 3286,
      "Ġfood": 3287,
      "ĠOld": 3288,
      "Ġwriter": 3289,
      "bit": 3290,
      "Ġstructure": 3291,
      "Ġhigher": 3292,
      "enced": 3293,
      "ĠBritain": 3294,
      "Ġtourn": 3295,
      "Ġfall": 3296,
      "Ġstage": 3297,
      "ĠWinter": 3298,
      "Ġabs": 3299,
      "Ġboard": 3300,
      "Ġneg": 3301,
      "Ġstre": 3302,
      "Ġinj": 3303,
      "ĠGeorg": 3304,
      "Ġspe": 3305,
      "Ġschol": 3306,
      "Ġriver": 3307,
      "Ġalumni": 3308,
      "Ġlearn": 3309,
      "lier": 3310,
      "ĠHealth": 3311,
      "2000": 3312,
      "aval": 3313,
      "ĠJust": 3314,
      "ĠChicago": 3315,
      "Ġbirth": 3316,
      "fficial": 3317,
      "Ġ:": 3318,
      "board": 3319,
      "Ġplaced": 3320,
      "Ġ1987": 3321,
      "arts": 3322,
      "iences": 3323,
      "Ġoutside": 3324,
      "80": 3325,
      "ĠAnn": 3326,
      "ospital": 3327,
      "Ġcollege": 3328,
      "2006": 3329,
      "Ġden": 3330,
      "sych": 3331,
      "Ġmedia": 3332,
      "amer": 3333,
      "ĠGra": 3334,
      "Ġallowed": 3335,
      "Ġtraditional": 3336,
      "ĠDen": 3337,
      "antic": 3338,
      "Ġrad": 3339,
      "Ġaction": 3340,
      "ooks": 3341,
      "ny": 3342,
      "Ġaccording": 3343,
      "Ġvocals": 3344,
      "Ġloss": 3345,
      "Ġ1983": 3346,
      "alled": 3347,
      "ĠMod": 3348,
      "Ġchanged": 3349,
      "ĠCast": 3350,
      "Ġdeterm": 3351,
      "Ġwriters": 3352,
      "Ġdocument": 3353,
      "rang": 3354,
      "ero": 3355,
      "Ġtax": 3356,
      "ication": 3357,
      "Ġhit": 3358,
      "Ġdram": 3359,
      "ado": 3360,
      "bur": 3361,
      "Ġ1950": 3362,
      "ĠSir": 3363,
      "ĠCommission": 3364,
      "ounter": 3365,
      "Ġcreat": 3366,
      "Ġcut": 3367,
      "ils": 3368,
      "Ġbank": 3369,
      "Ġ1982": 3370,
      "inct": 3371,
      "aters": 3372,
      "ola": 3373,
      "Ġveh": 3374,
      "ĠParis": 3375,
      "ĠPe": 3376,
      "List": 3377,
      "Ġnuc": 3378,
      "ĠSqu": 3379,
      "Ġenergy": 3380,
      "Ġuses": 3381,
      "ye": 3382,
      "Ġarmy": 3383,
      "Ġtravel": 3384,
      "oses": 3385,
      "Ġscience": 3386,
      "stra": 3387,
      "ender": 3388,
      "Ġgoal": 3389,
      "ĠFlorida": 3390,
      "ibility": 3391,
      "Ã¤": 3392,
      "ription": 3393,
      "known": 3394,
      "Ġmanufact": 3395,
      "Ġchampionship": 3396,
      "ĠDis": 3397,
      "Ġrelated": 3398,
      "Ġcurrently": 3399,
      "asion": 3400,
      "ĠGovernment": 3401,
      "ĠColumbia": 3402,
      "osoph": 3403,
      "Ind": 3404,
      "Ġrelationship": 3405,
      "Ġstated": 3406,
      "Ġprison": 3407,
      "Ġsoft": 3408,
      "ros": 3409,
      "Ġ184": 3410,
      "Ġawarded": 3411,
      "Ġfarm": 3412,
      "Ġindustry": 3413,
      "reme": 3414,
      "Ġsection": 3415,
      "During": 3416,
      "Ġplant": 3417,
      "ĠAlthough": 3418,
      "ĠDel": 3419,
      "Ġcolon": 3420,
      "Ġassociated": 3421,
      "ĠEv": 3422,
      "ĠCamp": 3423,
      "ĠParliament": 3424,
      "ened": 3425,
      "Ġnight": 3426,
      "Ġeth": 3427,
      "Ġproducer": 3428,
      "ĠMin": 3429,
      "ĠMil": 3430,
      "ultural": 3431,
      "Ġunits": 3432,
      "Ph": 3433,
      "ĠDu": 3434,
      "Ġsex": 3435,
      "ĠSaint": 3436,
      "Ġindependent": 3437,
      "ĠCarl": 3438,
      "Ġenvironment": 3439,
      "ĠEducation": 3440,
      "ky": 3441,
      "elled": 3442,
      "ademic": 3443,
      "Ġadop": 3444,
      "enth": 3445,
      "Ġself": 3446,
      "Ġreligious": 3447,
      "Ġ1981": 3448,
      "189": 3449,
      "Ġball": 3450,
      "ĠBrazil": 3451,
      "Ġtransport": 3452,
      "ĠSwed": 3453,
      "ette": 3454,
      "Ġ1976": 3455,
      "Ġconcern": 3456,
      "well": 3457,
      "Ġnewsp": 3458,
      "Ġarm": 3459,
      "Ġdecided": 3460,
      "Ġsuper": 3461,
      "Ġclosed": 3462,
      "ta": 3463,
      "Ġreading": 3464,
      "Ġesc": 3465,
      "Ġinstr": 3466,
      "RA": 3467,
      "Ġbeginning": 3468,
      "Ġoperations": 3469,
      "change": 3470,
      "Ġancient": 3471,
      "ficult": 3472,
      "Ġremov": 3473,
      "Ġrequired": 3474,
      "Ġeconomic": 3475,
      "Ġpurch": 3476,
      "ulf": 3477,
      "heast": 3478,
      "Ġprimary": 3479,
      "Ġtrade": 3480,
      "Ġtext": 3481,
      "igan": 3482,
      "ĠWales": 3483,
      "Ġquest": 3484,
      "umm": 3485,
      "English": 3486,
      "Ġgra": 3487,
      "ĠMost": 3488,
      "Ġremains": 3489,
      "Ġdeal": 3490,
      "ĠBook": 3491,
      "ĠScotland": 3492,
      "Ġleader": 3493,
      "ĠStev": 3494,
      "Te": 3495,
      "anned": 3496,
      "Ġterms": 3497,
      "Ġtowards": 3498,
      "ĠAlb": 3499,
      "Ġcred": 3500,
      "Ġwind": 3501,
      "Ġmur": 3502,
      "ĠBattle": 3503,
      "Ġcompetition": 3504,
      "ĠMexico": 3505,
      "lying": 3506,
      "Ġforms": 3507,
      "ita": 3508,
      "ancial": 3509,
      "ients": 3510,
      "ollowing": 3511,
      "ĠOl": 3512,
      "Ġindividual": 3513,
      "Ġwood": 3514,
      "ĠĊĊ": 3515,
      "amily": 3516,
      "Ġstaff": 3517,
      "ĠStar": 3518,
      "2005": 3519,
      "Ġhor": 3520,
      "Ġfourth": 3521,
      "Notes": 3522,
      "Ġlanguages": 3523,
      "Ġever": 3524,
      "oke": 3525,
      "Ġcollect": 3526,
      "Ġhighest": 3527,
      "usp": 3528,
      "Ġver": 3529,
      "Ġspeed": 3530,
      "Ġearlier": 3531,
      "Ġdifficult": 3532,
      "ĠIsrael": 3533,
      "Ġruns": 3534,
      "Ġbehind": 3535,
      "Ġchem": 3536,
      "not": 3537,
      "Ġcomplete": 3538,
      "Ġminor": 3539,
      "Ġpreviously": 3540,
      "Ġtoo": 3541,
      "ĠOff": 3542,
      "Ġthought": 3543,
      "ctor": 3544,
      "Ġbur": 3545,
      "ĠOper": 3546,
      "itiz": 3547,
      "FA": 3548,
      "Ġwinning": 3549,
      "Ġhum": 3550,
      "ĠTwo": 3551,
      "ties": 3552,
      "urt": 3553,
      "hire": 3554,
      "Ġcommercial": 3555,
      "Ġfemale": 3556,
      "ĠJersey": 3557,
      "Ġwriting": 3558,
      "ĠMill": 3559,
      "ĠDo": 3560,
      "Ġmusical": 3561,
      "ĠJim": 3562,
      "Ġlittle": 3563,
      "ĠProvince": 3564,
      "Ġlo": 3565,
      "ura": 3566,
      "ĠSeries": 3567,
      "Ġstop": 3568,
      "mark": 3569,
      "ols": 3570,
      "Ġsen": 3571,
      "ĠEr": 3572,
      "Ġdefeated": 3573,
      "Ġlet": 3574,
      "Ġincreased": 3575,
      "ready": 3576,
      "Ġconstruct": 3577,
      "ylvan": 3578,
      "Ġpolice": 3579,
      "Ġlimited": 3580,
      "Ġcou": 3581,
      "Ġ1972": 3582,
      "Ġapplic": 3583,
      "akistan": 3584,
      "osing": 3585,
      "ĠBul": 3586,
      "ĠDirect": 3587,
      "ĠFre": 3588,
      "ams": 3589,
      "Ġ1978": 3590,
      "Ġprob": 3591,
      "ĠIII": 3592,
      "Ġpoet": 3593,
      "eff": 3594,
      "ĠCamb": 3595,
      "ĠEarth": 3596,
      "Ġlocation": 3597,
      "Ġaltern": 3598,
      "iant": 3599,
      "ify": 3600,
      "Ġnames": 3601,
      "Ġfif": 3602,
      "Ġpersonal": 3603,
      "Ġcollection": 3604,
      "Ġreferred": 3605,
      "ĠPublic": 3606,
      "ĠMartin": 3607,
      "Ġsaf": 3608,
      "ned": 3609,
      "erry": 3610,
      "ecial": 3611,
      "ares": 3612,
      "ysis": 3613,
      "70": 3614,
      "ĠAsia": 3615,
      "ĠAwards": 3616,
      "Ġended": 3617,
      "rast": 3618,
      "ĠAv": 3619,
      "Ġliving": 3620,
      "Ġinteg": 3621,
      "Ġsequ": 3622,
      "atform": 3623,
      "Ġcrick": 3624,
      "Ġcome": 3625,
      "Ġmeaning": 3626,
      "ĠIrish": 3627,
      "Ġactive": 3628,
      "Ġroute": 3629,
      "ĠLove": 3630,
      "Ġmunicipality": 3631,
      "Ġsize": 3632,
      "den": 3633,
      "erve": 3634,
      "uals": 3635,
      "ĠDutch": 3636,
      "gl": 3637,
      "35": 3638,
      "Ġcell": 3639,
      "Ġdestroy": 3640,
      "Ġnumbers": 3641,
      "Ġedition": 3642,
      "ĠAlbert": 3643,
      "Ġscreen": 3644,
      "ĠMa": 3645,
      "ĠBig": 3646,
      "Ġemer": 3647,
      "ĠSun": 3648,
      "Ġmagazine": 3649,
      "ĠLiber": 3650,
      "hold": 3651,
      "Ġclear": 3652,
      "Ġceleb": 3653,
      "igr": 3654,
      "Ġevidence": 3655,
      "Ġdig": 3656,
      "Other": 3657,
      "Ġapproximately": 3658,
      "Ġcentre": 3659,
      "Ġrate": 3660,
      "ĠInc": 3661,
      "Ġinsp": 3662,
      "ĠPortug": 3663,
      "lo": 3664,
      "atively": 3665,
      "ĠPan": 3666,
      "ato": 3667,
      "Ġord": 3668,
      "Ġconcept": 3669,
      "Ġkeep": 3670,
      "ĠBase": 3671,
      "Ġnar": 3672,
      "Ġpercent": 3673,
      "iÄ": 3674,
      "Ġsurround": 3675,
      "Ġchanges": 3676,
      "ĠLand": 3677,
      "ĠTechn": 3678,
      "Ġsoon": 3679,
      "ĠDemocr": 3680,
      "Ġadditional": 3681,
      "Ġsat": 3682,
      "itors": 3683,
      "ĠLatin": 3684,
      "with": 3685,
      "ĠJack": 3686,
      "Ġ1974": 3687,
      "Ġcand": 3688,
      "ĠBob": 3689,
      "Ġcomplet": 3690,
      "Ġmostly": 3691,
      "za": 3692,
      "Ġbass": 3693,
      "ano": 3694,
      "ĠCongress": 3695,
      "ario": 3696,
      "Ġmove": 3697,
      "Ġfuture": 3698,
      "Ġamount": 3699,
      "ĠSea": 3700,
      "nes": 3701,
      "Ġpen": 3702,
      "oma": 3703,
      "Ġbox": 3704,
      "ĠSummer": 3705,
      "uries": 3706,
      "ĠSouthern": 3707,
      "Ġwhom": 3708,
      "anguage": 3709,
      "Ġdegree": 3710,
      "ules": 3711,
      "Ġlook": 3712,
      "band": 3713,
      "gypt": 3714,
      "ĠRadio": 3715,
      "Ġtemper": 3716,
      "Ġqual": 3717,
      "Ġparent": 3718,
      "Ġdom": 3719,
      "ĠSpain": 3720,
      "Ġcomputer": 3721,
      "Ġcaused": 3722,
      "irit": 3723,
      "Ġ1975": 3724,
      "rative": 3725,
      "ĠFred": 3726,
      "ĠTro": 3727,
      "pped": 3728,
      "Ġlarger": 3729,
      "illa": 3730,
      "isation": 3731,
      "Ge": 3732,
      "mond": 3733,
      "wer": 3734,
      "ift": 3735,
      "Ġbreak": 3736,
      "orpor": 3737,
      "Ġmer": 3738,
      "Ġelements": 3739,
      "Ġlonger": 3740,
      "standing": 3741,
      "Ġestim": 3742,
      "Ġcases": 3743,
      "uffer": 3744,
      "Ġtournament": 3745,
      "Ġmission": 3746,
      "Ġlack": 3747,
      "Ġprem": 3748,
      "Ã³n": 3749,
      "Ġparticularly": 3750,
      "Ġbelow": 3751,
      "ĠIll": 3752,
      "Ġartist": 3753,
      "Ġmajority": 3754,
      "Ġreve": 3755,
      "bra": 3756,
      "Ġspecific": 3757,
      "acing": 3758,
      "Ġalready": 3759,
      "bury": 3760,
      "aring": 3761,
      "Ġsummer": 3762,
      "Ġunivers": 3763,
      "Ġnumerous": 3764,
      "ĠHow": 3765,
      "Ġ1977": 3766,
      "ih": 3767,
      "Åį": 3768,
      "Ġexam": 3769,
      "ĠJoseph": 3770,
      "Ġmention": 3771,
      "ansas": 3772,
      "ĠJewish": 3773,
      "ĠScottish": 3774,
      "ĠEastern": 3775,
      "ĠArts": 3776,
      "ĠDou": 3777,
      "Ġgrand": 3778,
      "incial": 3779,
      "Ġprior": 3780,
      "ĠFort": 3781,
      "ĠAlexander": 3782,
      "king": 3783,
      "ĠBas": 3784,
      "Ġnomin": 3785,
      "reater": 3786,
      "ylvania": 3787,
      "Ġdivision": 3788,
      "ĠMiddle": 3789,
      "ections": 3790,
      "Ġconsider": 3791,
      "ali": 3792,
      "Ġstudies": 3793,
      "Ġhockey": 3794,
      "venue": 3795,
      "ca": 3796,
      "Ġpractice": 3797,
      "Ġtoday": 3798,
      "Ġscored": 3799,
      "ÅŁ": 3800,
      "ĠValley": 3801,
      "Ġpay": 3802,
      "Ġshot": 3803,
      "obal": 3804,
      "sen": 3805,
      "rown": 3806,
      "Ġdraw": 3807,
      "Ġnorm": 3808,
      "ĠPre": 3809,
      "ĠIslam": 3810,
      "ĠPac": 3811,
      "Ġindic": 3812,
      "ĠOut": 3813,
      "Ġowned": 3814,
      "ĠSil": 3815,
      "retary": 3816,
      "isco": 3817,
      "Ġanti": 3818,
      "cing": 3819,
      "Ġseasons": 3820,
      "ĠDef": 3821,
      "ĠScience": 3822,
      "oring": 3823,
      "ĠOlympic": 3824,
      "irm": 3825,
      "azz": 3826,
      "ĠSystem": 3827,
      "Ġunit": 3828,
      "ipl": 3829,
      "Ġequip": 3830,
      "Ġast": 3831,
      "aria": 3832,
      "ault": 3833,
      "Ġsource": 3834,
      "Ġfe": 3835,
      "Ġpurp": 3836,
      "uff": 3837,
      "Ġmach": 3838,
      "ĠUp": 3839,
      "Ġcities": 3840,
      "Ġbound": 3841,
      "ĠYoung": 3842,
      "ĠFestival": 3843,
      "Ġwestern": 3844,
      "Ġbaseball": 3845,
      "la": 3846,
      "Ġ1968": 3847,
      "ĠSocial": 3848,
      "ĠRussia": 3849,
      "Ġcontains": 3850,
      "Ġnoted": 3851,
      "Ġens": 3852,
      "ocal": 3853,
      "urban": 3854,
      "ĠChampionships": 3855,
      "Ġmultiple": 3856,
      "Ġtaking": 3857,
      "ĠProt": 3858,
      "fit": 3859,
      "Ġthemsel": 3860,
      "Ġthemselves": 3861,
      "33": 3862,
      "cel": 3863,
      "Ġforest": 3864,
      "aled": 3865,
      "stein": 3866,
      "adel": 3867,
      "ĠTim": 3868,
      "ĠWood": 3869,
      "Ġlog": 3870,
      "rying": 3871,
      "ĠTimes": 3872,
      "Ġmoney": 3873,
      "ĠVirginia": 3874,
      "Ġsom": 3875,
      "overs": 3876,
      "Ġlength": 3877,
      "oston": 3878,
      "asy": 3879,
      "Ġlines": 3880,
      "izing": 3881,
      "Ġstudio": 3882,
      "ĠTurkey": 3883,
      "Ġinvestig": 3884,
      "emporary": 3885,
      "rief": 3886,
      "Ġissues": 3887,
      "Ġseparate": 3888,
      "Ġsurface": 3889,
      "oir": 3890,
      "ĠSur": 3891,
      "Ġ1971": 3892,
      "Ġice": 3893,
      "uan": 3894,
      "Ġappearance": 3895,
      "ĠLab": 3896,
      "iled": 3897,
      "iance": 3898,
      "ĠFound": 3899,
      "Ġbelieved": 3900,
      "Bl": 3901,
      "Ġ1969": 3902,
      "Ġprograms": 3903,
      "ĠRailway": 3904,
      "ĠSince": 3905,
      "Ġlegal": 3906,
      "ctions": 3907,
      "ĠMuslim": 3908,
      "Ġded": 3909,
      "uge": 3910,
      "Ġmunicipal": 3911,
      "rich": 3912,
      "Ġfamous": 3913,
      "irds": 3914,
      "ĠSa": 3915,
      "ĠSat": 3916,
      "ĠNavy": 3917,
      "ums": 3918,
      "ĠLife": 3919,
      "ĠSI": 3920,
      "resp": 3921,
      "Ġopening": 3922,
      "Ġmight": 3923,
      "put": 3924,
      "win": 3925,
      "Ġ1973": 3926,
      "ĠCD": 3927,
      "ongs": 3928,
      "ki": 3929,
      "Ġbig": 3930,
      "ĠCivil": 3931,
      "omer": 3932,
      "2004": 3933,
      "burgh": 3934,
      "ĠPakistan": 3935,
      "Ġess": 3936,
      "izations": 3937,
      "chester": 3938,
      "Ġcust": 3939,
      "ety": 3940,
      "erem": 3941,
      "Ġinfluence": 3942,
      "ĠSub": 3943,
      "ua": 3944,
      "anning": 3945,
      "uty": 3946,
      "Ġelev": 3947,
      "mm": 3948,
      "BS": 3949,
      "Ġspent": 3950,
      "Ġoil": 3951,
      "Ġsuffer": 3952,
      "Ġlived": 3953,
      "ĠHaw": 3954,
      "Ġpromot": 3955,
      "Ġfeature": 3956,
      "ĠBudd": 3957,
      "onse": 3958,
      "Ġbetter": 3959,
      "omy": 3960,
      "ĠEgypt": 3961,
      "Ġimmedi": 3962,
      "ider": 3963,
      "Ġappears": 3964,
      "Ġ60": 3965,
      "ĠAre": 3966,
      "ĠMr": 3967,
      "Ġbecoming": 3968,
      "ĠPrem": 3969,
      "ĠOh": 3970,
      "Ġremain": 3971,
      "Can": 3972,
      "Ġvalue": 3973,
      "ady": 3974,
      "Ġextended": 3975,
      "Ġdomin": 3976,
      "isk": 3977,
      "AR": 3978,
      "Ġforeign": 3979,
      "eds": 3980,
      "wan": 3981,
      "ications": 3982,
      "akers": 3983,
      "itation": 3984,
      "Ġbatt": 3985,
      "Ġdate": 3986,
      "Ġissue": 3987,
      "ĠLord": 3988,
      "ĠElect": 3989,
      "Ġvariety": 3990,
      "ĠDi": 3991,
      "rif": 3992,
      "iana": 3993,
      "Ġlisted": 3994,
      "icians": 3995,
      "ĠSol": 3996,
      "ĠOx": 3997,
      "Ġmechan": 3998,
      "Ġstatus": 3999,
      "ken": 4000,
      "ĠBank": 4001,
      "Ġalign": 4002,
      "ĠLee": 4003,
      "ledge": 4004,
      "Ġpassed": 4005,
      "Ġclubs": 4006,
      "ĠIf": 4007,
      "ĠPrize": 4008,
      "Ġvictory": 4009,
      "Ġgive": 4010,
      "ĠThat": 4011,
      "rate": 4012,
      "Ġorganization": 4013,
      "Ġven": 4014,
      "ĠKent": 4015,
      "kins": 4016,
      "ears": 4017,
      "riage": 4018,
      "gent": 4019,
      "ĠCommittee": 4020,
      "ĠBre": 4021,
      "Ġplatform": 4022,
      "ĠNews": 4023,
      "Ġrepresented": 4024,
      "Ġmem": 4025,
      "Ġsusp": 4026,
      "Ġrecent": 4027,
      "writer": 4028,
      "ĠInt": 4029,
      "Ġ1964": 4030,
      "inals": 4031,
      "Ġ1945": 4032,
      "een": 4033,
      "Ġconfl": 4034,
      "90": 4035,
      "Ġincrease": 4036,
      "anda": 4037,
      "Ġalways": 4038,
      "Col": 4039,
      "Ġwide": 4040,
      "ips": 4041,
      "Ġexhib": 4042,
      "Ġtradition": 4043,
      "ĠSund": 4044,
      "Ġthreat": 4045,
      "Comp": 4046,
      "ĠQueen": 4047,
      "bed": 4048,
      "uses": 4049,
      "sylvania": 4050,
      "Ġrequire": 4051,
      "Ġunion": 4052,
      "ĠJud": 4053,
      "Ġactors": 4054,
      "tained": 4055,
      "Ġactivities": 4056,
      "Ġrunning": 4057,
      "house": 4058,
      "Ġproperty": 4059,
      "ĠMany": 4060,
      "Ġstudent": 4061,
      "ampion": 4062,
      "Ġsea": 4063,
      "ective": 4064,
      "Ġ2023": 4065,
      "level": 4066,
      "ĠSar": 4067,
      "Ġrule": 4068,
      "oute": 4069,
      "Ġexc": 4070,
      "ublican": 4071,
      "ĠBroad": 4072,
      "arden": 4073,
      "Ġbene": 4074,
      "ricts": 4075,
      "Ġwords": 4076,
      "left": 4077,
      "ĠMid": 4078,
      "iro": 4079,
      "ping": 4080,
      "Ġdiscuss": 4081,
      "Ġbridge": 4082,
      "anced": 4083,
      "axim": 4084,
      "ĠAz": 4085,
      "Ġran": 4086,
      "Ġdu": 4087,
      "ĠSer": 4088,
      "Ġdouble": 4089,
      "Ġdesp": 4090,
      "75": 4091,
      "ĠRos": 4092,
      "irls": 4093,
      "Ġseat": 4094,
      "ĠMah": 4095,
      "Ġforced": 4096,
      "espite": 4097,
      "Person": 4098,
      "Ġmetal": 4099,
      "SP": 4100,
      "Ġdise": 4101,
      "34": 4102,
      "ĠOtt": 4103,
      "2007": 4104,
      "Comm": 4105,
      "Ã¨": 4106,
      "Ġproposed": 4107,
      "))": 4108,
      "Ġnews": 4109,
      "John": 4110,
      "Ġannual": 4111,
      "Ġstep": 4112,
      "Ġang": 4113,
      "ĠBor": 4114,
      "Ġ1967": 4115,
      "Ġlatter": 4116,
      "wide": 4117,
      "iography": 4118,
      "Ġdon": 4119,
      "ĠBelg": 4120,
      "Ġmurder": 4121,
      "Ġchief": 4122,
      "Ġinh": 4123,
      "velopment": 4124,
      "iano": 4125,
      "ĠGall": 4126,
      "Ġattended": 4127,
      "Ġcandid": 4128,
      "ounds": 4129,
      "Ġcontinu": 4130,
      "inent": 4131,
      "center": 4132,
      "inem": 4133,
      "Ġeastern": 4134,
      "ensus": 4135,
      "Ġattract": 4136,
      "Ġlikely": 4137,
      "38": 4138,
      "Ġ1966": 4139,
      "188": 4140,
      "ydro": 4141,
      "heim": 4142,
      "ĠBab": 4143,
      "ĠMo": 4144,
      "ĠPlay": 4145,
      "eeks": 4146,
      "Ġinitially": 4147,
      "Ġproblems": 4148,
      "Ġgrowth": 4149,
      "ati": 4150,
      "Ġmonth": 4151,
      "inet": 4152,
      "Ġi": 4153,
      "Ġshown": 4154,
      "Ġsources": 4155,
      "Ġhistorical": 4156,
      "Ġconditions": 4157,
      "ĠLong": 4158,
      "Ġ1930": 4159,
      "amm": 4160,
      "Ġsupported": 4161,
      "Ġcourse": 4162,
      "ĠPennsylvania": 4163,
      "2003": 4164,
      "onic": 4165,
      "ĠCub": 4166,
      "press": 4167,
      "stant": 4168,
      "Ġquick": 4169,
      "more": 4170,
      "Ġnecess": 4171,
      "ables": 4172,
      "Ġcommand": 4173,
      "39": 4174,
      "ĠHel": 4175,
      "Ġ1940": 4176,
      "Ġoperated": 4177,
      "enes": 4178,
      "ĠĊĠĊĠĊĠĊ": 4179,
      "ĠHot": 4180,
      "Ġcreate": 4181,
      "acher": 4182,
      "Ġlaunched": 4183,
      "itude": 4184,
      "war": 4185,
      "Ġincreasing": 4186,
      "36": 4187,
      "ĠCarolina": 4188,
      "Ġsingles": 4189,
      "ĠMat": 4190,
      "Ġproducts": 4191,
      "ĠCross": 4192,
      "Ġnature": 4193,
      "Ġentered": 4194,
      "rupt": 4195,
      "ĠBoston": 4196,
      "Ġ1965": 4197,
      "ĠKar": 4198,
      "Ġwoman": 4199,
      "Ġmainly": 4200,
      "Ġdecision": 4201,
      "CC": 4202,
      "down": 4203,
      "All": 4204,
      "iring": 4205,
      "ĠEdward": 4206,
      "ĠBBC": 4207,
      "ĠWind": 4208,
      "Ġprevent": 4209,
      "ĠJo": 4210,
      "Ġtroops": 4211,
      "ella": 4212,
      "Ġoffered": 4213,
      "awa": 4214,
      "Ġspl": 4215,
      "ĠMu": 4216,
      "ias": 4217,
      "ĠCr": 4218,
      "ĠTri": 4219,
      "Ġmakes": 4220,
      "Ġsymb": 4221,
      "ĠTheatre": 4222,
      "Ġdiss": 4223,
      "Ġinterview": 4224,
      "Ġpolicy": 4225,
      "Ġclaimed": 4226,
      "Ġcause": 4227,
      "Ġstructures": 4228,
      "aya": 4229,
      "Med": 4230,
      "No": 4231,
      "ER": 4232,
      "ĠGal": 4233,
      "ĠCard": 4234,
      "Ġtechnology": 4235,
      "agn": 4236,
      "2001": 4237,
      "37": 4238,
      "ĠIslands": 4239,
      "Ġcarried": 4240,
      "Ġfle": 4241,
      "ĠBlue": 4242,
      "ĠAssembly": 4243,
      "Ġdetail": 4244,
      "iÄĩ": 4245,
      "hens": 4246,
      "Ġblood": 4247,
      "bre": 4248,
      "rovers": 4249,
      "Ġdiscovered": 4250,
      "ĠMore": 4251,
      "apers": 4252,
      "ĠHon": 4253,
      "Ġremaining": 4254,
      "ronze": 4255,
      "Ġeffects": 4256,
      "2002": 4257,
      "rison": 4258,
      "ĠCa": 4259,
      "Ġreason": 4260,
      "dis": 4261,
      "ĠWall": 4262,
      "Ġcateg": 4263,
      "ĠBus": 4264,
      "45": 4265,
      "Ġhot": 4266,
      "ĠNot": 4267,
      "ously": 4268,
      "ologist": 4269,
      "ela": 4270,
      "Ġtarg": 4271,
      "Ġrecords": 4272,
      "ĠArmen": 4273,
      "Aust": 4274,
      "Ġtakes": 4275,
      "Ġwhether": 4276,
      "nam": 4277,
      "state": 4278,
      "ĠGood": 4279,
      "col": 4280,
      "uild": 4281,
      "Ġdyn": 4282,
      "shire": 4283,
      "ĠFour": 4284,
      "Ġdirectly": 4285,
      "Ġtransm": 4286,
      "Ġcitiz": 4287,
      "ora": 4288,
      "ograp": 4289,
      "Ġleaving": 4290,
      "ĠMen": 4291,
      "Ġdone": 4292,
      "Ġ1920": 4293,
      "ĠDun": 4294,
      "ĠJul": 4295,
      "irection": 4296,
      "aily": 4297,
      "umber": 4298,
      "nic": 4299,
      "Ġuniversity": 4300,
      "Ġtracks": 4301,
      "Ġcommonly": 4302,
      "Ġop": 4303,
      "Ġexcept": 4304,
      "Ġresponse": 4305,
      "ĠTime": 4306,
      "ĠBerlin": 4307,
      "adron": 4308,
      "obile": 4309,
      "ĠTour": 4310,
      "Ġnearly": 4311,
      "icted": 4312,
      "Ġarrest": 4313,
      "Ġdefin": 4314,
      "ronic": 4315,
      "TA": 4316,
      "Ġfoot": 4317,
      "orph": 4318,
      "owers": 4319,
      "Ġheavy": 4320,
      "itting": 4321,
      "aka": 4322,
      "Ġproduce": 4323,
      "yer": 4324,
      "iga": 4325,
      "Ġrules": 4326,
      "Ġnine": 4327,
      "ĠConf": 4328,
      "astic": 4329,
      "peror": 4330,
      "Å¡": 4331,
      "Ġlegisl": 4332,
      "\"|": 4333,
      "ĠBoard": 4334,
      "ĠResearch": 4335,
      "Ã¸": 4336,
      "ĠDev": 4337,
      "Ġtypes": 4338,
      "adelph": 4339,
      "ĠLine": 4340,
      "Ġsal": 4341,
      "Ġbrief": 4342,
      "hemat": 4343,
      "Ġlic": 4344,
      "Ġcultural": 4345,
      "Rec": 4346,
      "wa": 4347,
      "ĠAk": 4348,
      "Ġmiddle": 4349,
      "ĠCoast": 4350,
      "Ġlevels": 4351,
      "Films": 4352,
      "ĠTre": 4353,
      "ĠHung": 4354,
      "Ġtypically": 4355,
      "Ġcomment": 4356,
      "Ġbrand": 4357,
      "Ġbomb": 4358,
      "ĠTheir": 4359,
      "iger": 4360,
      "Ġalleg": 4361,
      "1990": 4362,
      "Ġasp": 4363,
      "zech": 4364,
      "Further": 4365,
      "ulty": 4366,
      "orship": 4367,
      "ĠFrancisco": 4368,
      "Ġhere": 4369,
      "ĠLu": 4370,
      "Ġfort": 4371,
      "Ġdivided": 4372,
      "Ġhours": 4373,
      "adelphia": 4374,
      "Ġcrew": 4375,
      "ĠCharl": 4376,
      "Ġweeks": 4377,
      "ĠPers": 4378,
      "istance": 4379,
      "Ġwhole": 4380,
      "Ġbehav": 4381,
      "ĠUr": 4382,
      "Ġwidely": 4383,
      "Ġofficer": 4384,
      "47": 4385,
      "Ġblock": 4386,
      "ĠNA": 4387,
      "respond": 4388,
      "ĠPrince": 4389,
      "ko": 4390,
      "Ġlove": 4391,
      "add": 4392,
      "va": 4393,
      "Ġcommission": 4394,
      "Ġmanagement": 4395,
      "Ġprovides": 4396,
      "Ġrugby": 4397,
      "Ġadj": 4398,
      "Ġconsists": 4399,
      "Ġinterp": 4400,
      "ĠMot": 4401,
      "Ġpoor": 4402,
      "ĠVer": 4403,
      "aska": 4404,
      "can": 4405,
      "ĠJones": 4406,
      "Ġlabel": 4407,
      "Ġfederal": 4408,
      "Ġfailed": 4409,
      "ĠSo": 4410,
      "ĠEngine": 4411,
      "Ġprimarily": 4412,
      "yan": 4413,
      "Ġoverall": 4414,
      "Ġfinancial": 4415,
      "inistry": 4416,
      "emorial": 4417,
      "ĠPacific": 4418,
      "riz": 4419,
      "Ġtable": 4420,
      "Ġcode": 4421,
      "31": 4422,
      "ĠConn": 4423,
      "Ġera": 4424,
      "bs": 4425,
      "ĠWal": 4426,
      "Ġsubsequently": 4427,
      "ortun": 4428,
      "Ġsoldiers": 4429,
      "areer": 4430,
      "Ġpsych": 4431,
      "oud": 4432,
      "cean": 4433,
      "ĠCur": 4434,
      "Ġselected": 4435,
      "vement": 4436,
      "isher": 4437,
      "ira": 4438,
      "ackson": 4439,
      "Ġ35": 4440,
      "ĠLim": 4441,
      "ĠTeam": 4442,
      "ĠSpecial": 4443,
      "Brit": 4444,
      "Ġacademic": 4445,
      "Ġproblem": 4446,
      "ishes": 4447,
      "enger": 4448,
      "Ġsister": 4449,
      "ĠKe": 4450,
      "Ġepisodes": 4451,
      "ĠRo": 4452,
      "ĠWay": 4453,
      "encies": 4454,
      "ĠWomen": 4455,
      "Ġsilver": 4456,
      "Ġacquired": 4457,
      "ĠMos": 4458,
      "ĠUl": 4459,
      "alle": 4460,
      "etts": 4461,
      "weg": 4462,
      "umed": 4463,
      "Ġterritory": 4464,
      "Ġconver": 4465,
      "Ġdeep": 4466,
      "ĠChief": 4467,
      "With": 4468,
      "Ġsmaller": 4469,
      "Ġdespite": 4470,
      "Ġrecording": 4471,
      "Ġsociety": 4472,
      "ĠMajor": 4473,
      "onia": 4474,
      "Ġautom": 4475,
      "ĠMcC": 4476,
      "ĠMichigan": 4477,
      "Ġlaws": 4478,
      "Ġcommunities": 4479,
      "Ġsoftware": 4480,
      "riate": 4481,
      "ĠDie": 4482,
      "ĠProfess": 4483,
      "ĠJr": 4484,
      "Ġunc": 4485,
      "Ġinn": 4486,
      "Ġ1963": 4487,
      "ĠJohnson": 4488,
      "Ġscore": 4489,
      "people": 4490,
      "Ġliterature": 4491,
      "ĠCorn": 4492,
      "ĠUnivers": 4493,
      "ĠGeorgia": 4494,
      "ilies": 4495,
      "1999": 4496,
      "Ġcouncil": 4497,
      "Ġborder": 4498,
      "Ġpil": 4499,
      "acity": 4500,
      "Ġ1962": 4501,
      "ĠNight": 4502,
      "iform": 4503,
      "phy": 4504,
      "Ġgoals": 4505,
      "Ġturned": 4506,
      "Ġinitial": 4507,
      "ĠArm": 4508,
      "Ġâ": 4509,
      "Ġconcent": 4510,
      "ĠUnder": 4511,
      "Ġagric": 4512,
      "ĠConference": 4513,
      "ĠIran": 4514,
      "IA": 4515,
      "Ġpresented": 4516,
      "Ġrat": 4517,
      "Ġweap": 4518,
      "uate": 4519,
      "Ġ|": 4520,
      "32": 4521,
      "ĠOhio": 4522,
      "Is": 4523,
      "range": 4524,
      "ĠOxford": 4525,
      "2010": 4526,
      "teen": 4527,
      "Ġfinally": 4528,
      "ellig": 4529,
      "arry": 4530,
      "undred": 4531,
      "imal": 4532,
      "class": 4533,
      "ĠAdm": 4534,
      "illed": 4535,
      "etro": 4536,
      "ervation": 4537,
      "ĠPeople": 4538,
      "aine": 4539,
      "Ġaffili": 4540,
      "Ġretired": 4541,
      "When": 4542,
      "apl": 4543,
      "Ġoperation": 4544,
      "aith": 4545,
      "ĠLibrary": 4546,
      "Ġdefeat": 4547,
      "SC": 4548,
      "Ġox": 4549,
      "Ġserving": 4550,
      "arters": 4551,
      "95": 4552,
      "Ġpit": 4553,
      "iy": 4554,
      "Ġminutes": 4555,
      "tra": 4556,
      "Ġperm": 4557,
      "Trans": 4558,
      "Ġmuseum": 4559,
      "Ġmedical": 4560,
      "Ġphysical": 4561,
      "ĠBern": 4562,
      "place": 4563,
      "Ġidea": 4564,
      "cles": 4565,
      "Ġvon": 4566,
      "ĠStep": 4567,
      "ĠWeb": 4568,
      "Ġeditor": 4569,
      "Ġgoing": 4570,
      "ĠMatt": 4571,
      "Ġdisplay": 4572,
      "Ġenough": 4573,
      "inated": 4574,
      "Ġimplement": 4575,
      "ĠRome": 4576,
      "ja": 4577,
      "ĠPo": 4578,
      "Ġchall": 4579,
      "Ġships": 4580,
      "Ġgod": 4581,
      "ession": 4582,
      "ĠBang": 4583,
      "Ġmerg": 4584,
      "Ġdial": 4585,
      "ĠGree": 4586,
      "Ġcard": 4587,
      "Ġbring": 4588,
      "Ġonline": 4589,
      "Mar": 4590,
      "illy": 4591,
      "fect": 4592,
      "Ġplants": 4593,
      "achus": 4594,
      "ĠChild": 4595,
      "ais": 4596,
      "Ġkind": 4597,
      "Ġappl": 4598,
      "lav": 4599,
      "ennis": 4600,
      "Ġprogramming": 4601,
      "Ġpath": 4602,
      "ĠBat": 4603,
      "Ġregions": 4604,
      "present": 4605,
      "ĠShow": 4606,
      "Ġmovie": 4607,
      "ĠRel": 4608,
      "poration": 4609,
      "Ġjob": 4610,
      "light": 4611,
      "Ġbasis": 4612,
      "ĠBal": 4613,
      "Not": 4614,
      "186": 4615,
      "From": 4616,
      "ivity": 4617,
      "ully": 4618,
      "Ġcoaches": 4619,
      "adian": 4620,
      "osophy": 4621,
      "yt": 4622,
      "Ġdro": 4623,
      "Ġresponsible": 4624,
      "Ġult": 4625,
      "Ġbeat": 4626,
      "Ġplans": 4627,
      "Ġformat": 4628,
      "Ġsenior": 4629,
      "Ġcomedy": 4630,
      "Ġsport": 4631,
      "ĠAsh": 4632,
      "ĠHuman": 4633,
      "Ġstarting": 4634,
      "rolled": 4635,
      "Ġaddress": 4636,
      "Le": 4637,
      "Ġdead": 4638,
      "abeth": 4639,
      "idae": 4640,
      "iece": 4641,
      "Ġhighly": 4642,
      "Ġcomposed": 4643,
      "ĠGame": 4644,
      "Ġchannel": 4645,
      "Ġhelped": 4646,
      "ĠJournal": 4647,
      "ĠBet": 4648,
      "stitution": 4649,
      "inois": 4650,
      "Ġreact": 4651,
      "Ġgas": 4652,
      "eld": 4653,
      "ĠOs": 4654,
      "ĠBell": 4655,
      "Ġexperience": 4656,
      "Ġestimated": 4657,
      "no": 4658,
      "Ġbr": 4659,
      "ĠOver": 4660,
      "Ġdistinct": 4661,
      "Ġdrug": 4662,
      "agh": 4663,
      "ĠBand": 4664,
      "Ġscholars": 4665,
      "Ġnewspaper": 4666,
      "Pop": 4667,
      "str": 4668,
      "Ã¡n": 4669,
      "Music": 4670,
      "chen": 4671,
      "2008": 4672,
      "Ġregional": 4673,
      "ĠAdd": 4674,
      "Ġcharg": 4675,
      "mann": 4676,
      "ĊĊĠ": 4677,
      "ĠViet": 4678,
      "Ġplays": 4679,
      "99": 4680,
      "Sports": 4681,
      "ĠCentre": 4682,
      "Ġcontinue": 4683,
      "ĠPolish": 4684,
      "LA": 4685,
      "ĠHa": 4686,
      "Ġelement": 4687,
      "ĠLater": 4688,
      "org": 4689,
      "Ġintended": 4690,
      "ĠEnter": 4691,
      "chestra": 4692,
      "Ġarticle": 4693,
      "ĠWater": 4694,
      "yth": 4695,
      "ĠPhiladelphia": 4696,
      "Ġrap": 4697,
      "Ġcolor": 4698,
      "akh": 4699,
      "ĠGovernor": 4700,
      "ging": 4701,
      "Ġfigure": 4702,
      "Ġbecomes": 4703,
      "ĠTw": 4704,
      "48": 4705,
      "ĠJac": 4706,
      "aven": 4707,
      "which": 4708,
      "olis": 4709,
      "ĠWilliams": 4710,
      "Ġquarter": 4711,
      "achusetts": 4712,
      "ntario": 4713,
      "Ġfocus": 4714,
      "Ġdepart": 4715,
      "ĠVictoria": 4716,
      "Ġsucceed": 4717,
      "Ġdra": 4718,
      "Ġhol": 4719,
      "Ġincorpor": 4720,
      "ĠJews": 4721,
      "ĠJustice": 4722,
      "ĠJackson": 4723,
      "Ġlargely": 4724,
      "Ġsites": 4725,
      "rice": 4726,
      "United": 4727,
      "itage": 4728,
      "urd": 4729,
      "Man": 4730,
      "ww": 4731,
      "Ġcat": 4732,
      "thur": 4733,
      "odies": 4734,
      "ighter": 4735,
      "Ġcorrespond": 4736,
      "Ġ)": 4737,
      "ĠRoute": 4738,
      "Ġ+": 4739,
      "ĠAvenue": 4740,
      "ĠAndrew": 4741,
      "Ġhouses": 4742,
      "Ġadopted": 4743,
      "ĠBaseball": 4744,
      "Ġshare": 4745,
      "Ġnuclear": 4746,
      "ĠLuc": 4747,
      "Ġroom": 4748,
      "Ġ1944": 4749,
      "55": 4750,
      "olved": 4751,
      "Ġcontrovers": 4752,
      "ĠBa": 4753,
      "British": 4754,
      "ulpt": 4755,
      "National": 4756,
      "ĠNorway": 4757,
      "ĠÅ": 4758,
      "Ġeconomy": 4759,
      "ĠDec": 4760,
      "formed": 4761,
      "Ġtreatment": 4762,
      "Ġconstructed": 4763,
      "Ġrenamed": 4764,
      "Ġcollabor": 4765,
      "ĠTop": 4766,
      "Ġnative": 4767,
      "Ġcombined": 4768,
      "ĠKorea": 4769,
      "ĠCy": 4770,
      "Ġmatches": 4771,
      "acter": 4772,
      "ĠBir": 4773,
      "text": 4774,
      "bro": 4775,
      "ĠLittle": 4776,
      "opher": 4777,
      "Ġtherefore": 4778,
      "ĠSports": 4779,
      "Ġ1948": 4780,
      "Ġmodels": 4781,
      "ĠGh": 4782,
      "see": 4783,
      "Ġpeak": 4784,
      "Ġelectric": 4785,
      "ĠMov": 4786,
      "ederation": 4787,
      "According": 4788,
      "Ġvoice": 4789,
      "ĠBuild": 4790,
      "ĠVan": 4791,
      "Ġability": 4792,
      "ĠStan": 4793,
      "Ġacid": 4794,
      "Ġslow": 4795,
      "ocks": 4796,
      "187": 4797,
      "enant": 4798,
      "Ġdirection": 4799,
      "Ġprec": 4800,
      "ĠBoy": 4801,
      "ĠOf": 4802,
      "Ġprovince": 4803,
      "Ġcoin": 4804,
      "duce": 4805,
      "Ġstudied": 4806,
      "ĠJunior": 4807,
      "Ġreplace": 4808,
      "ĠRog": 4809,
      "ucky": 4810,
      "Ġprogress": 4811,
      "Ġdeliver": 4812,
      "Ġmentioned": 4813,
      "ĠHor": 4814,
      "Ġofficers": 4815,
      "Ġshoot": 4816,
      "Ã¼r": 4817,
      "ansion": 4818,
      "ĠBoth": 4819,
      "Ġ1958": 4820,
      "rance": 4821,
      "ĠTrust": 4822,
      "Ġbranch": 4823,
      "Ġraised": 4824,
      "rier": 4825,
      "Ġ1961": 4826,
      "ĠRepublican": 4827,
      "track": 4828,
      "ibli": 4829,
      "Ġremoved": 4830,
      "Ġassistant": 4831,
      "ĠJoe": 4832,
      "Ġnearby": 4833,
      "icks": 4834,
      "ĠBridge": 4835,
      "MA": 4836,
      "2009": 4837,
      "Ġ80": 4838,
      "Ġpotential": 4839,
      "igen": 4840,
      "Se": 4841,
      "ambig": 4842,
      "Ġmanaged": 4843,
      "Ġnation": 4844,
      "1998": 4845,
      "ĠOk": 4846,
      "Ġneighbor": 4847,
      "ĠBos": 4848,
      "olitan": 4849,
      "ID": 4850,
      "Ġletter": 4851,
      "inger": 4852,
      "ĠRay": 4853,
      "Ġpresence": 4854,
      "Ġanalysis": 4855,
      "wegian": 4856,
      "FC": 4857,
      "edom": 4858,
      "force": 4859,
      "ĠIllinois": 4860,
      "Ġrepe": 4861,
      "Ġcompared": 4862,
      "enty": 4863,
      "Ġprin": 4864,
      "Ġmeeting": 4865,
      "Ġheart": 4866,
      "ador": 4867,
      "ĠPower": 4868,
      "ibly": 4869,
      "aging": 4870,
      "ĠBol": 4871,
      "Ġprote": 4872,
      "Ġcovered": 4873,
      "Or": 4874,
      "ube": 4875,
      "Ġchair": 4876,
      "ĠÂ£": 4877,
      "Ġquestion": 4878,
      "Ġdescent": 4879,
      "ĠSyd": 4880,
      "bourne": 4881,
      "Ġversions": 4882,
      "ĠRevolution": 4883,
      "etherlands": 4884,
      "1997": 4885,
      "Ġut": 4886,
      "Ġasked": 4887,
      "Ġyet": 4888,
      "Ġpaint": 4889,
      "ĠKong": 4890,
      "Ġrare": 4891,
      "Ġcounty": 4892,
      "EC": 4893,
      "ners": 4894,
      "Ġour": 4895,
      "ĠEnd": 4896,
      "Ġface": 4897,
      "Ġstrateg": 4898,
      "agon": 4899,
      "wick": 4900,
      "ĠGar": 4901,
      "Ġgun": 4902,
      "ĠWild": 4903,
      "ĠCroat": 4904,
      "Ġoperating": 4905,
      "Ġsettlement": 4906,
      "Ġleave": 4907,
      "ĠOntario": 4908,
      "Ġdemonst": 4909,
      "ĠTod": 4910,
      "Ġnotable": 4911,
      "Career": 4912,
      "otic": 4913,
      "Ġ1959": 4914,
      "ĠStation": 4915,
      "500": 4916,
      "ĠEp": 4917,
      "izes": 4918,
      "ĠPremier": 4919,
      "Ġsac": 4920,
      "cluding": 4921,
      "gs": 4922,
      "ĠMassachusetts": 4923,
      "ĠAD": 4924,
      "ĠTem": 4925,
      "Ġassociation": 4926,
      "ĠOffice": 4927,
      "Ġissued": 4928,
      "ĠJeff": 4929,
      "Ġstay": 4930,
      "Ġupper": 4931,
      "Ġinside": 4932,
      "throp": 4933,
      "Ġfacilities": 4934,
      "Ġadult": 4935,
      "Ġindustrial": 4936,
      "Ġpaper": 4937,
      "Ġgot": 4938,
      "Ġ1956": 4939,
      "Ġdrama": 4940,
      "Ġsearch": 4941,
      "Ġlay": 4942,
      "Ġamb": 4943,
      "Ġappearances": 4944,
      "Ġcomes": 4945,
      "ba": 4946,
      "Ġurban": 4947,
      "Ġdance": 4948,
      "Ġindividuals": 4949,
      "oln": 4950,
      "ĠStr": 4951,
      "ĠUSA": 4952,
      "get": 4953,
      "Ġcounter": 4954,
      "ĠIra": 4955,
      "ĠEll": 4956,
      "Ġserve": 4957,
      "Rail": 4958,
      "ollo": 4959,
      "ĠPen": 4960,
      "ST": 4961,
      "Ġtun": 4962,
      "ĠMP": 4963,
      "Ġlif": 4964,
      "Ġbelong": 4965,
      "ski": 4966,
      "icine": 4967,
      "1980": 4968,
      "ĠHighway": 4969,
      "da": 4970,
      "ternet": 4971,
      "ixed": 4972,
      "Ġtold": 4973,
      "Ġgreater": 4974,
      "Ġflight": 4975,
      "Ġblue": 4976,
      "Ġleaders": 4977,
      "lem": 4978,
      "Ġofficially": 4979,
      "Ġneeded": 4980,
      "Ġcars": 4981,
      "ĠSev": 4982,
      "Ġgraph": 4983,
      "Ġactivity": 4984,
      "Ġprobably": 4985,
      "gu": 4986,
      "ĠCat": 4987,
      "urches": 4988,
      "Ġstories": 4989,
      "ĠOrgan": 4990,
      "Ġequipment": 4991,
      "Ġquickly": 4992,
      "ĠNaz": 4993,
      "Ġstreng": 4994,
      "Ġparents": 4995,
      "One": 4996,
      "iated": 4997,
      "Ġsens": 4998,
      "ĠAh": 4999,
      "Ġcapacity": 5000,
      "Ġwanted": 5001,
      "ĠPop": 5002,
      "Ġtree": 5003,
      "Ġcells": 5004,
      "Ġimpact": 5005,
      "Ġolder": 5006,
      "44": 5007,
      "ambiguation": 5008,
      "oned": 5009,
      "German": 5010,
      "ocated": 5011,
      "Ġadministration": 5012,
      "ÄŁ": 5013,
      "ĠTurkish": 5014,
      "Ġthous": 5015,
      "Ġplanned": 5016,
      "ĠNations": 5017,
      "ĠGen": 5018,
      "ĠAlf": 5019,
      "Ġmusicians": 5020,
      "antry": 5021,
      "ĠCambridge": 5022,
      "Ġinstrument": 5023,
      "cest": 5024,
      "Ġcenturies": 5025,
      "ĠManchester": 5026,
      "thing": 5027,
      "Ġresulting": 5028,
      "ĠSand": 5029,
      "Ġ1957": 5030,
      "peed": 5031,
      "ĠFamily": 5032,
      "ecause": 5033,
      "Ġsecurity": 5034,
      "ĠCommon": 5035,
      "ecting": 5036,
      "Ġetc": 5037,
      "Ġdark": 5038,
      "Ġec": 5039,
      "Ġdefined": 5040,
      "By": 5041,
      "World": 5042,
      "Ġstadium": 5043,
      "Ġorganizations": 5044,
      "amin": 5045,
      "Ġdedicated": 5046,
      "onents": 5047,
      "hew": 5048,
      "iced": 5049,
      "Ġmaster": 5050,
      "usc": 5051,
      "orning": 5052,
      "ager": 5053,
      "perial": 5054,
      "Ġfeaturing": 5055,
      "ĠLew": 5056,
      "unct": 5057,
      "Ġpersonnel": 5058,
      "Ġpeace": 5059,
      "ĠCzech": 5060,
      "Ġcerem": 5061,
      "ĠSydney": 5062,
      "ĠKenn": 5063,
      "ĠCommunity": 5064,
      "yal": 5065,
      "Ġpick": 5066,
      "unction": 5067,
      "ĠHal": 5068,
      "Ġhosted": 5069,
      "stone": 5070,
      "Ġexec": 5071,
      "ogue": 5072,
      "part": 5073,
      "ancy": 5074,
      "rics": 5075,
      "Ġmarriage": 5076,
      "Ġhydro": 5077,
      "Ġrecover": 5078,
      "Ġextra": 5079,
      "ĠFer": 5080,
      "Olymp": 5081,
      "Ġsched": 5082,
      "Ġvari": 5083,
      "estab": 5084,
      "ption": 5085,
      "Nov": 5086,
      "rical": 5087,
      "ĠCountry": 5088,
      "ĠArgent": 5089,
      "Don": 5090,
      "rie": 5091,
      "ĠNFL": 5092,
      "ĠInf": 5093,
      "Ġchart": 5094,
      "Ġfamilies": 5095,
      "ĠBulg": 5096,
      "ĠBon": 5097,
      "Ġawards": 5098,
      "Ġproperties": 5099,
      "ĠSerb": 5100,
      "Ġfifth": 5101,
      "ĠFoundation": 5102,
      "oration": 5103,
      "ifying": 5104,
      "Ġalongside": 5105,
      "ĠMike": 5106,
      "ĠPhilipp": 5107,
      "Ġarms": 5108,
      "Ġrespectively": 5109,
      "ression": 5110,
      "ining": 5111,
      "ĠMir": 5112,
      "Ġ1947": 5113,
      "Ġmedalists": 5114,
      "ĠChap": 5115,
      "Ġcontact": 5116,
      "Austral": 5117,
      "Members": 5118,
      "ĠThree": 5119,
      "mas": 5120,
      "AC": 5121,
      "Ġpattern": 5122,
      "Ġinstitutions": 5123,
      "ĠDemocratic": 5124,
      "asty": 5125,
      "1996": 5126,
      "disambiguation": 5127,
      "Ġanimals": 5128,
      "Ġtarget": 5129,
      "uls": 5130,
      "ĠStat": 5131,
      "ĠJean": 5132,
      "ĠProgram": 5133,
      "onto": 5134,
      "Ġreach": 5135,
      "Ġstra": 5136,
      "uese": 5137,
      "ĠCorps": 5138,
      "Ġresulted": 5139,
      "era": 5140,
      "ĠNetherlands": 5141,
      "inson": 5142,
      "Ġcreation": 5143,
      "Ġdog": 5144,
      "Ġscene": 5145,
      "Ġcalc": 5146,
      "rect": 5147,
      "orter": 5148,
      "ĠEst": 5149,
      "esh": 5150,
      "She": 5151,
      "ĠField": 5152,
      "Ġpal": 5153,
      "uting": 5154,
      "ghan": 5155,
      "onent": 5156,
      "edd": 5157,
      "ĠDevelopment": 5158,
      "ĠRegion": 5159,
      "ĠHind": 5160,
      "lean": 5161,
      "ĠCreek": 5162,
      "Ġ180": 5163,
      "Ġ1942": 5164,
      "Ġ1943": 5165,
      "incoln": 5166,
      "ĠKir": 5167,
      "ĠAut": 5168,
      "language": 5169,
      "estic": 5170,
      "Ġenem": 5171,
      "oli": 5172,
      "Ġcannot": 5173,
      "rence": 5174,
      "Ġmagn": 5175,
      "Ġdestroyed": 5176,
      "Ġcorn": 5177,
      "yo": 5178,
      "Ã±": 5179,
      "ĠUk": 5180,
      "May": 5181,
      "ĠPubl": 5182,
      "Ġprof": 5183,
      "Ġdistance": 5184,
      "ĠAlso": 5185,
      "1995": 5186,
      "Ġhundred": 5187,
      "Ġuns": 5188,
      "Ġelections": 5189,
      "ĠPost": 5190,
      "uts": 5191,
      "Ġimmediately": 5192,
      "orado": 5193,
      "Ġastron": 5194,
      "Ġcitizens": 5195,
      "omic": 5196,
      "ĠForest": 5197,
      "ented": 5198,
      "Ġspread": 5199,
      "uct": 5200,
      "Ġparties": 5201,
      "Ġrelatively": 5202,
      "itzer": 5203,
      "ĠHistoric": 5204,
      "ographic": 5205,
      "aun": 5206,
      "Ġwithd": 5207,
      "mun": 5208,
      "ava": 5209,
      "Ġsyn": 5210,
      "Northern": 5211,
      "ĠTam": 5212,
      "ĠRod": 5213,
      "Ġdistricts": 5214,
      "ĠÎ": 5215,
      "Ġearned": 5216,
      "pass": 5217,
      "met": 5218,
      "Ġhonor": 5219,
      "imb": 5220,
      "Ġfavor": 5221,
      "100": 5222,
      "ocese": 5223,
      "Ġfast": 5224,
      "General": 5225,
      "Ġsuggested": 5226,
      "aped": 5227,
      "Ġidentified": 5228,
      "Ġarrived": 5229,
      "65": 5230,
      "Ġhus": 5231,
      "ĠBah": 5232,
      "rone": 5233,
      "Ġpositive": 5234,
      "Ġstore": 5235,
      "Ġresidents": 5236,
      "vis": 5237,
      "ĠCop": 5238,
      "Ġtowns": 5239,
      "Ġconducted": 5240,
      "pper": 5241,
      "Ġexperiment": 5242,
      "Ġactually": 5243,
      "Ġ1955": 5244,
      "Ġtrue": 5245,
      "ĠOb": 5246,
      "Ġfriends": 5247,
      "ĠAnother": 5248,
      "ker": 5249,
      "mad": 5250,
      "Ġaim": 5251,
      "ĠDirector": 5252,
      "hol": 5253,
      "ooth": 5254,
      "Ġbott": 5255,
      "ĠBad": 5256,
      "2011": 5257,
      "Ġprominent": 5258,
      "ĠIndiana": 5259,
      "ĠHome": 5260,
      "ĠHead": 5261,
      "isms": 5262,
      "enz": 5263,
      "osis": 5264,
      "',": 5265,
      "Ġgreen": 5266,
      "ething": 5267,
      "Ġquality": 5268,
      "Ã£": 5269,
      "Ġovers": 5270,
      "Ġpra": 5271,
      "ropolitan": 5272,
      "agement": 5273,
      "Ġagreement": 5274,
      "ĠPrime": 5275,
      "Ġordered": 5276,
      "ĠÄ": 5277,
      "Ġthink": 5278,
      "ila": 5279,
      "Ġ1946": 5280,
      "ĠBh": 5281,
      "Ġmicro": 5282,
      "ĠTay": 5283,
      "Ġsubs": 5284,
      "ĠPoland": 5285,
      "water": 5286,
      "ĠJes": 5287,
      "Ġillust": 5288,
      "usion": 5289,
      "Ġexpanded": 5290,
      "Ġcharge": 5291,
      "alo": 5292,
      "Ġaccepted": 5293,
      "Ġdisease": 5294,
      "ĠOpen": 5295,
      "Ġgrew": 5296,
      "ĠFar": 5297,
      "Ne": 5298,
      "Ġsculpt": 5299,
      "ĠĠĠ": 5300,
      "Ġreduced": 5301,
      "Ġfollows": 5302,
      "ĠSupreme": 5303,
      "Ġapproach": 5304,
      "omers": 5305,
      "Ġpressure": 5306,
      "ilation": 5307,
      "sey": 5308,
      "Ġsplit": 5309,
      "ii": 5310,
      "Ġpage": 5311,
      "Ġtim": 5312,
      "Ġmixed": 5313,
      "Ġgiving": 5314,
      "Ġcondition": 5315,
      "Ġwalk": 5316,
      "ĠAnton": 5317,
      "ĠWilson": 5318,
      "VD": 5319,
      "istry": 5320,
      "eech": 5321,
      "Ġmountain": 5322,
      "Ġmess": 5323,
      "ĠFederal": 5324,
      "Ġparish": 5325,
      "ilton": 5326,
      "ĠOfficial": 5327,
      "Ġ70": 5328,
      "inity": 5329,
      "million": 5330,
      "pton": 5331,
      "ĠQueens": 5332,
      "ĠKen": 5333,
      "Ġperman": 5334,
      "ĠSteve": 5335,
      "Ġspirit": 5336,
      "ieut": 5337,
      "ictional": 5338,
      "lers": 5339,
      "ione": 5340,
      "vest": 5341,
      "aron": 5342,
      "Ġpp": 5343,
      "Ġly": 5344,
      "anges": 5345,
      "Ġsignal": 5346,
      "ĠÐ": 5347,
      "Ġminister": 5348,
      "46": 5349,
      "ĠAtt": 5350,
      "Ġcontinues": 5351,
      "Ġagreed": 5352,
      "Ġknowledge": 5353,
      "Ġcontemporary": 5354,
      "izabeth": 5355,
      "ĠCorporation": 5356,
      "vin": 5357,
      "Olympic": 5358,
      "Ġseg": 5359,
      "Ġcarbon": 5360,
      "ez": 5361,
      "Ġtrains": 5362,
      "Ġmarked": 5363,
      "aud": 5364,
      "And": 5365,
      "Ġsaying": 5366,
      "Ġfish": 5367,
      "Ġclassical": 5368,
      "ĠAC": 5369,
      "yg": 5370,
      "Ġir": 5371,
      "2012": 5372,
      "ĠRam": 5373,
      "ĠEarl": 5374,
      "enge": 5375,
      "Ġhar": 5376,
      "aph": 5377,
      "Ġ1939": 5378,
      "Ġexecutive": 5379,
      "Ġformation": 5380,
      "erc": 5381,
      "ĠAst": 5382,
      "ĠFox": 5383,
      "ibliography": 5384,
      "49": 5385,
      "Ġhop": 5386,
      "ĠEconom": 5387,
      "Ġcontain": 5388,
      "85": 5389,
      "vey": 5390,
      "ima": 5391,
      "ĠFollowing": 5392,
      "ĠLight": 5393,
      "ĠDespite": 5394,
      "Ġ500": 5395,
      "Ġcricket": 5396,
      "Ġfully": 5397,
      "itness": 5398,
      "Ġtele": 5399,
      "AA": 5400,
      "Ġheav": 5401,
      "ĠSecretary": 5402,
      "Ġhyp": 5403,
      "ĠJon": 5404,
      "restling": 5405,
      "itled": 5406,
      "Ġbal": 5407,
      "cluded": 5408,
      "Ġquant": 5409,
      "Ġexpansion": 5410,
      "Ġweight": 5411,
      "Ġwinners": 5412,
      "Ġathlet": 5413,
      "Ġlives": 5414,
      "Ġoccurred": 5415,
      "ĠCO": 5416,
      "Ġprojects": 5417,
      "Ġdistribution": 5418,
      "Ġfellow": 5419,
      "Ġtransferred": 5420,
      "Ġaband": 5421,
      "Ġmoving": 5422,
      "Ġnet": 5423,
      "Ġattend": 5424,
      "worth": 5425,
      "ĠTal": 5426,
      "Ġefforts": 5427,
      "ĠAirport": 5428,
      "Ġprofessor": 5429,
      "Ġhospital": 5430,
      "ĠLes": 5431,
      "Ġscript": 5432,
      "Ġmethods": 5433,
      "ĠProject": 5434,
      "Ġmeasure": 5435,
      "ighth": 5436,
      "phas": 5437,
      "Ġattacks": 5438,
      "ĠBall": 5439,
      "ordin": 5440,
      "ĠWork": 5441,
      "mes": 5442,
      "tters": 5443,
      "outheast": 5444,
      "Ġsuggest": 5445,
      "Ġmachine": 5446,
      "iques": 5447,
      "jan": 5448,
      "Ġ90": 5449,
      "Ġconflict": 5450,
      "ĠĠĊ": 5451,
      "Ġdigital": 5452,
      "Ġ1941": 5453,
      "West": 5454,
      "igration": 5455,
      "Ġsolo": 5456,
      "Ġsemi": 5457,
      "Pr": 5458,
      "Ġworkers": 5459,
      "Ġallows": 5460,
      "Ġemb": 5461,
      "Ġrecently": 5462,
      "ĠBowl": 5463,
      "Ġ1953": 5464,
      "Ac": 5465,
      "Ġdeclared": 5466,
      "ĠIraq": 5467,
      "ĠFame": 5468,
      "Ġ32": 5469,
      "Ġtitles": 5470,
      "Ġopportun": 5471,
      "Ġfell": 5472,
      "Ġvote": 5473,
      "Ġspect": 5474,
      "Ġpurchased": 5475,
      "innes": 5476,
      "ifications": 5477,
      "Ġsecondary": 5478,
      "Ġslight": 5479,
      "Ġsynt": 5480,
      "ĠSher": 5481,
      "ĠStand": 5482,
      "ounded": 5483,
      "Ġattention": 5484,
      "fficient": 5485,
      "eman": 5486,
      "ĠAsian": 5487,
      "ĠHockey": 5488,
      "abb": 5489,
      "Ġeas": 5490,
      "Ġreject": 5491,
      "Ġjoint": 5492,
      "Ġallowing": 5493,
      "Ġlies": 5494,
      "wing": 5495,
      "Ġgovernor": 5496,
      "utt": 5497,
      "Men": 5498,
      "Ġnovels": 5499,
      "ĠCas": 5500,
      "enness": 5501,
      "Ġpan": 5502,
      "1994": 5503,
      "Ġfunctions": 5504,
      "ova": 5505,
      "Ġsurrounding": 5506,
      "Ġhusband": 5507,
      "Ġmaintain": 5508,
      "Ġwinner": 5509,
      "Ġroles": 5510,
      "Ġfeel": 5511,
      "Ġliber": 5512,
      "Ġpromoted": 5513,
      "Ġserious": 5514,
      "Ġmotor": 5515,
      "eather": 5516,
      "ĠSanta": 5517,
      "Ġ1954": 5518,
      "Ġassigned": 5519,
      "Ġenter": 5520,
      "Ġreligion": 5521,
      "Ġstars": 5522,
      "Ġmaterials": 5523,
      "book": 5524,
      "Ġyouth": 5525,
      "Ġreform": 5526,
      "osen": 5527,
      "Ġvan": 5528,
      "innesota": 5529,
      "isted": 5530,
      "olec": 5531,
      "Ġmill": 5532,
      "Ġ1949": 5533,
      "erick": 5534,
      "Ġsn": 5535,
      "Ġderived": 5536,
      "cont": 5537,
      "ĠAff": 5538,
      "Ġindependence": 5539,
      "88": 5540,
      "ĠRaj": 5541,
      "Ġrapid": 5542,
      "Ġformerly": 5543,
      "pool": 5544,
      "Ġjournalist": 5545,
      "Ġvac": 5546,
      "Be": 5547,
      "Ġpun": 5548,
      "eral": 5549,
      "ĠTok": 5550,
      "ĠBeng": 5551,
      "\"),": 5552,
      "ĠAthlet": 5553,
      "ĠDuke": 5554,
      "ĠBarb": 5555,
      "ns": 5556,
      "Ġreference": 5557,
      "erved": 5558,
      "ĠForm": 5559,
      "56": 5560,
      "Ġpurs": 5561,
      "ĠApollo": 5562,
      "ieutenant": 5563,
      "nce": 5564,
      "quarters": 5565,
      "ĠServices": 5566,
      "igrants": 5567,
      "ĠNetwork": 5568,
      "Ġste": 5569,
      "Ġconnected": 5570,
      "Ġmemory": 5571,
      "Ġbronze": 5572,
      "Ġfrequently": 5573,
      "Ġscientific": 5574,
      "itter": 5575,
      "ĠId": 5576,
      "Ġclaims": 5577,
      "ĠAmericans": 5578,
      "Ġpack": 5579,
      "uther": 5580,
      "Ġgives": 5581,
      "Ġunderst": 5582,
      "gor": 5583,
      "iec": 5584,
      "rec": 5585,
      "Ġ1952": 5586,
      "oured": 5587,
      "Ġadapt": 5588,
      "Ġprep": 5589,
      "Ġoldest": 5590,
      "Ġtemperature": 5591,
      "ĠCE": 5592,
      "ĠHay": 5593,
      "ĠRom": 5594,
      "ĠKansas": 5595,
      "ĠAbb": 5596,
      "Ġinhabit": 5597,
      "unc": 5598,
      "Ġcomposer": 5599,
      "42": 5600,
      "Ġwa": 5601,
      "Ġmaxim": 5602,
      "Ġgained": 5603,
      "Ġtraffic": 5604,
      "Ġhighway": 5605,
      "Ġmissing": 5606,
      "Ġimage": 5607,
      "Ġalternative": 5608,
      "ĠLincoln": 5609,
      "AM": 5610,
      "bec": 5611,
      "ĠJoh": 5612,
      "Ġportion": 5613,
      "Ġmom": 5614,
      "Ġrevealed": 5615,
      "ructure": 5616,
      "ĠBaron": 5617,
      "sky": 5618,
      "ĠHong": 5619,
      "ĠRem": 5620,
      "Elect": 5621,
      "onym": 5622,
      "Ġrecognized": 5623,
      "Personal": 5624,
      "His": 5625,
      "ĠEs": 5626,
      "Ġchampion": 5627,
      "ensity": 5628,
      "OS": 5629,
      "South": 5630,
      "Ġletters": 5631,
      "Ġvehicles": 5632,
      "ĠLy": 5633,
      "ashion": 5634,
      "ulate": 5635,
      "Ġapplied": 5636,
      "kes": 5637,
      "ĠIndepend": 5638,
      "enna": 5639,
      "Ġpositions": 5640,
      "Ġchemical": 5641,
      "nia": 5642,
      "Ġnewly": 5643,
      "Ġarchitecture": 5644,
      "Ġsafety": 5645,
      "Ġpict": 5646,
      "Ġnotes": 5647,
      "ĠSu": 5648,
      "ĠBishop": 5649,
      "ĠBalt": 5650,
      "ĠTechnology": 5651,
      "ĠDar": 5652,
      "osh": 5653,
      "Ġsimply": 5654,
      "ĠElizabeth": 5655,
      "works": 5656,
      "Ġfiction": 5657,
      "ĠBeach": 5658,
      "Ġcaptured": 5659,
      "ĠPortuguese": 5660,
      "Ġcompar": 5661,
      "ĠAfghan": 5662,
      "Ġengineer": 5663,
      "86": 5664,
      "Â°": 5665,
      "anes": 5666,
      "Ġdepartment": 5667,
      "76": 5668,
      "Ġtal": 5669,
      "ji": 5670,
      "iate": 5671,
      "Ġsales": 5672,
      "ĠLabor": 5673,
      "ĠCam": 5674,
      "ĠGuard": 5675,
      "ĠAtlantic": 5676,
      "Ġlabor": 5677,
      "also": 5678,
      "iling": 5679,
      "Ġcoming": 5680,
      "Ġrefers": 5681,
      "ĠVen": 5682,
      "Ġclimate": 5683,
      "Ġfighting": 5684,
      "Ġsuffered": 5685,
      "chers": 5686,
      "resh": 5687,
      "Canadian": 5688,
      "inus": 5689,
      "ĠSweden": 5690,
      "Polit": 5691,
      "Ġkept": 5692,
      "ervative": 5693,
      "Ġcolumn": 5694,
      "ancing": 5695,
      "Ġbegins": 5696,
      "Ġencou": 5697,
      "ĠGreece": 5698,
      "Ġrob": 5699,
      "Ġstreet": 5700,
      "ĠDaniel": 5701,
      "ĠFair": 5702,
      "ĠPolice": 5703,
      "Ġengineering": 5704,
      "Ġethnic": 5705,
      "elligence": 5706,
      "Ġlaunch": 5707,
      "ĠStadium": 5708,
      "Ġroyal": 5709,
      "International": 5710,
      "Ġglobal": 5711,
      "ĠOrig": 5712,
      "Ġconstitution": 5713,
      "Ġsays": 5714,
      "claim": 5715,
      "Ġoffers": 5716,
      "mph": 5717,
      "Ġstone": 5718,
      "Ġleadership": 5719,
      "eline": 5720,
      "Ġcritical": 5721,
      "Ġinters": 5722,
      "Ġowner": 5723,
      "ĠNorwegian": 5724,
      "room": 5725,
      "Ġunique": 5726,
      "--": 5727,
      "life": 5728,
      "Ġgranted": 5729,
      "Ġwins": 5730,
      "ĠBrad": 5731,
      "ĠChris": 5732,
      "Ġsuppl": 5733,
      "Ġgenus": 5734,
      "omot": 5735,
      "Ġbackground": 5736,
      "Ġconsum": 5737,
      "Ġcampus": 5738,
      "Ġfigures": 5739,
      "Ġpair": 5740,
      "ĠMinistry": 5741,
      "aints": 5742,
      "iary": 5743,
      "Ġforward": 5744,
      "2013": 5745,
      "06": 5746,
      "54": 5747,
      "rade": 5748,
      "Ġdipl": 5749,
      "Ġbillion": 5750,
      "Ġcontrast": 5751,
      "ĠBru": 5752,
      "Ġsense": 5753,
      "ĠBooks": 5754,
      "Ġunknown": 5755,
      "everal": 5756,
      "ĠLewis": 5757,
      "ultan": 5758,
      "ening": 5759,
      "ĠArthur": 5760,
      "Notable": 5761,
      "Ġarts": 5762,
      "Ġ1938": 5763,
      "Ġranked": 5764,
      "Ġfolk": 5765,
      "ĠAuthor": 5766,
      "ĠMexican": 5767,
      "We": 5768,
      "ogen": 5769,
      "ĠClark": 5770,
      "ĠGolden": 5771,
      "ĠTaylor": 5772,
      "96": 5773,
      "ĠIndust": 5774,
      "Ġstrugg": 5775,
      "97": 5776,
      "Ġnecessary": 5777,
      "Ġhistorian": 5778,
      "Ġcompletely": 5779,
      "kin": 5780,
      "aks": 5781,
      "rete": 5782,
      "ryst": 5783,
      "lyn": 5784,
      "rizona": 5785,
      "ĠLady": 5786,
      "ĠFinal": 5787,
      "ĠOttoman": 5788,
      "Cy": 5789,
      "urrent": 5790,
      "ĠBrother": 5791,
      "Some": 5792,
      "ĠCastle": 5793,
      "Ġ36": 5794,
      "ĠSant": 5795,
      "ĠRepresent": 5796,
      "Ġauthority": 5797,
      "Ġacting": 5798,
      "ban": 5799,
      "Ġmis": 5800,
      "1993": 5801,
      "IS": 5802,
      "Ġpoll": 5803,
      "ĠDesign": 5804,
      "Ġvehicle": 5805,
      "Ġdoub": 5806,
      "Ġwild": 5807,
      "ieval": 5808,
      "Ġfirm": 5809,
      "Ġbra": 5810,
      "ogy": 5811,
      "ĠSenate": 5812,
      "Ġrot": 5813,
      "07": 5814,
      "ĠSel": 5815,
      "Ġvot": 5816,
      "1992": 5817,
      "Ġlosing": 5818,
      "ĠToronto": 5819,
      "rog": 5820,
      "Ġsecret": 5821,
      "Since": 5822,
      "Ġmatter": 5823,
      "2014": 5824,
      "Ġexpected": 5825,
      "Ġflag": 5826,
      "ĠStephen": 5827,
      "ĠBi": 5828,
      "Ġsupply": 5829,
      "ĠAud": 5830,
      "Ġaccomp": 5831,
      "Ġconstitu": 5832,
      "ĠBuddh": 5833,
      "gar": 5834,
      "yst": 5835,
      "ĠMaster": 5836,
      "43": 5837,
      "from": 5838,
      "ĠMedia": 5839,
      "ĠLive": 5840,
      "ĠMain": 5841,
      "ibb": 5842,
      "98": 5843,
      "rations": 5844,
      "Ġmut": 5845,
      "Ġretire": 5846,
      "ĠAustria": 5847,
      "ĠRegional": 5848,
      "Ġx": 5849,
      "ĠUN": 5850,
      "Ġthings": 5851,
      "ads": 5852,
      "ivals": 5853,
      "ĠColorado": 5854,
      "Ġvirt": 5855,
      "Ġwall": 5856,
      "ĠMicro": 5857,
      "2015": 5858,
      "Ġshowed": 5859,
      "Ġpoliticians": 5860,
      "Ġroll": 5861,
      "Ġtwice": 5862,
      "dam": 5863,
      "athan": 5864,
      "ĠStudies": 5865,
      "ĠUs": 5866,
      "Ġcontaining": 5867,
      "Ġrain": 5868,
      "Ġdecre": 5869,
      "Ġharm": 5870,
      "former": 5871,
      "ĠKorean": 5872,
      "aki": 5873,
      "Ġbasic": 5874,
      "ĠTest": 5875,
      "Ġregist": 5876,
      "58": 5877,
      "Ġpolitics": 5878,
      "ĠSong": 5879,
      "imens": 5880,
      "Ġcontent": 5881,
      "ois": 5882,
      "Ġpurpose": 5883,
      "ĠVill": 5884,
      "liest": 5885,
      "Ġexisting": 5886,
      "rator": 5887,
      "Ġproviding": 5888,
      "1970": 5889,
      "ek": 5890,
      "Ġbad": 5891,
      "Ġeffective": 5892,
      "Ġhands": 5893,
      "Ã£o": 5894,
      "ĠRon": 5895,
      "ĠNic": 5896,
      "Ġsuit": 5897,
      "iat": 5898,
      "ĠWars": 5899,
      "ressed": 5900,
      "iants": 5901,
      "Ġgrowing": 5902,
      "Ġalt": 5903,
      "ĠMarc": 5904,
      "Ġserves": 5905,
      "Ġple": 5906,
      "Ġsets": 5907,
      "arp": 5908,
      "Ġfeed": 5909,
      "ĠMountain": 5910,
      "Ġreceive": 5911,
      "enh": 5912,
      "Ġmeant": 5913,
      "41": 5914,
      "Ġtaught": 5915,
      "Ġopposition": 5916,
      "Art": 5917,
      "wich": 5918,
      "Ġislands": 5919,
      "ĠLev": 5920,
      "Ġadministrative": 5921,
      "Ġring": 5922,
      "57": 5923,
      "En": 5924,
      "IC": 5925,
      "oto": 5926,
      "ĠDick": 5927,
      "ĠMoon": 5928,
      "ailed": 5929,
      "Ġtrees": 5930,
      "Death": 5931,
      "01": 5932,
      "ÅĤ": 5933,
      "Ġax": 5934,
      "anga": 5935,
      "Ġdistingu": 5936,
      "rum": 5937,
      "ĠWat": 5938,
      "ĠGreg": 5939,
      "Ġrisk": 5940,
      "ĠMelbourne": 5941,
      "amber": 5942,
      "ĠFire": 5943,
      "Ġtried": 5944,
      "Ġsquare": 5945,
      "Ãº": 5946,
      "ifically": 5947,
      "Ġadvert": 5948,
      "Ġattrib": 5949,
      "Reg": 5950,
      "Will": 5951,
      "aret": 5952,
      "ĠSecurity": 5953,
      "ennessee": 5954,
      "aming": 5955,
      "rac": 5956,
      "Ġtheme": 5957,
      "Ġdrums": 5958,
      "ĠDor": 5959,
      "umes": 5960,
      "Ġresident": 5961,
      "ĠColl": 5962,
      "wise": 5963,
      "Ġfans": 5964,
      "Ġboy": 5965,
      "ĠPrim": 5966,
      "under": 5967,
      "Ġkingdom": 5968,
      "Ġtitled": 5969,
      "Ġvocal": 5970,
      "ĠTony": 5971,
      "Ġrecomm": 5972,
      "ĠHun": 5973,
      "ogroup": 5974,
      "Ã©e": 5975,
      "Ġseem": 5976,
      "Ed": 5977,
      "lywood": 5978,
      "ĠWell": 5979,
      "Ġattempts": 5980,
      "ĠUt": 5981,
      "engers": 5982,
      "Ġrise": 5983,
      "Ġexchange": 5984,
      "Ġsexual": 5985,
      "zz": 5986,
      "ĠBatt": 5987,
      "ĠPass": 5988,
      "Ġspring": 5989,
      "Ġprotection": 5990,
      "aug": 5991,
      "appen": 5992,
      "University": 5993,
      "Ġdamage": 5994,
      "Ġsides": 5995,
      "Ġpowers": 5996,
      "Ġobjects": 5997,
      "CD": 5998,
      "Ġcab": 5999,
      "Ġcombat": 6000,
      "ania": 6001,
      "aplogroup": 6002,
      "grad": 6003,
      "ĠStone": 6004,
      "ĠHoly": 6005,
      "Ab": 6006,
      "ĠHospital": 6007,
      "ĠFree": 6008,
      "Ġconqu": 6009,
      "Ġearth": 6010,
      "gn": 6011,
      "inth": 6012,
      "elsh": 6013,
      "Ġconstant": 6014,
      "Ġwear": 6015,
      "iments": 6016,
      "05": 6017,
      "ĠSciences": 6018,
      "ridges": 6019,
      "Ġextensive": 6020,
      "ĠSem": 6021,
      "Ġfounder": 6022,
      "Ġsettled": 6023,
      "ingham": 6024,
      "osaurus": 6025,
      "Ġburn": 6026,
      "ĠCirc": 6027,
      "ĠSpace": 6028,
      "ĠBrig": 6029,
      "Ġmunicipalities": 6030,
      "ĠMinnesota": 6031,
      "ĠAM": 6032,
      "Ġclasses": 6033,
      "olished": 6034,
      "ĠAnth": 6035,
      "ĠHan": 6036,
      "ĠMedal": 6037,
      "Ġfair": 6038,
      "oles": 6039,
      "ĠMaria": 6040,
      "HL": 6041,
      "kh": 6042,
      "alion": 6043,
      "ading": 6044,
      "osa": 6045,
      "Ġfloor": 6046,
      "Ġfr": 6047,
      "US": 6048,
      "Ġsituation": 6049,
      "Ġbor": 6050,
      "ĠAge": 6051,
      "weight": 6052,
      "ĠMarsh": 6053,
      "Ġlands": 6054,
      "'.": 6055,
      "Ġorganized": 6056,
      "oes": 6057,
      "Ġexclus": 6058,
      "ĠColon": 6059,
      "1991": 6060,
      "ĠIV": 6061,
      "ruit": 6062,
      "Ġbelief": 6063,
      "Cont": 6064,
      "Ġmathemat": 6065,
      "ĠDam": 6066,
      "Ġ45": 6067,
      "Ġlisting": 6068,
      "Ġwinter": 6069,
      "//": 6070,
      "Ġseats": 6071,
      "ĠTa": 6072,
      "Ġprincipal": 6073,
      "ĠVietnam": 6074,
      "real": 6075,
      "Ġleaves": 6076,
      "Ġfacility": 6077,
      "Ġswim": 6078,
      "asure": 6079,
      "ĠChile": 6080,
      "2016": 6081,
      "Ġvolume": 6082,
      "load": 6083,
      "ĠBrian": 6084,
      "ĠKim": 6085,
      "yes": 6086,
      "ĠPit": 6087,
      "Ġ1918": 6088,
      "inner": 6089,
      "ĠArea": 6090,
      "car": 6091,
      "ĠHart": 6092,
      "ĠGer": 6093,
      "Ġfelt": 6094,
      "Ġ1951": 6095,
      "Ġopposed": 6096,
      "Ġhabit": 6097,
      "ĠChannel": 6098,
      "Ġinhabitants": 6099,
      "78": 6100,
      "law": 6101,
      "irmed": 6102,
      "ĠKel": 6103,
      "ateur": 6104,
      "ĠChampions": 6105,
      "Ġoccasion": 6106,
      "ographer": 6107,
      "aling": 6108,
      "Television": 6109,
      "ĠSunday": 6110,
      "illery": 6111,
      "ĠBrook": 6112,
      "Ġrestaur": 6113,
      "Ġcart": 6114,
      "Ġrural": 6115,
      "orders": 6116,
      "Ġinspired": 6117,
      "Ġdesignated": 6118,
      "England": 6119,
      "ĠWalk": 6120,
      "Ġmind": 6121,
      "ĠPolit": 6122,
      "ĠLt": 6123,
      "Ġinfluenced": 6124,
      "Ġanimal": 6125,
      "Ġyards": 6126,
      "hesis": 6127,
      "unte": 6128,
      "Ġce": 6129,
      "Ġparliament": 6130,
      "tainment": 6131,
      "ĠForces": 6132,
      "ivalent": 6133,
      "Ġofficials": 6134,
      "Ð°": 6135,
      "ĠDer": 6136,
      "ĠJer": 6137,
      "onds": 6138,
      "erto": 6139,
      "Ġportray": 6140,
      "Ġsubsequent": 6141,
      "allel": 6142,
      "Ġemphas": 6143,
      "Ġelim": 6144,
      "Ġsituated": 6145,
      "ĠRoss": 6146,
      "ieties": 6147,
      "ĠDavis": 6148,
      "Ġauthorities": 6149,
      "western": 6150,
      "ĠMemorial": 6151,
      "rage": 6152,
      "ĠKentucky": 6153,
      "Ġrefused": 6154,
      "ĠReview": 6155,
      "ĪĴ": 6156,
      "Ġfuel": 6157,
      "ĠCow": 6158,
      "Ġhero": 6159,
      "thod": 6160,
      "Ġconvers": 6161,
      "Ġfields": 6162,
      "ĠSwedish": 6163,
      "Ġearliest": 6164,
      "Ġcoal": 6165,
      "ĠConc": 6166,
      "Ġsomething": 6167,
      "igenous": 6168,
      "ĠMun": 6169,
      "achel": 6170,
      "rons": 6171,
      "leges": 6172,
      "Ġauth": 6173,
      "edia": 6174,
      "ika": 6175,
      "Disc": 6176,
      "Australian": 6177,
      "ĠDown": 6178,
      "agues": 6179,
      "ieces": 6180,
      "Ġchap": 6181,
      "Ġreflect": 6182,
      "Ġeffort": 6183,
      "ĠSlov": 6184,
      "ĠModern": 6185,
      "Bibliography": 6186,
      "ĠMunicip": 6187,
      "ĠGro": 6188,
      "ĠSpring": 6189,
      "related": 6190,
      "Ġobserved": 6191,
      "Ġequal": 6192,
      "Ġhy": 6193,
      "Ġnort": 6194,
      "Ġenvironmental": 6195,
      "Ġsevent": 6196,
      "Ġspok": 6197,
      "Ġhumans": 6198,
      "Ġbehavior": 6199,
      "Ġ(),": 6200,
      "abama": 6201,
      "Ġvalues": 6202,
      "Ġholds": 6203,
      "ĠTelevision": 6204,
      "Ġattempted": 6205,
      "anger": 6206,
      "Ġenj": 6207,
      "Ġsimple": 6208,
      "IT": 6209,
      "Ġbishop": 6210,
      "ĠSon": 6211,
      "2017": 6212,
      "Euro": 6213,
      "ĠRad": 6214,
      "eller": 6215,
      "Ġpowerful": 6216,
      "lines": 6217,
      "ĠConstitution": 6218,
      "Ġdocumentary": 6219,
      "Ġchosen": 6220,
      "coh": 6221,
      "rees": 6222,
      "Christ": 6223,
      "Ġshared": 6224,
      "Ġtrial": 6225,
      "ĠRet": 6226,
      "Ġracing": 6227,
      "Ġsay": 6228,
      "orney": 6229,
      "Ġachieved": 6230,
      "ĠMiller": 6231,
      "ĠLabour": 6232,
      "Ġteaching": 6233,
      "ragon": 6234,
      "Ġnormal": 6235,
      "Sources": 6236,
      "zen": 6237,
      "greg": 6238,
      "Ġbey": 6239,
      "Ġsand": 6240,
      "ĠTennessee": 6241,
      "Ġdism": 6242,
      "Ġchurches": 6243,
      "gow": 6244,
      "rine": 6245,
      "ĠMax": 6246,
      "Ġresources": 6247,
      "inally": 6248,
      "Ġvenues": 6249,
      "Par": 6250,
      "Ġreports": 6251,
      "Ġcrime": 6252,
      "ĠVi": 6253,
      "oster": 6254,
      "Ġjourn": 6255,
      "ĠIslamic": 6256,
      "Ġconverted": 6257,
      "ader": 6258,
      "ĠDig": 6259,
      "Ġarrang": 6260,
      "ui": 6261,
      "://": 6262,
      "Ġnob": 6263,
      "Ġadvance": 6264,
      "Ġbeyond": 6265,
      "iot": 6266,
      "Ġbirds": 6267,
      "ĠDisc": 6268,
      "Ġestate": 6269,
      "inch": 6270,
      "ĠSab": 6271,
      "Ġrough": 6272,
      "Ġhistoric": 6273,
      "Ġsucceeded": 6274,
      "\").": 6275,
      "Ġcrim": 6276,
      "Ġcastle": 6277,
      "Ġaudience": 6278,
      "52": 6279,
      "SR": 6280,
      "Ġbeaut": 6281,
      "umin": 6282,
      "ĠLind": 6283,
      "Ġargued": 6284,
      "Äį": 6285,
      "Ġapparent": 6286,
      "ĠAlexand": 6287,
      "ĠKhan": 6288,
      "PA": 6289,
      "ĠRoy": 6290,
      "Ġvalley": 6291,
      "Ġinterpret": 6292,
      "Ġsetting": 6293,
      "orage": 6294,
      "Ġresistance": 6295,
      "Ġmulti": 6296,
      "March": 6297,
      "apore": 6298,
      "Ġformal": 6299,
      "Ġ...": 6300,
      "08": 6301,
      "Ġproceed": 6302,
      "ĠPope": 6303,
      "ĠRun": 6304,
      "Former": 6305,
      "lov": 6306,
      "amples": 6307,
      "Ġspons": 6308,
      "Ġdecades": 6309,
      "Ġcancer": 6310,
      "Ġtalk": 6311,
      "Ġtouch": 6312,
      "hedral": 6313,
      "ĠColomb": 6314,
      "Ġcritics": 6315,
      "Ġfestival": 6316,
      "anna": 6317,
      "Ġsymbol": 6318,
      "Ġstream": 6319,
      "Ġteacher": 6320,
      "Ġadvanced": 6321,
      "Ġcompl": 6322,
      "elle": 6323,
      "urer": 6324,
      "Track": 6325,
      "uing": 6326,
      "Ġimpl": 6327,
      "ymn": 6328,
      "92": 6329,
      "ĠCost": 6330,
      "ĠPlan": 6331,
      "ĠSav": 6332,
      "Ġ37": 6333,
      "Ġlocations": 6334,
      "ĠArizona": 6335,
      "Ġstock": 6336,
      "2018": 6337,
      "rat": 6338,
      "Ġpiano": 6339,
      "inema": 6340,
      "Ġ33": 6341,
      "Ġreign": 6342,
      "ĠRen": 6343,
      "ĠAdam": 6344,
      "Ġweapons": 6345,
      "El": 6346,
      "51": 6347,
      "ĠCape": 6348,
      "While": 6349,
      "Ġbul": 6350,
      "key": 6351,
      "Ġdetermined": 6352,
      "66": 6353,
      "Ġvess": 6354,
      "Ġshop": 6355,
      "ĠAcc": 6356,
      "Ġending": 6357,
      "mouth": 6358,
      "ĠMilitary": 6359,
      "ĠDomin": 6360,
      "ĠEach": 6361,
      "Ġends": 6362,
      "Ġfootballers": 6363,
      "Ġyounger": 6364,
      "Gu": 6365,
      "Ġperformances": 6366,
      "ito": 6367,
      "Ġinternal": 6368,
      "Ġinjury": 6369,
      "ĠWin": 6370,
      "Ġ38": 6371,
      "Ġhall": 6372,
      "ĠPu": 6373,
      "emeter": 6374,
      "Char": 6375,
      "ĠBurn": 6376,
      "ĠStock": 6377,
      "ĠAbd": 6378,
      "Ġburied": 6379,
      "Ġtheatre": 6380,
      "stream": 6381,
      "1989": 6382,
      "ni": 6383,
      "ĠWeek": 6384,
      "hips": 6385,
      "OR": 6386,
      "CAA": 6387,
      "Ġcreating": 6388,
      "ouri": 6389,
      "Ġactions": 6390,
      "emetery": 6391,
      "BT": 6392,
      "Ġfaith": 6393,
      "ĠBarn": 6394,
      "Although": 6395,
      "bound": 6396,
      "Ġtend": 6397,
      "Ġeffic": 6398,
      "where": 6399,
      "including": 6400,
      "Ġpaid": 6401,
      "ĠNap": 6402,
      "ĠCare": 6403,
      "Ġavoid": 6404,
      "song": 6405,
      "allas": 6406,
      "Ġexped": 6407,
      "Ġpromotion": 6408,
      "Ġiron": 6409,
      "Ġ1922": 6410,
      "rates": 6411,
      "oen": 6412,
      "pet": 6413,
      "Ġdaily": 6414,
      "ĠKer": 6415,
      "ĠCaptain": 6416,
      "osm": 6417,
      "ĠGre": 6418,
      "Ġsum": 6419,
      "isa": 6420,
      "Ġidentity": 6421,
      "Ġreviews": 6422,
      "Ġancest": 6423,
      "outs": 6424,
      "Ġcandidate": 6425,
      "ĊĠĊĠĊ": 6426,
      "Ġsector": 6427,
      "09": 6428,
      "organ": 6429,
      "ĠHou": 6430,
      "ĠApple": 6431,
      "Res": 6432,
      "ocation": 6433,
      "ĠAdminist": 6434,
      "IN": 6435,
      "Ġschem": 6436,
      "Ġoccupied": 6437,
      "etroit": 6438,
      "Ġways": 6439,
      "Ġvisit": 6440,
      "zy": 6441,
      "Ġonto": 6442,
      "thodox": 6443,
      "ĠRights": 6444,
      "ĠMarg": 6445,
      "nership": 6446,
      "ĠFederation": 6447,
      "Ġhappen": 6448,
      "Ġcontained": 6449,
      "Ġslightly": 6450,
      "Ġconcert": 6451,
      "ĠDVD": 6452,
      "Ġadvant": 6453,
      "ĠTai": 6454,
      "ĠFront": 6455,
      "53": 6456,
      "achers": 6457,
      "Ġphilosophy": 6458,
      "sex": 6459,
      "leveland": 6460,
      "Ġtells": 6461,
      "Ġreaction": 6462,
      "Sw": 6463,
      "Ġsons": 6464,
      "ĠSus": 6465,
      "Ġparticipated": 6466,
      "59": 6467,
      "Ġunable": 6468,
      "Ġgirl": 6469,
      "ĠOt": 6470,
      "Ġmap": 6471,
      "iral": 6472,
      "Ġtranslation": 6473,
      "ĠEntertainment": 6474,
      "Wales": 6475,
      "Ġbow": 6476,
      "Ġgoes": 6477,
      "Ġdrive": 6478,
      "67": 6479,
      "Back": 6480,
      "Ġpet": 6481,
      "ĠABC": 6482,
      "Ġ1936": 6483,
      "ĠProfessor": 6484,
      "vard": 6485,
      "Ġregarded": 6486,
      "Ġdropped": 6487,
      "ĠArchitect": 6488,
      "Ġhour": 6489,
      "Ġmusician": 6490,
      "Ġvent": 6491,
      "oa": 6492,
      "ĠPhilip": 6493,
      "ials": 6494,
      "ĠBusiness": 6495,
      "ĠSix": 6496,
      "ĠSquadron": 6497,
      "Ġaccident": 6498,
      "Ġ1919": 6499,
      "ĠThird": 6500,
      "Ġdefense": 6501,
      "Ġobtained": 6502,
      "Ġgraduated": 6503,
      "ĠCre": 6504,
      "Ġrein": 6505,
      "ĠFC": 6506,
      "Ġoccurs": 6507,
      "isf": 6508,
      "PS": 6509,
      "ĠAlabama": 6510,
      "ĠTransport": 6511,
      "ĠForeign": 6512,
      "icts": 6513,
      "Ġ1933": 6514,
      "ĠBan": 6515,
      "ĠWrit": 6516,
      "1987": 6517,
      "Ġvillages": 6518,
      "ĠSound": 6519,
      "ĠCra": 6520,
      "ĠGlas": 6521,
      "Railway": 6522,
      "Ġdoct": 6523,
      "Ġaired": 6524,
      "Ġrear": 6525,
      "Ġlibrary": 6526,
      "ĠEngineering": 6527,
      "elve": 6528,
      "Ġideas": 6529,
      "%)": 6530,
      "AF": 6531,
      "Govern": 6532,
      "gest": 6533,
      "ĠFI": 6534,
      "ectic": 6535,
      "ographical": 6536,
      "iller": 6537,
      "ĠConvention": 6538,
      "Ġexistence": 6539,
      "Ġfaculty": 6540,
      "Ġlyrics": 6541,
      "aver": 6542,
      "rell": 6543,
      "atriate": 6544,
      "burn": 6545,
      "iny": 6546,
      "aved": 6547,
      "Ġdisestab": 6548,
      "han": 6549,
      "Ġmolec": 6550,
      "ĠGord": 6551,
      "Ġguest": 6552,
      "Ġairport": 6553,
      "haps": 6554,
      "Ġbought": 6555,
      "Ġcomput": 6556,
      "Ġ1929": 6557,
      "Ġlearning": 6558,
      "agan": 6559,
      "ĠOrchestra": 6560,
      "risis": 6561,
      "Ġvictim": 6562,
      "leep": 6563,
      "inder": 6564,
      "Ġcopies": 6565,
      "Ġarrested": 6566,
      "igation": 6567,
      "Ġexact": 6568,
      "Ġwing": 6569,
      "ques": 6570,
      ")\"": 6571,
      "Jan": 6572,
      "ĠChristmas": 6573,
      "Ġglass": 6574,
      "Ġsolid": 6575,
      "Ġsumm": 6576,
      "emic": 6577,
      "active": 6578,
      "1988": 6579,
      "Ġexamples": 6580,
      "ĠFA": 6581,
      "Ass": 6582,
      "Ġwine": 6583,
      "ĠDNA": 6584,
      "Ġraces": 6585,
      "Ġapproved": 6586,
      "Ġbrain": 6587,
      "Ġspeech": 6588,
      "ĠFrancis": 6589,
      "Ġgeneration": 6590,
      "ĠRegiment": 6591,
      "vo": 6592,
      "Ġcensus": 6593,
      "Ġsteel": 6594,
      "ĠLeon": 6595,
      "Dav": 6596,
      "ĠTreat": 6597,
      "bums": 6598,
      "ĠEmperor": 6599,
      "04": 6600,
      "Ġban": 6601,
      "Ġconsequ": 6602,
      "Ġdepend": 6603,
      "Ġemployed": 6604,
      "Ġdeploy": 6605,
      "ĠDiego": 6606,
      "Ġultimately": 6607,
      "ĠHo": 6608,
      "ega": 6609,
      "Ġpublication": 6610,
      "ĠSimon": 6611,
      "posed": 6612,
      "Ġtheore": 6613,
      "entially": 6614,
      "aceae": 6615,
      "prise": 6616,
      "Dist": 6617,
      "Ġcontest": 6618,
      "bell": 6619,
      "asters": 6620,
      "Ġentry": 6621,
      "Ġextrem": 6622,
      "gal": 6623,
      "Ġcarry": 6624,
      "Ġsurvey": 6625,
      "ublin": 6626,
      "Ġdiplom": 6627,
      "ĠRegister": 6628,
      "Ġpossibly": 6629,
      "Ġclosely": 6630,
      "evin": 6631,
      "rish": 6632,
      "FM": 6633,
      "ĠBecause": 6634,
      "Ġkilling": 6635,
      "Ġsought": 6636,
      "Ġmel": 6637,
      "Ġ1914": 6638,
      "Ġcombination": 6639,
      "89": 6640,
      "oust": 6641,
      "Ġapplication": 6642,
      "Ġdynasty": 6643,
      "itzerland": 6644,
      "Ġdriver": 6645,
      "ĠTrib": 6646,
      "Ġrh": 6647,
      "Ġcho": 6648,
      "Ġreturning": 6649,
      "Ġcompeted": 6650,
      "Co": 6651,
      "agu": 6652,
      "Ġstandards": 6653,
      "Ġ1928": 6654,
      "Ġnarrow": 6655,
      "French": 6656,
      "Ġbroke": 6657,
      "Def": 6658,
      "cell": 6659,
      "Ã¢": 6660,
      "Ġpros": 6661,
      "Ġneighborhood": 6662,
      "agen": 6663,
      "onsin": 6664,
      "bach": 6665,
      "Ġbodies": 6666,
      "uties": 6667,
      "ĠFord": 6668,
      "uccess": 6669,
      "Ġ1932": 6670,
      "Ġvisited": 6671,
      "Ġbegin": 6672,
      "Ant": 6673,
      "died": 6674,
      "acent": 6675,
      "Ġtwenty": 6676,
      "hat": 6677,
      "Ġtower": 6678,
      "ĠMD": 6679,
      "rm": 6680,
      "Ġpermanent": 6681,
      "ĠPier": 6682,
      "ĠLike": 6683,
      "iversary": 6684,
      "Ġexpressed": 6685,
      "Ġsequence": 6686,
      "ĠHu": 6687,
      "isconsin": 6688,
      "Ġheadquarters": 6689,
      "03": 6690,
      "Ġ1923": 6691,
      "owa": 6692,
      "Ġscale": 6693,
      "Year": 6694,
      "lets": 6695,
      "Ġlat": 6696,
      "Ġcompris": 6697,
      "zer": 6698,
      "Ġdraft": 6699,
      "stead": 6700,
      "ĠDal": 6701,
      "Ġattacked": 6702,
      "Ġjudge": 6703,
      "ĠOcean": 6704,
      "angel": 6705,
      "Ġadap": 6706,
      "Ġpossess": 6707,
      "Ġcomic": 6708,
      "ĠHamilton": 6709,
      "Ġ1921": 6710,
      "ĠDiv": 6711,
      "ĠThus": 6712,
      "equ": 6713,
      "ĠMas": 6714,
      "Ġmorning": 6715,
      "ownt": 6716,
      "Ġfinish": 6717,
      "Dem": 6718,
      "point": 6719,
      "rin": 6720,
      "Ð¾": 6721,
      "esign": 6722,
      "ĠMach": 6723,
      "aga": 6724,
      "Ġkil": 6725,
      "Biography": 6726,
      "Ġreasons": 6727,
      "2019": 6728,
      "Ġintroduction": 6729,
      "uration": 6730,
      "ĠSche": 6731,
      "ĠAlan": 6732,
      "Ġcommander": 6733,
      "Ġimportance": 6734,
      "ĠBuilding": 6735,
      "Af": 6736,
      "Following": 6737,
      "Ġconference": 6738,
      "illing": 6739,
      "ĠHarry": 6740,
      "Ġapplications": 6741,
      "ĠShort": 6742,
      "uled": 6743,
      "ĠStra": 6744,
      "Ġinvasion": 6745,
      "leton": 6746,
      "ĠHy": 6747,
      "Ġconcluded": 6748,
      "Ġtoward": 6749,
      "Ġtechniques": 6750,
      "Ġnegative": 6751,
      "anging": 6752,
      "Ġscoring": 6753,
      "ĠMarine": 6754,
      "Ġplayoff": 6755,
      "Ġmyth": 6756,
      "ĠMand": 6757,
      "Ġprovincial": 6758,
      "ĠLat": 6759,
      "Ġneeds": 6760,
      "ĠPortugal": 6761,
      "To": 6762,
      "lah": 6763,
      "ĠLegisl": 6764,
      "MS": 6765,
      "Ġfashion": 6766,
      "ĠTy": 6767,
      "wealth": 6768,
      "Ġ1937": 6769,
      "rowd": 6770,
      "ctic": 6771,
      "allery": 6772,
      "Ġselect": 6773,
      "Mark": 6774,
      "Ġchampions": 6775,
      "Ġgreatest": 6776,
      "Ġcausing": 6777,
      "udget": 6778,
      "Ġacts": 6779,
      "ĠCab": 6780,
      "raction": 6781,
      "ĠArk": 6782,
      "ĠShah": 6783,
      "lades": 6784,
      "ĠTrain": 6785,
      "ĠLocal": 6786,
      "ducing": 6787,
      "Ġcalls": 6788,
      "ĠInformation": 6789,
      "set": 6790,
      "ĠPict": 6791,
      "Ġrival": 6792,
      "ĠMedical": 6793,
      "ĠAffairs": 6794,
      "ĠHard": 6795,
      "Ġpassing": 6796,
      "Ġlimit": 6797,
      "Ġspot": 6798,
      "Ġfounding": 6799,
      "Ġcaptain": 6800,
      "ĠSingapore": 6801,
      "Ġstraight": 6802,
      "Ġenjoy": 6803,
      "ĠKl": 6804,
      "Ġwrite": 6805,
      "Ġlawyer": 6806,
      "Ġconnection": 6807,
      "ÃŁ": 6808,
      "ĠBack": 6809,
      "Ġenemy": 6810,
      "1981": 6811,
      "Ġalleged": 6812,
      "DP": 6813,
      "Ġthr": 6814,
      "obe": 6815,
      "Ġarticles": 6816,
      "Ġcouple": 6817,
      "Fran": 6818,
      "fall": 6819,
      "ĠOak": 6820,
      "Ġvary": 6821,
      "93": 6822,
      "Ju": 6823,
      "Ġworldwide": 6824,
      "Ġfought": 6825,
      "Ġappeal": 6826,
      "while": 6827,
      "Ġwant": 6828,
      "icit": 6829,
      "oming": 6830,
      "Ġ;": 6831,
      "ĠOd": 6832,
      "TS": 6833,
      "irty": 6834,
      "ĠHans": 6835,
      "Ġheavily": 6836,
      "ĠTurn": 6837,
      "ĠKal": 6838,
      "Ġshape": 6839,
      "Ġ1935": 6840,
      "Ġguard": 6841,
      "ĠJacob": 6842,
      "ĠGlasgow": 6843,
      "Ġcas": 6844,
      "Ġpiece": 6845,
      "Ġmiles": 6846,
      "Ġload": 6847,
      "Ġflu": 6848,
      "Ġarchae": 6849,
      "Ġfranch": 6850,
      "Ġbrothers": 6851,
      "ĠQueensland": 6852,
      "zant": 6853,
      "Ġsan": 6854,
      "ĠDark": 6855,
      "Ġprepar": 6856,
      "Ġcauses": 6857,
      "Ġentirely": 6858,
      "Ġspecifically": 6859,
      "Ġsixth": 6860,
      "94": 6861,
      "August": 6862,
      "aded": 6863,
      "glas": 6864,
      "urance": 6865,
      "tery": 6866,
      "Ġproved": 6867,
      "Best": 6868,
      "cious": 6869,
      "orge": 6870,
      "Ġagent": 6871,
      "Ġpasses": 6872,
      "ĠArabic": 6873,
      "Ġchalleng": 6874,
      "Ġabandoned": 6875,
      "Ġwealth": 6876,
      "ÃŃa": 6877,
      "Ġnick": 6878,
      "cha": 6879,
      "Ġones": 6880,
      "Ġbottom": 6881,
      "CO": 6882,
      "bar": 6883,
      "issance": 6884,
      "ĠBuff": 6885,
      "ĠFurther": 6886,
      "oslav": 6887,
      "Ġdefend": 6888,
      "Ġdomestic": 6889,
      "North": 6890,
      "atures": 6891,
      "Ġlot": 6892,
      "ĠEven": 6893,
      "Ġyellow": 6894,
      "weet": 6895,
      "Ġcert": 6896,
      "ĠLow": 6897,
      "Ġflood": 6898,
      "Ġconfirmed": 6899,
      "ĠAlberta": 6900,
      "ĠNeb": 6901,
      "Ġmonarch": 6902,
      "1960": 6903,
      "Ġtechnical": 6904,
      "Ġstrength": 6905,
      "iler": 6906,
      "Ġruled": 6907,
      "Ġfailure": 6908,
      "Ġtranslated": 6909,
      "Ġmaximum": 6910,
      "ĠMic": 6911,
      "ĠEric": 6912,
      "Ġhired": 6913,
      "Ġretirement": 6914,
      "fully": 6915,
      "Ġbelieve": 6916,
      "ĠMaryland": 6917,
      "64": 6918,
      "83": 6919,
      "ĠFle": 6920,
      "Ġmoment": 6921,
      "ĠFM": 6922,
      "Ġconsisted": 6923,
      "ĠTen": 6924,
      "rome": 6925,
      "ologies": 6926,
      "Ġsupporting": 6927,
      "Ġnegot": 6928,
      "eler": 6929,
      "irt": 6930,
      "Ġhorse": 6931,
      "econd": 6932,
      "Ġcommittee": 6933,
      "iverpool": 6934,
      "ithm": 6935,
      "Ġjur": 6936,
      "inburgh": 6937,
      "Ġshortly": 6938,
      "Ġinstruments": 6939,
      "Ġconvent": 6940,
      "Ġcontributed": 6941,
      "ecticut": 6942,
      "Ġhun": 6943,
      "Ġguns": 6944,
      "Ġfeet": 6945,
      "ĠArmenian": 6946,
      "ĠEP": 6947,
      "Ġ1927": 6948,
      "Ġphen": 6949,
      "itionally": 6950,
      "ĠÃĩ": 6951,
      "Ġliterary": 6952,
      "ipe": 6953,
      "Ġaid": 6954,
      "ĠHoward": 6955,
      "Ġ1931": 6956,
      "itic": 6957,
      "ĠPot": 6958,
      "ĠConst": 6959,
      "don": 6960,
      "1985": 6961,
      "1986": 6962,
      "Ġcycl": 6963,
      "Europe": 6964,
      "77": 6965,
      "hing": 6966,
      "run": 6967,
      "ami": 6968,
      "William": 6969,
      "02": 6970,
      "Ġreduce": 6971,
      "Ġpolic": 6972,
      "aux": 6973,
      "Ġdevice": 6974,
      "igious": 6975,
      "Ġeducational": 6976,
      "Ġorders": 6977,
      "ĠGram": 6978,
      "Ġphase": 6979,
      "hetic": 6980,
      "inisters": 6981,
      "rÃ©": 6982,
      "Ġphilos": 6983,
      "ĠDanish": 6984,
      "Ġ34": 6985,
      "ĠChildren": 6986,
      "ĠBible": 6987,
      "Ġnotably": 6988,
      "Ġentitled": 6989,
      "Ġbacking": 6990,
      "Ġrecognition": 6991,
      "orus": 6992,
      "Ġparallel": 6993,
      "ĠTig": 6994,
      "ĠWisconsin": 6995,
      "ĠAmendment": 6996,
      "ĠToday": 6997,
      "arus": 6998,
      "ĠNY": 6999,
      "ĠWelsh": 7000,
      "ĠPrin": 7001,
      "91": 7002,
      "eding": 7003,
      "ĠWolf": 7004,
      "imore": 7005,
      "season": 7006,
      "AN": 7007,
      "racy": 7008,
      "ĠReal": 7009,
      "ĠInternet": 7010,
      "Ġminim": 7011,
      "Ġconsisting": 7012,
      "ĠAtlanta": 7013,
      "come": 7014,
      "iful": 7015,
      "III": 7016,
      "ĠTokyo": 7017,
      "ĠMit": 7018,
      "Ġalcoh": 7019,
      "ĠHeart": 7020,
      "Ġtex": 7021,
      "Ġpartner": 7022,
      "Ġprotect": 7023,
      "Ġ1900": 7024,
      "ĠEnvironment": 7025,
      "ĠSwitzerland": 7026,
      "ishops": 7027,
      "Ġrevolution": 7028,
      "Ġsignificantly": 7029,
      "ĠSin": 7030,
      "Ġimpr": 7031,
      "uilt": 7032,
      "ĠWindows": 7033,
      "SO": 7034,
      "term": 7035,
      "Ġtemple": 7036,
      "Ġchairman": 7037,
      "ĠIndones": 7038,
      "Ġquite": 7039,
      "Ġcricketer": 7040,
      "Populated": 7041,
      "arat": 7042,
      "Ġencourag": 7043,
      "ga": 7044,
      "ĠGab": 7045,
      "ordan": 7046,
      "ologists": 7047,
      "ĠJesus": 7048,
      "1984": 7049,
      "ĠTs": 7050,
      "Ġvs": 7051,
      "enny": 7052,
      "Most": 7053,
      "Å«": 7054,
      "ĠEarly": 7055,
      "Ġactual": 7056,
      "ĠWalter": 7057,
      "ET": 7058,
      "usal": 7059,
      "ĠLo": 7060,
      "1979": 7061,
      "Ġheight": 7062,
      "ĠCommand": 7063,
      "gency": 7064,
      "oking": 7065,
      "Ġprefer": 7066,
      "Ġdescribes": 7067,
      "ao": 7068,
      "Ġchoice": 7069,
      "Ġ1924": 7070,
      "Ġcorrect": 7071,
      "osal": 7072,
      "Ġequivalent": 7073,
      "Sup": 7074,
      "Ġmayor": 7075,
      "Ġmaintained": 7076,
      "cow": 7077,
      "net": 7078,
      "Ġpieces": 7079,
      "Ġcontrolled": 7080,
      "Ġinstruct": 7081,
      "iti": 7082,
      "arks": 7083,
      "Ġdefensive": 7084,
      "Ġpilot": 7085,
      "Ġ(,": 7086,
      ";\"|": 7087,
      "Ġalone": 7088,
      "Ġoperate": 7089,
      "Com": 7090,
      "iser": 7091,
      "Ġcatal": 7092,
      "Ġevolution": 7093,
      "Ġbands": 7094,
      "Ġcolonial": 7095,
      "Ġsubm": 7096,
      "opes": 7097,
      "Ġfactors": 7098,
      "Ġdeveloping": 7099,
      "Ġactresses": 7100,
      "adow": 7101,
      "unior": 7102,
      "Ġexperien": 7103,
      "Ġholding": 7104,
      "Ġagricultural": 7105,
      "ĠAdvent": 7106,
      "Ġopera": 7107,
      "Ġvotes": 7108,
      "ĠNazi": 7109,
      "Ġrom": 7110,
      "Ġtrust": 7111,
      "Ġcategory": 7112,
      "Ġperforming": 7113,
      "Ġheard": 7114,
      "Ġsingers": 7115,
      "Ġpassenger": 7116,
      "Ġzone": 7117,
      "ĠBatman": 7118,
      "ĠBerg": 7119,
      "ĠHell": 7120,
      "Ġstores": 7121,
      "orf": 7122,
      "Ġeasily": 7123,
      "Japan": 7124,
      "ĠNob": 7125,
      "Ġseems": 7126,
      "Ġsquad": 7127,
      "Ġ300": 7128,
      "ĠDublin": 7129,
      "raf": 7130,
      "ĠGil": 7131,
      "ĠManagement": 7132,
      "Ġtypical": 7133,
      "ĠPhill": 7134,
      "anth": 7135,
      "amic": 7136,
      "Ġnor": 7137,
      "iami": 7138,
      "Video": 7139,
      "insula": 7140,
      "Ġneighbour": 7141,
      "clusion": 7142,
      "ailand": 7143,
      "ussian": 7144,
      "ĠQuebec": 7145,
      "87": 7146,
      "Ġlake": 7147,
      "ĠYour": 7148,
      "App": 7149,
      "DA": 7150,
      "ĠBuck": 7151,
      "Ġsubst": 7152,
      "1983": 7153,
      "ĠMalays": 7154,
      "atab": 7155,
      "Ġimages": 7156,
      "ĠAfghanistan": 7157,
      "Ġri": 7158,
      "ĠOrthodox": 7159,
      "Ġincident": 7160,
      "Ġ1934": 7161,
      "ĠAlfred": 7162,
      "ĠMissouri": 7163,
      "antasy": 7164,
      "1976": 7165,
      "Ġregarding": 7166,
      "onian": 7167,
      "ĠEth": 7168,
      "Ġchain": 7169,
      "Ġshall": 7170,
      "Ġrow": 7171,
      "Ġinstitution": 7172,
      "ĠDenmark": 7173,
      "Ġdates": 7174,
      "inners": 7175,
      "Ġdifference": 7176,
      "ĠMember": 7177,
      "eget": 7178,
      "Ġviews": 7179,
      "Ġnominated": 7180,
      "Ġvo": 7181,
      "Ġproced": 7182,
      "ourses": 7183,
      "after": 7184,
      "di": 7185,
      "2020": 7186,
      "Ġsuccessfully": 7187,
      "Ġviolence": 7188,
      "uv": 7189,
      "Ġdivers": 7190,
      "IV": 7191,
      "ĠSultan": 7192,
      "Ġdoll": 7193,
      "ĠAmong": 7194,
      "Ġescape": 7195,
      "Ġpages": 7196,
      "Ġhousing": 7197,
      "jo": 7198,
      "ĠKey": 7199,
      "Ġproducing": 7200,
      "Ð¸": 7201,
      "Ġcamer": 7202,
      "ĠJam": 7203,
      "uda": 7204,
      "erbai": 7205,
      "ĠConnecticut": 7206,
      "%.": 7207,
      "Ġincorporated": 7208,
      "ĠRoger": 7209,
      "pa": 7210,
      "ĠMagazine": 7211,
      "ĠBelgium": 7212,
      "Ġsale": 7213,
      "ori": 7214,
      "ante": 7215,
      "ĠSchools": 7216,
      "ĠAllen": 7217,
      "hard": 7218,
      "aro": 7219,
      "ĠMoh": 7220,
      "ĠSquare": 7221,
      "ĠFac": 7222,
      "Ġcharts": 7223,
      "Phil": 7224,
      "vements": 7225,
      "ĠTun": 7226,
      "olas": 7227,
      "2022": 7228,
      "If": 7229,
      "ĠLog": 7230,
      "Ġincome": 7231,
      "Ġcompetitions": 7232,
      "ĠSac": 7233,
      "osure": 7234,
      "82": 7235,
      "soft": 7236,
      "owned": 7237,
      "Ġinvolving": 7238,
      "Ġheat": 7239,
      "ĠStory": 7240,
      "asts": 7241,
      "Ġlocomot": 7242,
      "Ġsubstant": 7243,
      "ĠOnly": 7244,
      "Ġreceiving": 7245,
      "inking": 7246,
      "Ġwalls": 7247,
      "Ġ1917": 7248,
      "angers": 7249,
      "Ġcovers": 7250,
      "ĠDream": 7251,
      "ĠErn": 7252,
      "October": 7253,
      "ĠAnthony": 7254,
      "Ġuniform": 7255,
      "ĠBruce": 7256,
      "ĠLiverpool": 7257,
      "Ġguitarist": 7258,
      "ĠLiberal": 7259,
      "ĠSilver": 7260,
      "ĠGallery": 7261,
      "Over": 7262,
      "sea": 7263,
      "Ġrecordings": 7264,
      "ĠTerrit": 7265,
      "TC": 7266,
      "gers": 7267,
      "Ġgirls": 7268,
      "Awards": 7269,
      "ĠDetroit": 7270,
      "Mod": 7271,
      "mosp": 7272,
      "ĠEc": 7273,
      "ĠComics": 7274,
      "Ã¡s": 7275,
      "à¸": 7276,
      "stan": 7277,
      "Ġcommit": 7278,
      "Ġengines": 7279,
      "ĠPalace": 7280,
      "Ġabsor": 7281,
      "Hon": 7282,
      "Ġsust": 7283,
      "Ġadvent": 7284,
      "Ġrespond": 7285,
      "ĠRoberts": 7286,
      "fort": 7287,
      "Ġresear": 7288,
      "You": 7289,
      "bal": 7290,
      "Ġcore": 7291,
      "leased": 7292,
      "agle": 7293,
      "iah": 7294,
      "tsburgh": 7295,
      "Ġwarn": 7296,
      "Ġedge": 7297,
      "Ġimproved": 7298,
      "idden": 7299,
      "April": 7300,
      "ranged": 7301,
      "Ġarmed": 7302,
      "keep": 7303,
      "ropical": 7304,
      "Ġtask": 7305,
      "ĠCleveland": 7306,
      "ĠImp": 7307,
      "Ġceremony": 7308,
      "La": 7309,
      "onna": 7310,
      "ĠVis": 7311,
      "ĠBrazilian": 7312,
      "84": 7313,
      "ĠTit": 7314,
      "ĠNev": 7315,
      "rix": 7316,
      "Ġfocused": 7317,
      "ĠFrederick": 7318,
      "ĠRand": 7319,
      "ĠAngl": 7320,
      "Leg": 7321,
      "ache": 7322,
      "Ġpoly": 7323,
      "ĠClin": 7324,
      "Ġvisual": 7325,
      "ĠEdinburgh": 7326,
      "Ġresemb": 7327,
      "ushed": 7328,
      "then": 7329,
      "ĠPoint": 7330,
      "ĠAnderson": 7331,
      "ĠMountains": 7332,
      "Ġsomew": 7333,
      "rav": 7334,
      "Ġsuburb": 7335,
      "Ġ1926": 7336,
      "Ġestablishment": 7337,
      "Ġbriefly": 7338,
      "oples": 7339,
      "1982": 7340,
      "''": 7341,
      "ĠBowie": 7342,
      "Ġpoetry": 7343,
      "ĠPhilippines": 7344,
      "Ġsnow": 7345,
      "ĠFellow": 7346,
      "enses": 7347,
      "Ġdirectors": 7348,
      "ĠReport": 7349,
      "Ġrequest": 7350,
      "Ġadjacent": 7351,
      "Ġsolution": 7352,
      "Ġans": 7353,
      "Ġpurposes": 7354,
      "ĠOffic": 7355,
      "apes": 7356,
      "ikh": 7357,
      "Ġdisapp": 7358,
      "Ġoffices": 7359,
      "po": 7360,
      "atur": 7361,
      "Ġinstall": 7362,
      "Ġfinds": 7363,
      "ĠAP": 7364,
      "Ġ1910": 7365,
      "ĠAli": 7366,
      "ĠAustin": 7367,
      "ĠWho": 7368,
      "Ġmotion": 7369,
      "Ġdefinition": 7370,
      "72": 7371,
      "ĠHit": 7372,
      "Ġselection": 7373,
      "Ġreaching": 7374,
      "ĠBrand": 7375,
      "ĠBillboard": 7376,
      "Ġcrown": 7377,
      "Ġtons": 7378,
      "Ġreserv": 7379,
      "ĠBefore": 7380,
      "ĠDouglas": 7381,
      "pan": 7382,
      "ĠFinland": 7383,
      "Ġadapted": 7384,
      "found": 7385,
      "raine": 7386,
      "Ġconsecutive": 7387,
      "ĠDisney": 7388,
      "ceived": 7389,
      "EA": 7390,
      "HS": 7391,
      "uh": 7392,
      "ĠPatrick": 7393,
      "DF": 7394,
      "othing": 7395,
      "ĠRecord": 7396,
      "raska": 7397,
      "Ġcool": 7398,
      "Ġ(;": 7399,
      "ĠFund": 7400,
      "iley": 7401,
      "1978": 7402,
      "iac": 7403,
      "Ġfixed": 7404,
      "Ġlit": 7405,
      "issions": 7406,
      "Ġpriest": 7407,
      "ĠTemple": 7408,
      "Ġwaters": 7409,
      "eland": 7410,
      "Ġdevices": 7411,
      "Ġmerged": 7412,
      "ES": 7413,
      "Ġtail": 7414,
      "ĠFried": 7415,
      "awn": 7416,
      "Ġ49": 7417,
      "ribed": 7418,
      "lahoma": 7419,
      "Ġyour": 7420,
      "Ġ400": 7421,
      "ĠKnight": 7422,
      "ĠUpper": 7423,
      "Ġcopy": 7424,
      "Ital": 7425,
      "ĠKings": 7426,
      "Ġelectron": 7427,
      "Ġdescription": 7428,
      "style": 7429,
      "commun": 7430,
      "ĠConfeder": 7431,
      "June": 7432,
      "ĠFood": 7433,
      "ugar": 7434,
      "ĠThrough": 7435,
      "rama": 7436,
      "etime": 7437,
      "ĠProtest": 7438,
      "'m": 7439,
      "gebra": 7440,
      "Ġflat": 7441,
      "ĠDur": 7442,
      "Ġresc": 7443,
      "idge": 7444,
      "casting": 7445,
      "Ġrepresenting": 7446,
      "Ġ1925": 7447,
      "61": 7448,
      "ci": 7449,
      "Ġalgor": 7450,
      "hammad": 7451,
      "Ġgoods": 7452,
      "Ġuniversities": 7453,
      "ĠHand": 7454,
      "ĠDak": 7455,
      "oba": 7456,
      "Ġinstalled": 7457,
      "ĠAle": 7458,
      "rik": 7459,
      "July": 7460,
      "Build": 7461,
      "Mon": 7462,
      "Ġappoint": 7463,
      "Ġ75": 7464,
      "Ġpopularity": 7465,
      "hus": 7466,
      "ocked": 7467,
      "azines": 7468,
      "74": 7469,
      "itals": 7470,
      "ĠDave": 7471,
      "Cent": 7472,
      "lar": 7473,
      "Ġmilit": 7474,
      "ĠDallas": 7475,
      "Ġdoing": 7476,
      "Rel": 7477,
      "night": 7478,
      "Ġwor": 7479,
      "Ġlegend": 7480,
      "Ġstorage": 7481,
      "1974": 7482,
      "ĠExpress": 7483,
      "ĠHouston": 7484,
      "September": 7485,
      "erts": 7486,
      "ĠCall": 7487,
      "utation": 7488,
      "ĠBoys": 7489,
      "ĠHills": 7490,
      "Ġeducated": 7491,
      "Ġpainting": 7492,
      "ĠJohann": 7493,
      "ista": 7494,
      "ĠOri": 7495,
      "Ġweather": 7496,
      "ĠLas": 7497,
      "redited": 7498,
      "regon": 7499,
      "ĠByzant": 7500,
      "Act": 7501,
      "ĠAustrian": 7502,
      "Ġdocuments": 7503,
      "uscript": 7504,
      "ĠJane": 7505,
      "Ġsuggests": 7506,
      "Ġterritories": 7507,
      "osite": 7508,
      "ĠKam": 7509,
      "ĠAthens": 7510,
      "Ġoutput": 7511,
      "Ġmobile": 7512,
      "Ġmanagers": 7513,
      "Public": 7514,
      "ĠCarn": 7515,
      "ĠCrown": 7516,
      "Histor": 7517,
      "Ġrecip": 7518,
      "1977": 7519,
      "ĠStaff": 7520,
      "Inter": 7521,
      "Transport": 7522,
      "Pol": 7523,
      "je": 7524,
      "ĠGri": 7525,
      "Ġprime": 7526,
      "Geography": 7527,
      "bridge": 7528,
      "ensis": 7529,
      "Ġsail": 7530,
      "Ġscenes": 7531,
      "ĠLawrence": 7532,
      "81": 7533,
      "Ġcompilation": 7534,
      "Ġrelative": 7535,
      "appy": 7536,
      "Ġpup": 7537,
      "rypt": 7538,
      "Ġdecor": 7539,
      "Rep": 7540,
      "eless": 7541,
      "olt": 7542,
      "Ġcycle": 7543,
      "Ġcontext": 7544,
      "oyd": 7545,
      "Ġuser": 7546,
      "Ġfleet": 7547,
      "Ġadvantage": 7548,
      "Ġille": 7549,
      "Ġpron": 7550,
      "Ġdiam": 7551,
      "ĠDa": 7552,
      "Ġinstance": 7553,
      "ĠMurray": 7554,
      "owntown": 7555,
      "Pre": 7556,
      "ĠPlaces": 7557,
      "tered": 7558,
      "Ġoccas": 7559,
      "wall": 7560,
      "yard": 7561,
      "Ġisol": 7562,
      "ĠDead": 7563,
      "ĠNich": 7564,
      "ĠBanglades": 7565,
      "David": 7566,
      "ĠCamer": 7567,
      "ĠTar": 7568,
      "ĠBasketball": 7569,
      "Ġitems": 7570,
      "December": 7571,
      "Life": 7572,
      "Ġcru": 7573,
      "ĠNBA": 7574,
      "rant": 7575,
      "ĠMethod": 7576,
      "ĠKarl": 7577,
      "ĠYug": 7578,
      "scape": 7579,
      "ythm": 7580,
      "heastern": 7581,
      "star": 7582,
      "ĠFarm": 7583,
      "aly": 7584,
      "Ġprocesses": 7585,
      "Ġopin": 7586,
      "ĠCommonwealth": 7587,
      "ĠThailand": 7588,
      "ĠDue": 7589,
      "Ðµ": 7590,
      "Ġextension": 7591,
      "Ġprogramme": 7592,
      "ĠProvincial": 7593,
      "ibl": 7594,
      "Ġimprove": 7595,
      "ĠGordon": 7596,
      "Ġ1912": 7597,
      "ĠNow": 7598,
      "1972": 7599,
      "Ġaffected": 7600,
      "Ġcrossing": 7601,
      "62": 7602,
      "Ġmand": 7603,
      "iders": 7604,
      "ĠKat": 7605,
      "Ġnucle": 7606,
      "Ġfrequency": 7607,
      "dale": 7608,
      "inces": 7609,
      "ellect": 7610,
      "ĠDeath": 7611,
      "Ġelectronic": 7612,
      "Ġcommunication": 7613,
      "Ġpainter": 7614,
      "Ġplot": 7615,
      "cons": 7616,
      "Ġment": 7617,
      "Ġalph": 7618,
      "Ġentrance": 7619,
      "ĠVar": 7620,
      "rastructure": 7621,
      "Official": 7622,
      "yles": 7623,
      "ĠRose": 7624,
      "aren": 7625,
      "Ġcolleges": 7626,
      "Ġroads": 7627,
      "Per": 7628,
      "Ġtall": 7629,
      "isters": 7630,
      "Ġcomposition": 7631,
      "Ġdegrees": 7632,
      "Ġhits": 7633,
      "ĠKild": 7634,
      "ensed": 7635,
      "Ġprice": 7636,
      "Ġdry": 7637,
      "ĠBron": 7638,
      "Ġago": 7639,
      "har": 7640,
      "Ġrivers": 7641,
      "ĠAber": 7642,
      "ĠFe": 7643,
      "ĠMoscow": 7644,
      "Ġrepeated": 7645,
      "ĠLan": 7646,
      "Ġdifferences": 7647,
      "Ġpatients": 7648,
      "ĠStew": 7649,
      "Ġpromote": 7650,
      "Ġrefuge": 7651,
      "lementary": 7652,
      "Ġdensity": 7653,
      "Ġjazz": 7654,
      "1975": 7655,
      "ayers": 7656,
      "âĢł": 7657,
      "Ġresidence": 7658,
      "ĠRick": 7659,
      "Ġtrav": 7660,
      "Ġprotein": 7661,
      "TO": 7662,
      "actions": 7663,
      "ĠYears": 7664,
      "ĠArgentina": 7665,
      "apolis": 7666,
      "Ġcollected": 7667,
      "Ġrailroad": 7668,
      "Ġfunding": 7669,
      "ĠAzerbai": 7670,
      "ĠCroatia": 7671,
      "Ġauthors": 7672,
      "iang": 7673,
      "ĠVo": 7674,
      "uous": 7675,
      "Ġgar": 7676,
      "Ġgain": 7677,
      "aby": 7678,
      "Ġpione": 7679,
      "ĠLiter": 7680,
      "ranean": 7681,
      "ensions": 7682,
      "ĠLouisiana": 7683,
      "anian": 7684,
      "ĠHur": 7685,
      "Ġrich": 7686,
      "Ġpopulations": 7687,
      "ĠHollywood": 7688,
      "Ġoffering": 7689,
      "ĠSport": 7690,
      "Ġstands": 7691,
      "arsh": 7692,
      "Ġparks": 7693,
      "Military": 7694,
      "ĠOp": 7695,
      "Ġusers": 7696,
      "Ġstatement": 7697,
      "ĠReb": 7698,
      "ĠNick": 7699,
      "Ġsubsid": 7700,
      "Ġlaid": 7701,
      "Ġliqu": 7702,
      "Ġsell": 7703,
      "Ġconsult": 7704,
      "Ġdescend": 7705,
      "Orig": 7706,
      "ti": 7707,
      "Ġfrag": 7708,
      "ĠBed": 7709,
      "Ġthrow": 7710,
      "Ġrevers": 7711,
      "onstruction": 7712,
      "71": 7713,
      "Women": 7714,
      "Ġaer": 7715,
      "ĠGib": 7716,
      "Ġanimated": 7717,
      "Ġexpedition": 7718,
      "Ġunderstanding": 7719,
      "ĠMuslims": 7720,
      "ĠBou": 7721,
      "Ġgrounds": 7722,
      "Ġfinishing": 7723,
      "lan": 7724,
      "ĠSaf": 7725,
      "box": 7726,
      "Ġbear": 7727,
      "Ġcommitted": 7728,
      "ĠCR": 7729,
      "Ġ1915": 7730,
      "ĠNCAA": 7731,
      "Ġdesigns": 7732,
      "ygen": 7733,
      "cht": 7734,
      "Ġleads": 7735,
      "ĠKevin": 7736,
      "Ġneut": 7737,
      "Ġfreedom": 7738,
      "ĠLtd": 7739,
      "lu": 7740,
      "Ġstarring": 7741,
      "Ġbatter": 7742,
      "Ġbacter": 7743,
      "lete": 7744,
      "ĠNiger": 7745,
      "elson": 7746,
      "Ġtexts": 7747,
      "Ġwave": 7748,
      "Ġcircum": 7749,
      "Ġinaug": 7750,
      "Ġmort": 7751,
      "ippi": 7752,
      "Ġspoken": 7753,
      "Ġcriminal": 7754,
      "NT": 7755,
      "inosaur": 7756,
      "Ġmarg": 7757,
      "ĠInn": 7758,
      "Ġretained": 7759,
      "Ġpassengers": 7760,
      "olo": 7761,
      "ĠDog": 7762,
      "ĠNar": 7763,
      "Ġmedieval": 7764,
      "à¤": 7765,
      "ĠCP": 7766,
      "ĠDC": 7767,
      "Ġexerc": 7768,
      "Ġcalling": 7769,
      "Ġshowing": 7770,
      "Sing": 7771,
      "Ġinsc": 7772,
      "ĠRussell": 7773,
      "ello": 7774,
      "ĠSymph": 7775,
      "ĠStudios": 7776,
      "79": 7777,
      "otten": 7778,
      "Ġcorpor": 7779,
      "die": 7780,
      "icide": 7781,
      "Ġcoordin": 7782,
      "Ġmedium": 7783,
      "Ġrepresentative": 7784,
      "iÃ³n": 7785,
      "Ġsed": 7786,
      "emen": 7787,
      "ocene": 7788,
      "iph": 7789,
      "cycl": 7790,
      "Ġcourts": 7791,
      "ĠSeveral": 7792,
      "Ġhill": 7793,
      "ĠDefense": 7794,
      "Ġhotel": 7795,
      "Ġtrying": 7796,
      "Ġ1913": 7797,
      "Ġplanning": 7798,
      "uster": 7799,
      "Ġprint": 7800,
      "Ġprisoners": 7801,
      "ĠMuhammad": 7802,
      "ĠPir": 7803,
      "ocracy": 7804,
      "antly": 7805,
      "ranches": 7806,
      "Ġroof": 7807,
      "ricket": 7808,
      "Ġdetermine": 7809,
      "Ġbill": 7810,
      "ĠLi": 7811,
      "una": 7812,
      "ĠNa": 7813,
      "ahn": 7814,
      "Sm": 7815,
      "rep": 7816,
      "Ġassault": 7817,
      "Ġrequires": 7818,
      "Medal": 7819,
      "Ġaspects": 7820,
      "idel": 7821,
      "ellite": 7822,
      "Ġoverl": 7823,
      "Ġdecade": 7824,
      "Ġentertain": 7825,
      "Ġdistributed": 7826,
      "Ġrejected": 7827,
      "ture": 7828,
      "ĠLov": 7829,
      "Ġstatistics": 7830,
      "Ġvolunte": 7831,
      "Ġapart": 7832,
      "Ġnickn": 7833,
      "Ġmist": 7834,
      "Ġeg": 7835,
      "abled": 7836,
      "ĠTrophy": 7837,
      "EE": 7838,
      "bishop": 7839,
      "Ġsections": 7840,
      "isd": 7841,
      "Ġpul": 7842,
      "ĠGw": 7843,
      "rane": 7844,
      "Ġlect": 7845,
      "Ġaccur": 7846,
      "Ġclassic": 7847,
      "uma": 7848,
      "ocol": 7849,
      "resents": 7850,
      "January": 7851,
      "ĠAntar": 7852,
      "Ġnewspapers": 7853,
      "Ġnations": 7854,
      "iva": 7855,
      "Ġvert": 7856,
      "Ġ64": 7857,
      "Ġsole": 7858,
      "1973": 7859,
      "Ġcompete": 7860,
      "borough": 7861,
      "Ġpitch": 7862,
      "such": 7863,
      "aked": 7864,
      "ĠTaiwan": 7865,
      "Ġtheater": 7866,
      "ĠFinn": 7867,
      "odia": 7868,
      "ĠWhit": 7869,
      "Ġkid": 7870,
      "aza": 7871,
      "ommod": 7872,
      "ĠSenior": 7873,
      "Ġfresh": 7874,
      "Ġhair": 7875,
      "ĠBry": 7876,
      "ĠGirl": 7877,
      "Ġstring": 7878,
      "Ġbenef": 7879,
      "300": 7880,
      "ogether": 7881,
      "Ġfine": 7882,
      "ĠBarry": 7883,
      "verse": 7884,
      "rior": 7885,
      "Ġfunds": 7886,
      "ĠBengal": 7887,
      "Ġvice": 7888,
      "ĠConstant": 7889,
      "ĠCooper": 7890,
      "Ġfactor": 7891,
      "Ġspiritual": 7892,
      "ML": 7893,
      "Ġdivisions": 7894,
      "Ġcards": 7895,
      "Ġinform": 7896,
      "Ġtechnique": 7897,
      "Ġopportunity": 7898,
      "ibbean": 7899,
      "mat": 7900,
      "otte": 7901,
      "Ġstret": 7902,
      "Ġresigned": 7903,
      "Ġweak": 7904,
      "pur": 7905,
      "Ġrenov": 7906,
      "ĠBrothers": 7907,
      "Ġcrowd": 7908,
      "acc": 7909,
      "Ġplate": 7910,
      "Ġcomponents": 7911,
      "ĠNorman": 7912,
      "Ġroughly": 7913,
      "Ġtry": 7914,
      "ithuan": 7915,
      "ĠGirls": 7916,
      "ĠOperation": 7917,
      "Ġthousands": 7918,
      "bane": 7919,
      "Ġstorm": 7920,
      "Ġmedicine": 7921,
      "spec": 7922,
      "1971": 7923,
      "Ġtwelve": 7924,
      "power": 7925,
      "ĠLast": 7926,
      "going": 7927,
      "1969": 7928,
      "Ġoffensive": 7929,
      "rings": 7930,
      "Ġtank": 7931,
      "Ġbudget": 7932,
      "Ġrates": 7933,
      "2021": 7934,
      "Ġexpression": 7935,
      "Ġvoted": 7936,
      "phone": 7937,
      "ĠAmaz": 7938,
      "Qu": 7939,
      "ĠAR": 7940,
      "Ġfranchise": 7941,
      "Ste": 7942,
      "Ġmus": 7943,
      "ĠProduct": 7944,
      "boards": 7945,
      "ĠGrant": 7946,
      "Ġemployees": 7947,
      "Ġpersons": 7948,
      "Ġ1916": 7949,
      "onder": 7950,
      "Ġlanding": 7951,
      "Ġhousehold": 7952,
      "ĠImperial": 7953,
      "SM": 7954,
      "UK": 7955,
      "Ġpurchase": 7956,
      "Roman": 7957,
      "Ġ1890": 7958,
      "Ġedited": 7959,
      "Ġdim": 7960,
      "Ġdie": 7961,
      "ĠOklahoma": 7962,
      "Ġbit": 7963,
      "Ġreleg": 7964,
      "ĠAT": 7965,
      "Ġbroken": 7966,
      "Ġstrike": 7967,
      "ĠAntonio": 7968,
      "Ġclean": 7969,
      "Ġcoastal": 7970,
      "Ġcredited": 7971,
      "ĠFriend": 7972,
      "ictions": 7973,
      "Ġseparated": 7974,
      "top": 7975,
      "ĠMem": 7976,
      "ivate": 7977,
      "Ġnothing": 7978,
      "Ġcooper": 7979,
      "Ġboat": 7980,
      "Ġtransition": 7981,
      "Ġski": 7982,
      "ĠRepresentatives": 7983,
      "Ġexperienced": 7984,
      "ĠOregon": 7985,
      "ĠChristianity": 7986,
      "Ġrepresents": 7987,
      "Ġpenal": 7988,
      "Ġhypot": 7989,
      "Ġextremely": 7990,
      "ĠNebraska": 7991,
      "Ġstating": 7992,
      "ourse": 7993,
      "ĠPhys": 7994,
      "Ġcapture": 7995,
      "ĠHig": 7996,
      "ĠGarden": 7997,
      "Ġatmosp": 7998,
      "Ġmodified": 7999,
      "Ġinvestigation": 8000,
      "ardo": 8001,
      "Ġapprop": 8002,
      "ĠAnne": 8003,
      "ĠWhat": 8004,
      "father": 8005,
      "Ġintelligence": 8006,
      "Ġotherwise": 8007,
      "Ġaccused": 8008,
      "ls": 8009,
      "Ä«": 8010,
      "Ġpartnership": 8011,
      "Star": 8012,
      "Ġdetails": 8013,
      "lon": 8014,
      "olia": 8015,
      "Ġrestrict": 8016,
      "Ġstanding": 8017,
      "Ġaccompan": 8018,
      "Äĥ": 8019,
      "ĠDoctor": 8020,
      "Ġcommissioned": 8021,
      "RO": 8022,
      "long": 8023,
      "ĠNon": 8024,
      "ĠEver": 8025,
      "ĠĠĠĠĠĠĠĠĠĠĠĠĠĠĠĠ": 8026,
      "Ġped": 8027,
      "etry": 8028,
      "ĠHeb": 8029,
      "Ġperhaps": 8030,
      "keley": 8031,
      "ĠBaltimore": 8032,
      "ĠMiami": 8033,
      "ĠBroadway": 8034,
      "69": 8035,
      "Ġfaced": 8036,
      "ĠWorks": 8037,
      "Ġsurvived": 8038,
      "November": 8039,
      "á¹": 8040,
      "ĠThen": 8041,
      "ĠLost": 8042,
      "seud": 8043,
      "Ġmedals": 8044,
      "Ġownership": 8045,
      "pir": 8046,
      "ayan": 8047,
      "Ġgene": 8048,
      "ĠNative": 8049,
      "exual": 8050,
      "Ġbattles": 8051,
      "bi": 8052,
      "ĠLuther": 8053,
      "ĠJordan": 8054,
      "Ġpractices": 8055,
      "Ġcharged": 8056,
      "63": 8057,
      "73": 8058,
      "ĠSri": 8059,
      "rops": 8060,
      "68": 8061,
      "enberg": 8062,
      "ĠLang": 8063,
      "odge": 8064,
      "udi": 8065,
      "ouses": 8066,
      "enez": 8067,
      "ĠGard": 8068,
      "ĠSecret": 8069,
      "Ġcoverage": 8070,
      "Ġscientists": 8071,
      "ĠML": 8072,
      "otype": 8073,
      "ando": 8074,
      "Ġfoundation": 8075,
      "Ġimprison": 8076,
      "Ġfan": 8077,
      "riev": 8078,
      "Ġveget": 8079,
      "Ġ42": 8080,
      "Ġupd": 8081,
      "Ġassess": 8082,
      "Ġoperates": 8083,
      "Ġprofile": 8084,
      "inations": 8085,
      "Ġpreced": 8086,
      "Ġproducers": 8087,
      "Pres": 8088,
      "aire": 8089,
      "iable": 8090,
      "Ġfram": 8091,
      "Ġfactory": 8092,
      "ĠPap": 8093,
      "Ġemot": 8094,
      "Ġvirus": 8095,
      "WA": 8096,
      "inding": 8097,
      "ĠSwiss": 8098,
      "ĠCelt": 8099,
      "ĠTele": 8100,
      "ĠPittsburgh": 8101,
      "adi": 8102,
      "ivated": 8103,
      "Ġmouth": 8104,
      "Ġopposite": 8105,
      "mingham": 8106,
      "First": 8107,
      "Ġlink": 8108,
      "Ġheads": 8109,
      "Ġpremier": 8110,
      "Ġlegislation": 8111,
      "ĠHarris": 8112,
      "Ġworship": 8113,
      "Ġunf": 8114,
      "Ġsoil": 8115,
      "ĠHungarian": 8116,
      "Ġtor": 8117,
      "ĠBak": 8118,
      "Ġexception": 8119,
      "Ġ1908": 8120,
      "ĠVienna": 8121,
      "BM": 8122,
      "DC": 8123,
      "Writ": 8124,
      "ĠLeb": 8125,
      "ĠFal": 8126,
      "Ġsun": 8127,
      "ĠFil": 8128,
      "Ġassass": 8129,
      "Ġmovements": 8130,
      "Ġinfluential": 8131,
      "ders": 8132,
      "ĠPA": 8133,
      "Ġmart": 8134,
      "ĠNord": 8135,
      "Ġobtain": 8136,
      "ĠFranklin": 8137,
      "Ġrif": 8138,
      "alia": 8139,
      "olph": 8140,
      "ĠGulf": 8141,
      "amental": 8142,
      "Ġhomes": 8143,
      "%,": 8144,
      "ĠBeat": 8145,
      "ĠAlaska": 8146,
      "Bar": 8147,
      "vant": 8148,
      "ĠFu": 8149,
      "Ġconcerns": 8150,
      "ĠYugoslav": 8151,
      "icate": 8152,
      "ĠHonor": 8153,
      "ĠSR": 8154,
      "ĠMcK": 8155,
      "iterranean": 8156,
      "ĠMoore": 8157,
      "Ġagriculture": 8158,
      "Ġconvention": 8159,
      "ĠKy": 8160,
      "bass": 8161,
      "ouver": 8162,
      "anton": 8163,
      "Ġdemand": 8164,
      "ĠHungary": 8165,
      "Car": 8166,
      "lease": 8167,
      "Ġclassified": 8168,
      "Ġsuccessor": 8169,
      "ĠBosnia": 8170,
      "Ġaged": 8171,
      "ĠPeace": 8172,
      "iday": 8173,
      "ĠGener": 8174,
      "ĠThough": 8175,
      "Ġherself": 8176,
      "Ġincreasingly": 8177,
      "ĠOrganization": 8178,
      "ĠDJ": 8179,
      "ĠLyn": 8180,
      "Ġassumed": 8181,
      "ĠCuba": 8182,
      "ĠBetween": 8183,
      "Ġnortheast": 8184,
      "Her": 8185,
      "annels": 8186,
      "ĠControl": 8187,
      "Ġtesting": 8188,
      "ester": 8189,
      "Ġarc": 8190,
      "ĠSupport": 8191,
      "Ġimag": 8192,
      "ĠNik": 8193,
      "Ġjunior": 8194,
      "aneous": 8195,
      "ĠBorough": 8196,
      "Ġengaged": 8197,
      "astery": 8198,
      "ĠSamuel": 8199,
      "Ġeye": 8200,
      "Ġwhy": 8201,
      "Ġcosts": 8202,
      "lad": 8203,
      "ĠChristians": 8204,
      "Ġsoccer": 8205,
      "ĠPuerto": 8206,
      "ĠPC": 8207,
      "ĠGi": 8208,
      "ĠOm": 8209,
      "Ġtribes": 8210,
      "ĠAuthority": 8211,
      "Ġprohib": 8212,
      "Ġnorthwest": 8213,
      "Songs": 8214,
      "Ġbanks": 8215,
      "ĠIan": 8216,
      "ĠRhe": 8217,
      "Ġpeoples": 8218,
      "Scot": 8219,
      "hill": 8220,
      "aman": 8221,
      "Ġaccommod": 8222,
      "ussion": 8223,
      "aughters": 8224,
      "European": 8225,
      "Ġign": 8226,
      "orial": 8227,
      "ĠSee": 8228,
      "Ġroutes": 8229,
      "ĠBapt": 8230,
      "ĠLin": 8231,
      "Ġfoss": 8232,
      "olly": 8233,
      "ĠHug": 8234,
      "ĠWrestling": 8235,
      "aste": 8236,
      "Ġinvent": 8237,
      "Arch": 8238,
      "Ġcited": 8239,
      "ĠSA": 8240,
      "ĠJosÃ©": 8241,
      "inction": 8242,
      "ĠCemetery": 8243,
      "Ġcourses": 8244,
      "Ġreally": 8245,
      "Ġturns": 8246,
      "Ġdating": 8247,
      "ielder": 8248,
      "plete": 8249,
      "rapy": 8250,
      "ĠGran": 8251,
      "Ġshell": 8252,
      "Ġdepending": 8253,
      "Ġcandidates": 8254,
      "atabase": 8255,
      "rong": 8256,
      "Ġreality": 8257,
      "ĠMcG": 8258,
      "Ġdescribe": 8259,
      "Ġmerch": 8260,
      "Har": 8261,
      "Ġsynd": 8262,
      "Ġphr": 8263,
      "ĠHarvard": 8264,
      "Ġsufficient": 8265,
      "iw": 8266,
      "encement": 8267,
      "Ġregularly": 8268,
      "ĠBulgaria": 8269,
      "Ġfest": 8270,
      "issippi": 8271,
      "Ġpaintings": 8272,
      "ĠDeb": 8273,
      "Ġmountains": 8274,
      "chi": 8275,
      "Ġplus": 8276,
      "ĠYank": 8277,
      "Ġassembly": 8278,
      "ĠZh": 8279,
      "uis": 8280,
      "ĠLate": 8281,
      "abet": 8282,
      "Ġcompounds": 8283,
      "ĠBilly": 8284,
      "Ġproport": 8285,
      "Ġrepro": 8286,
      "ĠÃī": 8287,
      "Ġinterior": 8288,
      "Ġboys": 8289,
      "ĠIron": 8290,
      "Ġkick": 8291,
      "ĠArn": 8292,
      "Ġ150": 8293,
      "Ġstarts": 8294,
      "usalem": 8295,
      "rating": 8296,
      "ĠEvery": 8297,
      "Ġcomed": 8298,
      "Ġ44": 8299,
      "ĠOnce": 8300,
      "Ġexisted": 8301,
      "ĠSky": 8302,
      "Ġtennis": 8303,
      "ĠCook": 8304,
      "Ġreferences": 8305,
      "ĠCaribbean": 8306,
      "town": 8307,
      "ĠSax": 8308,
      "Ġlinked": 8309,
      "Ġowners": 8310,
      "Ġcheck": 8311,
      "lig": 8312,
      "1968": 8313,
      "elaide": 8314,
      "Ġworth": 8315,
      "Nor": 8316,
      "Ġcold": 8317,
      "ĠPear": 8318,
      "ompson": 8319,
      "Ġalcohol": 8320,
      "called": 8321,
      "Ġbiggest": 8322,
      "Ġinduct": 8323,
      "ĠCru": 8324,
      "uran": 8325,
      "Ġ1911": 8326,
      "Ġfavour": 8327,
      "Ġpitcher": 8328,
      "Ġwides": 8329,
      "ĠFact": 8330,
      "chell": 8331,
      "ho": 8332,
      "Ġwatch": 8333,
      "ĠHop": 8334,
      "ĠRound": 8335,
      "ĠLank": 8336,
      "ĠFall": 8337,
      "ĠÃĹ": 8338,
      "Ġmeasures": 8339,
      "ĠMatthew": 8340,
      "forcement": 8341,
      "ĠCatal": 8342,
      "rena": 8343,
      "attan": 8344,
      "Ġwhereas": 8345,
      "ĊĊĠĊ": 8346,
      "ĠPlayer": 8347,
      "ĠHeritage": 8348,
      "Ġrenew": 8349,
      "Scott": 8350,
      "âĪĴ": 8351,
      "ĠCrit": 8352,
      "ĠBattalion": 8353,
      "ĠBush": 8354,
      "ĠTrade": 8355,
      "who": 8356,
      "iency": 8357,
      "ĠHere": 8358,
      "rak": 8359,
      "Ġunus": 8360,
      "Ġanniversary": 8361,
      "Ġtransmission": 8362,
      "Ġhosts": 8363,
      "mpt": 8364,
      "ĠRow": 8365,
      "ĠNaval": 8366,
      "ĠVin": 8367,
      "onom": 8368,
      "Ġinvited": 8369,
      "zo": 8370,
      "Ġsample": 8371,
      "MP": 8372,
      "jamin": 8373,
      "Ġfly": 8374,
      "ĠSpe": 8375,
      "Ġrestored": 8376,
      "Background": 8377,
      "Ġmanuscript": 8378,
      "Education": 8379,
      "SE": 8380,
      "ĠTel": 8381,
      "ĠIl": 8382,
      "ĠWy": 8383,
      "Ġphotograph": 8384,
      "Ġtur": 8385,
      "abil": 8386,
      "Ġcapable": 8387,
      "Ġloan": 8388,
      "My": 8389,
      "ĠTax": 8390,
      "ĠWright": 8391,
      "ĠAgain": 8392,
      "Ġsuff": 8393,
      "rystal": 8394,
      "ĠBangladesh": 8395,
      "Ġinnov": 8396,
      "Ġsegment": 8397,
      "ĠDakota": 8398,
      "Ġsquadron": 8399,
      "ĠMes": 8400,
      "ĠRyan": 8401,
      "ĠGun": 8402,
      "Black": 8403,
      "Ġda": 8404,
      "Ġham": 8405,
      "ĠIowa": 8406,
      "ĠVik": 8407,
      "pread": 8408,
      "Ġcolour": 8409,
      "ĠChristopher": 8410,
      "claimed": 8411,
      "Ġbusinesses": 8412,
      "Ġlooking": 8413,
      "ĠMotor": 8414,
      "Ġseventh": 8415,
      "ancouver": 8416,
      "Ġdelay": 8417,
      "Ġbusinessman": 8418,
      "ĠTreaty": 8419,
      "ĠBuffalo": 8420,
      "fish": 8421,
      "pine": 8422,
      "Ġgarden": 8423,
      "Ġindicate": 8424,
      "Ġcontroversy": 8425,
      "Ġjourney": 8426,
      "EFA": 8427,
      "ĠNever": 8428,
      "Ġ65": 8429,
      "ĠPersian": 8430,
      "Ð½": 8431,
      "Ġnote": 8432,
      "risbane": 8433,
      "Ġreplacing": 8434,
      "Ġwarm": 8435,
      "Ġseconds": 8436,
      "ĠEnergy": 8437,
      "Est": 8438,
      "Ġnom": 8439,
      "ounce": 8440,
      "ĠPublishing": 8441,
      "ompl": 8442,
      "opt": 8443,
      "ĠCommander": 8444,
      "olar": 8445,
      "Plot": 8446,
      "Ġpolicies": 8447,
      "Part": 8448,
      "host": 8449,
      "atically": 8450,
      "oria": 8451,
      "ĠSox": 8452,
      "tenance": 8453,
      "Ġadding": 8454,
      "apping": 8455,
      "Ġcomposers": 8456,
      "February": 8457,
      "Ġfal": 8458,
      "ĠRan": 8459,
      "istant": 8460,
      "Ġattached": 8461,
      "Ġartillery": 8462,
      "sterdam": 8463,
      "Ġskills": 8464,
      "School": 8465,
      "know": 8466,
      "unch": 8467,
      "ĠChall": 8468,
      "Ġpoem": 8469,
      "Ġcriticism": 8470,
      "Ġfired": 8471,
      "ucks": 8472,
      "Ġ41": 8473,
      "ĠStewart": 8474,
      "ige": 8475,
      "ĠGoth": 8476,
      "ĠWol": 8477,
      "Major": 8478,
      "friend": 8479,
      "Ġadvoc": 8480,
      "ĠGlobal": 8481,
      "ĠSatur": 8482,
      "Ġutil": 8483,
      "Ġphenomen": 8484,
      "Ġaware": 8485,
      "oca": 8486,
      "Jew": 8487,
      "Ġbranches": 8488,
      "eton": 8489,
      "ĠLieutenant": 8490,
      "oviÄĩ": 8491,
      "away": 8492,
      "GBT": 8493,
      "eta": 8494,
      "ĠFather": 8495,
      "Ġexecuted": 8496,
      "Cal": 8497,
      "Ġrooms": 8498,
      "Ġshel": 8499,
      "Ġcharges": 8500,
      "Ġsomewhat": 8501,
      "hr": 8502,
      "Ġfictional": 8503,
      "ĠCBS": 8504,
      "Ġ48": 8505,
      "Ġsinging": 8506,
      "Ġdoctor": 8507,
      "Ġsurg": 8508,
      "Ġdrawn": 8509,
      "IP": 8510,
      "do": 8511,
      "ĠGuide": 8512,
      "Ġvisitors": 8513,
      "Ġveter": 8514,
      "Ġwitness": 8515,
      "Ġcarrying": 8516,
      "SPN": 8517,
      "achelor": 8518,
      "Rober": 8519,
      "leans": 8520,
      "ĠCollins": 8521,
      "Cast": 8522,
      "ĠIce": 8523,
      "abilities": 8524,
      "Ġjump": 8525,
      "Many": 8526,
      "Ġcrisis": 8527,
      "Ġaccounts": 8528,
      "ĠMicrosoft": 8529,
      "Ġretail": 8530,
      "Ġpicture": 8531,
      "ĠAdministration": 8532,
      "ifer": 8533,
      "ĠSaturday": 8534,
      "rod": 8535,
      "Ġassemb": 8536,
      "Ġsevere": 8537,
      "Ġstarred": 8538,
      "Ġscheduled": 8539,
      "Ġdismiss": 8540,
      "Buildings": 8541,
      "1964": 8542,
      "Ã¥": 8543,
      "iner": 8544,
      "omes": 8545,
      "Ġstable": 8546,
      "Ġrelation": 8547,
      "ĠCommunications": 8548,
      "High": 8549,
      "ĠLanc": 8550,
      "Ġexternal": 8551,
      "Ġchose": 8552,
      "Ġtrained": 8553,
      "Ġbrown": 8554,
      "ĠJuan": 8555,
      "Ġcorner": 8556,
      "mod": 8557,
      "roc": 8558,
      "Ġdub": 8559,
      "Ġcoaching": 8560,
      "feld": 8561,
      "ocratic": 8562,
      "Ġundert": 8563,
      "Ġgrade": 8564,
      "oustic": 8565,
      "Football": 8566,
      "ME": 8567,
      "ersion": 8568,
      "Ġinterests": 8569,
      "ĠAlliance": 8570,
      "Ġprotected": 8571,
      "Ġforests": 8572,
      "ĠBirmingham": 8573,
      "Ġreplacement": 8574,
      "roke": 8575,
      "urers": 8576,
      "Ġdamaged": 8577,
      "ĠPrincess": 8578,
      "SU": 8579,
      "ĠLam": 8580,
      "pre": 8581,
      "Ġanch": 8582,
      "ĠKaz": 8583,
      "ishment": 8584,
      "Ġsuperv": 8585,
      "Ġsupposed": 8586,
      "Ġoccupation": 8587,
      "Ġsurn": 8588,
      "ĠPa": 8589,
      "ĠGermans": 8590,
      "ĠAgency": 8591,
      "ĠLaure": 8592,
      "Ġencounter": 8593,
      "ĠTigers": 8594,
      "Scotland": 8595,
      "Ġnaval": 8596,
      "ĠRules": 8597,
      "ĠDyn": 8598,
      "Ġadaptation": 8599,
      "Ġlists": 8600,
      "Ġexists": 8601,
      "Ġenh": 8602,
      "Ġbuy": 8603,
      "riptions": 8604,
      "ĠMetropolitan": 8605,
      "boys": 8606,
      "Ġduties": 8607,
      "otal": 8608,
      "Ġexpatriate": 8609,
      "Ġconsiderable": 8610,
      "Ġrequirements": 8611,
      "songwriter": 8612,
      "dr": 8613,
      "ĠAlt": 8614,
      "Ġjustice": 8615,
      "Ġteach": 8616,
      "ĠInfantry": 8617,
      "Ġtick": 8618,
      "Ġbat": 8619,
      "iration": 8620,
      "agles": 8621,
      "avel": 8622,
      "ishers": 8623,
      "Ġfishing": 8624,
      "ĠKa": 8625,
      "ĠChair": 8626,
      "ĠCharlie": 8627,
      "Ġresidential": 8628,
      "fare": 8629,
      "Ġreturns": 8630,
      "Ġdies": 8631,
      "ĠDoc": 8632,
      "1950": 8633,
      "Ã¶r": 8634,
      "ĠDonald": 8635,
      "Ġdoor": 8636,
      "span": 8637,
      "Ġdepos": 8638,
      "Ġconcrete": 8639,
      "Ġdiagn": 8640,
      "ĠAnglican": 8641,
      "Port": 8642,
      "ĠHorn": 8643,
      "\";": 8644,
      "Ġmanner": 8645,
      "Ġuseful": 8646,
      "1967": 8647,
      "Ġvalid": 8648,
      "Ġquestions": 8649,
      "ĠLegislative": 8650,
      "Ġflying": 8651,
      "Ġstood": 8652,
      "ĠMargaret": 8653,
      "ĠSymphony": 8654,
      "iki": 8655,
      "Ġcontributions": 8656,
      "Ġexhibition": 8657,
      "Ġfear": 8658,
      "ĠBCE": 8659,
      "Ġdelivered": 8660,
      "Ġwithdraw": 8661,
      "pping": 8662,
      "ĠTownship": 8663,
      "ĠCollection": 8664,
      "ĠPalest": 8665,
      "ĠRailroad": 8666,
      "ĠEgyptian": 8667,
      "Ġshooting": 8668,
      "Ġwidespread": 8669,
      "Ang": 8670,
      "Sub": 8671,
      "Ġprepared": 8672,
      "GA": 8673,
      "spe": 8674,
      "ĠAy": 8675,
      "ĠPed": 8676,
      "Ġplane": 8677,
      "ĠAndre": 8678,
      "east": 8679,
      "ĠCox": 8680,
      "ĠTan": 8681,
      "ĠPur": 8682,
      "Ġasc": 8683,
      "ĠLib": 8684,
      "ĠLock": 8685,
      "ulus": 8686,
      "Ġclin": 8687,
      "aware": 8688,
      "Ġaccompl": 8689,
      "ĠKelly": 8690,
      "Ġspaces": 8691,
      "Ġlearned": 8692,
      "sch": 8693,
      "ĠAbout": 8694,
      "isp": 8695,
      "ĠBart": 8696,
      "aurus": 8697,
      "Ġperiods": 8698,
      "ĠWhe": 8699,
      "Ġsecretary": 8700,
      "Ġgetting": 8701,
      "ĠHindu": 8702,
      "ĠJerusalem": 8703,
      "ĠArchitecture": 8704,
      "Ġanthrop": 8705,
      "Ġiniti": 8706,
      "Ġ*": 8707,
      "ĠNag": 8708,
      "opy": 8709,
      "ĠIndependent": 8710,
      "icon": 8711,
      "Ġ39": 8712,
      "Ġformally": 8713,
      "Ġmir": 8714,
      "Ġeyes": 8715,
      "Ġdecline": 8716,
      "Ġflo": 8717,
      "ĠBlues": 8718,
      "Ġachieve": 8719,
      "ĠUpon": 8720,
      "Reception": 8721,
      "ĠCommunist": 8722,
      "ĠUtah": 8723,
      "SS": 8724,
      "ĠBeg": 8725,
      "ĠRugby": 8726,
      "Ġvide": 8727,
      "ĠHerz": 8728,
      "ÑĢ": 8729,
      "Ġ().": 8730,
      "Ġmining": 8731,
      "Ġprotest": 8732,
      "Ġcriticized": 8733,
      "Ġstreets": 8734,
      "door": 8735,
      "ĠGor": 8736,
      "Ġcharacteristics": 8737,
      "ĠEston": 8738,
      "Ġserial": 8739,
      "hab": 8740,
      "Ġintellect": 8741,
      "Ġterror": 8742,
      "Ġarrival": 8743,
      "Ġstopped": 8744,
      "www": 8745,
      "Ġsession": 8746,
      "Ġalgebra": 8747,
      "Ġassistance": 8748,
      "ĠSpeed": 8749,
      "ĠDet": 8750,
      "Ġprofession": 8751,
      "Ġparticipate": 8752,
      "Ġboundary": 8753,
      "ĠPay": 8754,
      "anged": 8755,
      "ĠGraham": 8756,
      "ĠTamil": 8757,
      "rehens": 8758,
      "enburg": 8759,
      "ĠChel": 8760,
      "Ġarranged": 8761,
      "ĠVillage": 8762,
      "?\"": 8763,
      "Mich": 8764,
      "ĠRuth": 8765,
      "ĠEqu": 8766,
      "Ġindigenous": 8767,
      "ĠAnglo": 8768,
      "ttp": 8769,
      "harm": 8770,
      "Ġinher": 8771,
      "akia": 8772,
      "Ġattributed": 8773,
      "Ġaccompanied": 8774,
      "Ġdefeating": 8775,
      "ĠTon": 8776,
      "ĠRangers": 8777,
      "Ġ1906": 8778,
      "ĠAdelaide": 8779,
      "Ġemperor": 8780,
      "theless": 8781,
      "Ġthousand": 8782,
      "Ep": 8783,
      "Ġahead": 8784,
      "Ġpure": 8785,
      "ĠSn": 8786,
      "ĠJose": 8787,
      "ĠVideo": 8788,
      "Ġ1905": 8789,
      "Ġscholar": 8790,
      "Ġmales": 8791,
      "unar": 8792,
      "Ġmarkets": 8793,
      "Ev": 8794,
      "count": 8795,
      "non": 8796,
      "Ġtact": 8797,
      "rene": 8798,
      "Ġskating": 8799,
      "Ġgreatly": 8800,
      "writers": 8801,
      "Ġemerged": 8802,
      "Ġvenue": 8803,
      "Sportspeople": 8804,
      "ĠDance": 8805,
      "anny": 8806,
      "Ġensure": 8807,
      "kee": 8808,
      "Ġib": 8809,
      "ĠBull": 8810,
      "Ġlingu": 8811,
      "ĠLet": 8812,
      "anner": 8813,
      "ĠBelarus": 8814,
      "Ġsubjects": 8815,
      "Ġresponsibility": 8816,
      "Ġcelebrated": 8817,
      "lock": 8818,
      "estyle": 8819,
      "ĠRhif": 8820,
      "Ġdomain": 8821,
      "ĠHotel": 8822,
      "ĠWayne": 8823,
      "OC": 8824,
      "ĠKo": 8825,
      "ĠAthletic": 8826,
      "ĠWalker": 8827,
      "Ġaf": 8828,
      "Ġsoutheast": 8829,
      "asa": 8830,
      "ĠJay": 8831,
      "odore": 8832,
      "ectors": 8833,
      "othy": 8834,
      "Ġtribe": 8835,
      "Ġcable": 8836,
      "ĠMi": 8837,
      "Ġthick": 8838,
      "ontin": 8839,
      "ĠMarket": 8840,
      "Two": 8841,
      "orig": 8842,
      "Ġteachers": 8843,
      "Ġinjured": 8844,
      "ĠNort": 8845,
      "Ġdesigner": 8846,
      "Ġlongest": 8847,
      "1963": 8848,
      "cyclop": 8849,
      "East": 8850,
      "eo": 8851,
      "Ġfile": 8852,
      "ĠRey": 8853,
      "Ġcommemor": 8854,
      "ĠBerkeley": 8855,
      "ĠMississippi": 8856,
      "Medalists": 8857,
      "emale": 8858,
      "rett": 8859,
      "Ġsatisf": 8860,
      "inate": 8861,
      "ĠRap": 8862,
      "Ġdiscip": 8863,
      "comp": 8864,
      "ĠNBC": 8865,
      "Ġchance": 8866,
      "Ġresign": 8867,
      "Ġweekly": 8868,
      "Ġpraised": 8869,
      "Ġmessage": 8870,
      "Pal": 8871,
      "ults": 8872,
      "Albums": 8873,
      "Ġsoldier": 8874,
      "Ġoccasionally": 8875,
      "enezuel": 8876,
      "mates": 8877,
      "ĠMess": 8878,
      "Ġsympt": 8879,
      "Ġmembership": 8880,
      "Ġdispl": 8881,
      "ĠJohnny": 8882,
      "Ġplanet": 8883,
      "hum": 8884,
      "Ġbond": 8885,
      "uclear": 8886,
      "ĠContin": 8887,
      "Ġspeak": 8888,
      "Ġforming": 8889,
      "Ġdeclined": 8890,
      "Ġreun": 8891,
      "ĠMission": 8892,
      "ĠRa": 8893,
      "ussels": 8894,
      "Ġeffectively": 8895,
      "ĠRest": 8896,
      "hematic": 8897,
      "Ġdebate": 8898,
      "ĠCentury": 8899,
      "final": 8900,
      "Ã´": 8901,
      "Ġpool": 8902,
      "ĠBox": 8903,
      "ĠĊĠ": 8904,
      "Ġwheel": 8905,
      "dd": 8906,
      "argo": 8907,
      "Ã©t": 8908,
      "ĠMediterranean": 8909,
      "Ġdress": 8910,
      "ĠTower": 8911,
      "ĠBurg": 8912,
      "ugu": 8913,
      "ĠHistorical": 8914,
      "ĠMaur": 8915,
      "ĠPatri": 8916,
      "Ġchampionships": 8917,
      "bat": 8918,
      "Ġmissions": 8919,
      "Ġnetworks": 8920,
      "ĠPrimary": 8921,
      "'re": 8922,
      "Bur": 8923,
      "hered": 8924,
      "ĠGon": 8925,
      "uble": 8926,
      "ureau": 8927,
      "Ġsurre": 8928,
      "Ġactivist": 8929,
      "Ġprinciple": 8930,
      "Ġuniverse": 8931,
      "ivation": 8932,
      "ĠIns": 8933,
      "ĠKennedy": 8934,
      "NC": 8935,
      "aments": 8936,
      "ĠMans": 8937,
      "Ġcustom": 8938,
      "ht": 8939,
      "ĠShip": 8940,
      "ĠRol": 8941,
      "ĠNash": 8942,
      "Ġdeleg": 8943,
      "ĠMean": 8944,
      "isations": 8945,
      "asi": 8946,
      "olid": 8947,
      "Ġchanging": 8948,
      "ĠHawai": 8949,
      "Ġconcentration": 8950,
      "ĠGriff": 8951,
      "raham": 8952,
      "Ġhistorians": 8953,
      "ĠRomanian": 8954,
      "Ġbroadcasting": 8955,
      "Born": 8956,
      "MI": 8957,
      "Ġori": 8958,
      "udes": 8959,
      "Ġagency": 8960,
      "1965": 8961,
      "Ġexplos": 8962,
      "Ġinvestment": 8963,
      "Ġratio": 8964,
      "ĠSeven": 8965,
      "ĠColombia": 8966,
      "ĠByzantine": 8967,
      "mund": 8968,
      "Ġsubstit": 8969,
      "ĠCarlos": 8970,
      "boy": 8971,
      "lÄ±": 8972,
      "ulating": 8973,
      "Ġkings": 8974,
      "Ġskaters": 8975,
      "Ġcolonies": 8976,
      "Ġdriving": 8977,
      "ĠRichmond": 8978,
      "zh": 8979,
      "inian": 8980,
      "ĠChem": 8981,
      "uri": 8982,
      "andom": 8983,
      "Ġvast": 8984,
      "angerous": 8985,
      "Ġrepresentation": 8986,
      "eenth": 8987,
      "Ġ52": 8988,
      "Ġprocessing": 8989,
      "ĠFern": 8990,
      "ĠVancouver": 8991,
      "Ġaudio": 8992,
      "Ġjurisd": 8993,
      "Ġgiant": 8994,
      "Ġstress": 8995,
      "ĠAndy": 8996,
      "Ġstrongly": 8997,
      "ser": 8998,
      "Ġsave": 8999,
      "Ġmode": 9000,
      "Ġpublications": 9001,
      "Ġmassive": 9002,
      "Ġnone": 9003,
      "Ġfled": 9004,
      "ĠBlood": 9005,
      "Ġmetres": 9006,
      "hattan": 9007,
      "Ġben": 9008,
      "ĠIRA": 9009,
      "abul": 9010,
      "ĠVolume": 9011,
      "oons": 9012,
      "Ġcolony": 9013,
      "ĠAmsterdam": 9014,
      "formance": 9015,
      "Ġhal": 9016,
      "Ġstrategy": 9017,
      "ĠBrigade": 9018,
      "Ġsoul": 9019,
      "Ġ55": 9020,
      "Ġpublishing": 9021,
      "ĠWallace": 9022,
      "Ġnav": 9023,
      "ĠYouth": 9024,
      "atters": 9025,
      "ĠPlace": 9026,
      "ĠStandard": 9027,
      "ugs": 9028,
      "Ġgrown": 9029,
      "ymru": 9030,
      "Ġfil": 9031,
      "ĠMort": 9032,
      "Ġanime": 9033,
      "Ġnormally": 9034,
      "iations": 9035,
      "Ġrecept": 9036,
      "Ã©s": 9037,
      "1962": 9038,
      "released": 9039,
      "ĠFive": 9040,
      "ĠHolland": 9041,
      "Ġsurviving": 9042,
      "ĠLions": 9043,
      "Ġdrivers": 9044,
      "Ġ1880": 9045,
      "ĠAdditionally": 9046,
      "ĠArkansas": 9047,
      "BI": 9048,
      "Ġtherm": 9049,
      "Ġsort": 9050,
      "atern": 9051,
      "ĠThompson": 9052,
      "à®": 9053,
      "Ġmental": 9054,
      "ĠCart": 9055,
      "ĠSeattle": 9056,
      "Ġ1903": 9057,
      "Commencement": 9058,
      "Ag": 9059,
      "ĠLower": 9060,
      "ĠLanguage": 9061,
      "Ġshut": 9062,
      "Ġshif": 9063,
      "Ġpartly": 9064,
      "Ġjoining": 9065,
      "Ġoxygen": 9066,
      "Ġpenalty": 9067,
      "Ġdated": 9068,
      "ĠBorn": 9069,
      "ĠAnat": 9070,
      "ÃŃn": 9071,
      "Ġinfrastructure": 9072,
      "gressive": 9073,
      "ĠBav": 9074,
      "aired": 9075,
      "á»": 9076,
      "orer": 9077,
      "Ġinput": 9078,
      "ĠFitz": 9079,
      "Ġchannels": 9080,
      "Ġheritage": 9081,
      "Ġgrant": 9082,
      "ĠBroadcasting": 9083,
      "ĠCA": 9084,
      "ĠTrad": 9085,
      "Ġstages": 9086,
      "ĠOw": 9087,
      "Ġexplained": 9088,
      "rainian": 9089,
      "Ġunsuccess": 9090,
      "Ġinner": 9091,
      "Ġ120": 9092,
      "ĠGary": 9093,
      "Ġpreserved": 9094,
      "Ġvisible": 9095,
      "ĠBernard": 9096,
      "ĠCou": 9097,
      "osph": 9098,
      "ported": 9099,
      "ĠScient": 9100,
      "Ġlasted": 9101,
      "Ġgeomet": 9102,
      "ĠLad": 9103,
      "ĠEss": 9104,
      "Ġenl": 9105,
      "Ġtransc": 9106,
      "ristol": 9107,
      "Ġextent": 9108,
      "ĠTraining": 9109,
      "Ġbed": 9110,
      "ĠElementary": 9111,
      "ĠProtestant": 9112,
      "Crit": 9113,
      "ĠWard": 9114,
      "rors": 9115,
      "avalry": 9116,
      "ĠEconomic": 9117,
      "hop": 9118,
      "rity": 9119,
      "Ġ),": 9120,
      "Ġcaught": 9121,
      "Ġteen": 9122,
      "Ġsigns": 9123,
      "Ġmagazines": 9124,
      "Another": 9125,
      "ĠâĢĺ": 9126,
      "ruption": 9127,
      "Ġmor": 9128,
      "ĠArena": 9129,
      "apse": 9130,
      "oker": 9131,
      "issue": 9132,
      "Ġevening": 9133,
      "Ġcircuit": 9134,
      "ĠMalaysia": 9135,
      "ilk": 9136,
      "Ġheaded": 9137,
      "Ġmanufacturing": 9138,
      "senal": 9139,
      "Ġliquid": 9140,
      "iors": 9141,
      "ĠGiants": 9142,
      "ĠSpirit": 9143,
      "Ġsimpl": 9144,
      "uin": 9145,
      "Ġbeach": 9146,
      "Ġfinals": 9147,
      "1945": 9148,
      "Ġpresidential": 9149,
      "Ġportrayed": 9150,
      "race": 9151,
      "Ġadopt": 9152,
      "Afric": 9153,
      "Ġselling": 9154,
      "Ġelectoral": 9155,
      "Ġtempor": 9156,
      "ingly": 9157,
      "ĠPhoen": 9158,
      "Ġappearing": 9159,
      "ĠSaints": 9160,
      "ĠMond": 9161,
      "ĠProm": 9162,
      "ashi": 9163,
      "1966": 9164,
      "Ġcategories": 9165,
      "Ġrapidly": 9166,
      "ĠAzerbaijan": 9167,
      "atus": 9168,
      "istical": 9169,
      "ewhere": 9170,
      "ĠChampion": 9171,
      "ĠIndians": 9172,
      "Stud": 9173,
      "Ġtheories": 9174,
      "Ġgenetic": 9175,
      "mediate": 9176,
      "ĠMontreal": 9177,
      "Japanese": 9178,
      "Ġduty": 9179,
      "obby": 9180,
      "ĠTrail": 9181,
      "Ġfilled": 9182,
      "Ġbird": 9183,
      "ĠMall": 9184,
      "agg": 9185,
      "oche": 9186,
      "Ġusage": 9187,
      "ĠIv": 9188,
      "Ġconj": 9189,
      "arked": 9190,
      "Ġfinding": 9191,
      "ĠJimmy": 9192,
      "Ġregistered": 9193,
      "erted": 9194,
      "ilst": 9195,
      "ĠFrid": 9196,
      "Ġrating": 9197,
      "ĠThor": 9198,
      "ĠRobinson": 9199,
      "Ġtunnel": 9200,
      "fe": 9201,
      "Ġrecru": 9202,
      "ĠNova": 9203,
      "later": 9204,
      "Ġster": 9205,
      "amps": 9206,
      "Ġrecre": 9207,
      "intend": 9208,
      "ĠRomania": 9209,
      "Ġcontinuing": 9210,
      "din": 9211,
      "dess": 9212,
      "hour": 9213,
      "nie": 9214,
      "uber": 9215,
      "ashed": 9216,
      "athy": 9217,
      "ĠDean": 9218,
      "ĠExt": 9219,
      "ĠCulture": 9220,
      "stad": 9221,
      "ĠRena": 9222,
      "Ġcontroversial": 9223,
      "ĠLud": 9224,
      "umph": 9225,
      "Ġyield": 9226,
      "ĠMorris": 9227,
      "Ġentertainment": 9228,
      "James": 9229,
      "ĠBrew": 9230,
      "Ġfilmed": 9231,
      "Ġskin": 9232,
      "Ġsettlements": 9233,
      "Ġstrip": 9234,
      "ĨĴ": 9235,
      "ĠPage": 9236,
      "illes": 9237,
      "Ġ43": 9238,
      "ĠAgric": 9239,
      "ĠBenjamin": 9240,
      "Ġadvertising": 9241,
      "ĠBrisbane": 9242,
      "ĠLithuan": 9243,
      "Ġtrip": 9244,
      "Ġsuperior": 9245,
      "sm": 9246,
      "Ġrend": 9247,
      "Ġ1909": 9248,
      "Ġgraduate": 9249,
      "SW": 9250,
      "wig": 9251,
      "Ġtied": 9252,
      "Ġwrest": 9253,
      "ĠSud": 9254,
      "Ġ1901": 9255,
      "Ġfiled": 9256,
      "ovina": 9257,
      "ĠAncient": 9258,
      "Ġsurf": 9259,
      "ĠEvans": 9260,
      "Later": 9261,
      "PC": 9262,
      "ĠSom": 9263,
      "ĠRain": 9264,
      "ĠDub": 9265,
      "Ġmoder": 9266,
      "atherine": 9267,
      "Ġextreme": 9268,
      "ĠClinton": 9269,
      "Current": 9270,
      "ntil": 9271,
      "!\"": 9272,
      "onso": 9273,
      "riel": 9274,
      "ĠObl": 9275,
      "plement": 9276,
      "Ġpoems": 9277,
      "ĠAges": 9278,
      "ĠUkraine": 9279,
      "Ġkilomet": 9280,
      "ĠMind": 9281,
      "Ġcredit": 9282,
      "cussion": 9283,
      "rot": 9284,
      "ĠMult": 9285,
      "Ġclim": 9286,
      "Ġreputation": 9287,
      "Ġhorror": 9288,
      "Ġscheme": 9289,
      "Count": 9290,
      "Paul": 9291,
      "Ġnit": 9292,
      "ĠRio": 9293,
      "ĠNi": 9294,
      "ĠNatural": 9295,
      "elli": 9296,
      "Ġeval": 9297,
      "ĠAssoci": 9298,
      "Ġgradually": 9299,
      "Ġmathematics": 9300,
      "Ġtouchdown": 9301,
      "LC": 9302,
      "ĠRud": 9303,
      "Ġprovinces": 9304,
      "Ġsouthwest": 9305,
      "oard": 9306,
      "onomy": 9307,
      "Ġwounded": 9308,
      "Ġcod": 9309,
      "opal": 9310,
      "ĠFlight": 9311,
      "Ġcovering": 9312,
      "Class": 9313,
      "ĠClassic": 9314,
      "Ġdominant": 9315,
[...]
